{
  "version": "1.0",
  "truncation": null,
  "padding": null,
  "added_tokens": [
    {
      "id": 0,
      "content": "[PAD]",
      "single_word": false,
      "lstrip": false,
      "rstrip": false,
      "normalized": false,
      "special": true
    },
    {
      "id": 1,
      "content": "[UNK]",
      "single_word": false,
      "lstrip": false,
      "rstrip": false,
      "normalized": false,
      "special": true
    },
    {
      "id": 2,
      "content": "[CLS]",
      "single_word": false,
      "lstrip": false,
      "rstrip": false,
      "normalized": false,
      "special": true
    },
    {
      "id": 3,
      "content": "[MASK]",
      "single_word": false,
      "lstrip": false,
      "rstrip": false,
      "normalized": false,
      "special": true
    },
    {
      "id": 4,
      "content": "[SEP]",
      "single_word": false,
      "lstrip": false,
      "rstrip": false,
      "normalized": false,
      "special": true
    }
  ],
  "normalizer": {
    "type": "BertNormalizer",
    "clean_text": true,
    "handle_chinese_chars": true,
    "strip_accents": true,
    "lowercase": true
  },
  "pre_tokenizer": {
    "type": "BertPreTokenizer"
  },
  "post_processor": null,
  "decoder": {
    "type": "WordPiece",
    "prefix": "##",
    "cleanup": true
  },
  "model": {
    "type": "WordPiece",
    "unk_token": "[UNK]",
    "continuing_subword_prefix": "##",
    "max_input_chars_per_word": 100,
    "vocab": {
      "[PAD]": 0,
      "[UNK]": 1,
      "[CLS]": 2,
      "[MASK]": 3,
      "[SEP]": 4,
      "!": 5,
      "\"": 6,
      "#": 7,
      "$": 8,
      "%": 9,
      "&": 10,
      "'": 11,
      "(": 12,
      ")": 13,
      "*": 14,
      "+": 15,
      ",": 16,
      "-": 17,
      ".": 18,
      "/": 19,
      "0": 20,
      "1": 21,
      "2": 22,
      "3": 23,
      "4": 24,
      "5": 25,
      "6": 26,
      "7": 27,
      "8": 28,
      "9": 29,
      ":": 30,
      ";": 31,
      "=": 32,
      ">": 33,
      "?": 34,
      "@": 35,
      "[": 36,
      "\\": 37,
      "]": 38,
      "_": 39,
      "`": 40,
      "a": 41,
      "b": 42,
      "c": 43,
      "d": 44,
      "e": 45,
      "f": 46,
      "g": 47,
      "h": 48,
      "i": 49,
      "j": 50,
      "k": 51,
      "l": 52,
      "m": 53,
      "n": 54,
      "o": 55,
      "p": 56,
      "q": 57,
      "r": 58,
      "s": 59,
      "t": 60,
      "u": 61,
      "v": 62,
      "w": 63,
      "x": 64,
      "y": 65,
      "z": 66,
      "##o": 67,
      "##r": 68,
      "##d": 69,
      "##s": 70,
      "##t": 71,
      "##h": 72,
      "##e": 73,
      "##v": 74,
      "##p": 75,
      "##a": 76,
      "##l": 77,
      "##y": 78,
      "##w": 79,
      "##n": 80,
      "##k": 81,
      "##c": 82,
      "##i": 83,
      "##g": 84,
      "##u": 85,
      "##m": 86,
      "##b": 87,
      "##x": 88,
      "##f": 89,
      "##z": 90,
      "##6": 91,
      "##0": 92,
      "##2": 93,
      "##4": 94,
      "##3": 95,
      "##j": 96,
      "##q": 97,
      "##8": 98,
      "##9": 99,
      "##7": 100,
      "##5": 101,
      "##1": 102,
      "##in": 103,
      "##ing": 104,
      "##it": 105,
      "##er": 106,
      "##an": 107,
      "th": 108,
      "on": 109,
      "##le": 110,
      "##at": 111,
      "of": 112,
      "##ar": 113,
      "the": 114,
      "in": 115,
      "##re": 116,
      "an": 117,
      "##ith": 118,
      "with": 119,
      "##ro": 120,
      "##en": 121,
      "and": 122,
      "##al": 123,
      "##ed": 124,
      "to": 125,
      "st": 126,
      "##om": 127,
      "##es": 128,
      "##ding": 129,
      "##as": 130,
      "##on": 131,
      "##ow": 132,
      "##ck": 133,
      "##et": 134,
      "is": 135,
      "##or": 136,
      "##ir": 137,
      "##ch": 138,
      "##ou": 139,
      "##is": 140,
      "man": 141,
      "##la": 142,
      "##op": 143,
      "##ting": 144,
      "sit": 145,
      "##ra": 146,
      "##all": 147,
      "##el": 148,
      "##oo": 149,
      "##id": 150,
      "##il": 151,
      "ne": 152,
      "##ot": 153,
      "wh": 154,
      "##ers": 155,
      "##ol": 156,
      "##rou": 157,
      "stan": 158,
      "sitting": 159,
      "##ig": 160,
      "##ge": 161,
      "are": 162,
      "##ut": 163,
      "##ic": 164,
      "##wo": 165,
      "##ard": 166,
      "##ab": 167,
      "at": 168,
      "##ea": 169,
      "##king": 170,
      "bu": 171,
      "sk": 172,
      "pe": 173,
      "##ite": 174,
      "##ying": 175,
      "standing": 176,
      "##ople": 177,
      "two": 178,
      "##ide": 179,
      "tra": 180,
      "##eb": 181,
      "people": 182,
      "##ur": 183,
      "##oard": 184,
      "wom": 185,
      "##xt": 186,
      "##able": 187,
      "sh": 188,
      "next": 189,
      "white": 190,
      "##ver": 191,
      "it": 192,
      "##nt": 193,
      "ro": 194,
      "woman": 195,
      "##ass": 196,
      "##nd": 197,
      "pla": 198,
      "##ff": 199,
      "pl": 200,
      "##ile": 201,
      "hol": 202,
      "##lo": 203,
      "table": 204,
      "stre": 205,
      "ch": 206,
      "do": 207,
      "cou": 208,
      "street": 209,
      "la": 210,
      "##her": 211,
      "be": 212,
      "##ome": 213,
      "fro": 214,
      "fi": 215,
      "##ood": 216,
      "bo": 217,
      "that": 218,
      "par": 219,
      "holding": 220,
      "top": 221,
      "##own": 222,
      "grou": 223,
      "sm": 224,
      "##se": 225,
      "##ce": 226,
      "some": 227,
      "##erson": 228,
      "##ack": 229,
      "person": 230,
      "##ate": 231,
      "bat": 232,
      "##arge": 233,
      "##ant": 234,
      "large": 235,
      "##ad": 236,
      "##ri": 237,
      "##am": 238,
      "gir": 239,
      "down": 240,
      "cat": 241,
      "wat": 242,
      "##and": 243,
      "up": 244,
      "pi": 245,
      "fl": 246,
      "##eld": 247,
      "group": 248,
      "##ion": 249,
      "ri": 250,
      "sn": 251,
      "##ru": 252,
      "car": 253,
      "dog": 254,
      "out": 255,
      "##ng": 256,
      "##igh": 257,
      "field": 258,
      "##ve": 259,
      "near": 260,
      "snow": 261,
      "ten": 262,
      "small": 263,
      "wal": 264,
      "##nis": 265,
      "clo": 266,
      "train": 267,
      "##ign": 268,
      "##ke": 269,
      "his": 270,
      "##lack": 271,
      "front": 272,
      "##ul": 273,
      "tennis": 274,
      "park": 275,
      "gr": 276,
      "black": 277,
      "bus": 278,
      "bas": 279,
      "sur": 280,
      "##room": 281,
      "##row": 282,
      "##ee": 283,
      "sign": 284,
      "##ain": 285,
      "##ell": 286,
      "##ree": 287,
      "room": 288,
      "##ure": 289,
      "##st": 290,
      "riding": 291,
      "##ay": 292,
      "##ind": 293,
      "##ple": 294,
      "kit": 295,
      "bl": 296,
      "air": 297,
      "grass": 298,
      "you": 299,
      "plate": 300,
      "red": 301,
      "side": 302,
      "ph": 303,
      "by": 304,
      "##ight": 305,
      "water": 306,
      "young": 307,
      "##ue": 308,
      "##ent": 309,
      "loo": 310,
      "##round": 311,
      "bath": 312,
      "##dy": 313,
      "surf": 314,
      "##ving": 315,
      "##ss": 316,
      "##ph": 317,
      "##board": 318,
      "buil": 319,
      "##one": 320,
      "bed": 321,
      "baseb": 322,
      "building": 323,
      "baseball": 324,
      "##ink": 325,
      "##reen": 326,
      "##air": 327,
      "skat": 328,
      "has": 329,
      "##ds": 330,
      "play": 331,
      "se": 332,
      "com": 333,
      "##mb": 334,
      "##side": 335,
      "while": 336,
      "playing": 337,
      "##pt": 338,
      "walking": 339,
      "skateb": 340,
      "bathroom": 341,
      "su": 342,
      "##zz": 343,
      "##yc": 344,
      "##ther": 345,
      "for": 346,
      "food": 347,
      "her": 348,
      "co": 349,
      "hor": 350,
      "blue": 351,
      "pizz": 352,
      "##ct": 353,
      "##ear": 354,
      "kitch": 355,
      "##age": 356,
      "kitchen": 357,
      "##ycle": 358,
      "skateboard": 359,
      "back": 360,
      "bea": 361,
      "mot": 362,
      "wood": 363,
      "green": 364,
      "li": 365,
      "po": 366,
      "##aff": 367,
      "ele": 368,
      "##irt": 369,
      "giraff": 370,
      "parked": 371,
      "boy": 372,
      "pizza": 373,
      "##gh": 374,
      "other": 375,
      "ski": 376,
      "looking": 377,
      "##ie": 378,
      "motor": 379,
      "##im": 380,
      "##ere": 381,
      "##get": 382,
      "##ture": 383,
      "over": 384,
      "beach": 385,
      "##ity": 386,
      "eat": 387,
      "##ilet": 388,
      "clock": 389,
      "ben": 390,
      "toilet": 391,
      "bear": 392,
      "##tle": 393,
      "##phant": 394,
      "couple": 395,
      "pic": 396,
      "elephant": 397,
      "des": 398,
      "##ach": 399,
      "ca": 400,
      "##ran": 401,
      "girl": 402,
      "ball": 403,
      "##em": 404,
      "road": 405,
      "con": 406,
      "men": 407,
      "##rel": 408,
      "##ild": 409,
      "wa": 410,
      "##th": 411,
      "comp": 412,
      "##ane": 413,
      "wear": 414,
      "picture": 415,
      "##led": 416,
      "there": 417,
      "city": 418,
      "gam": 419,
      "mou": 420,
      "umb": 421,
      "dis": 422,
      "umbrel": 423,
      "motorc": 424,
      "flying": 425,
      "##lass": 426,
      "al": 427,
      "board": 428,
      "wearing": 429,
      "bench": 430,
      "tow": 431,
      "##cks": 432,
      "##ris": 433,
      "sl": 434,
      "player": 435,
      "motorcycle": 436,
      "##ptop": 437,
      "wind": 438,
      "laptop": 439,
      "tru": 440,
      "##ld": 441,
      "##ore": 442,
      "int": 443,
      "three": 444,
      "##veral": 445,
      "##ill": 446,
      "zeb": 447,
      "laying": 448,
      "child": 449,
      "from": 450,
      "comput": 451,
      "##ong": 452,
      "sits": 453,
      "as": 454,
      "##rown": 455,
      "##sh": 456,
      "sand": 457,
      "##ine": 458,
      "wooden": 459,
      "##um": 460,
      "##rough": 461,
      "window": 462,
      "sink": 463,
      "glass": 464,
      "gra": 465,
      "airp": 466,
      "game": 467,
      "##nder": 468,
      "##ter": 469,
      "through": 470,
      "their": 471,
      "##ping": 472,
      "area": 473,
      "op": 474,
      "boat": 475,
      "fris": 476,
      "chair": 477,
      "frisb": 478,
      "brown": 479,
      "around": 480,
      "##ellow": 481,
      "one": 482,
      "eating": 483,
      "##un": 484,
      "yellow": 485,
      "##ks": 486,
      "old": 487,
      "light": 488,
      "stop": 489,
      "sc": 490,
      "several": 491,
      "hand": 492,
      "ta": 493,
      "horse": 494,
      "tre": 495,
      "computer": 496,
      "##ped": 497,
      "bir": 498,
      "##oto": 499,
      "wall": 500,
      "lit": 501,
      "photo": 502,
      "desk": 503,
      "under": 504,
      "de": 505,
      "##ice": 506,
      "giraffe": 507,
      "##ort": 508,
      "##ase": 509,
      "##ast": 510,
      "##ery": 511,
      "cover": 512,
      "ra": 513,
      "ve": 514,
      "cake": 515,
      "open": 516,
      "sp": 517,
      "##ull": 518,
      "close": 519,
      "##way": 520,
      "##est": 521,
      "living": 522,
      "truck": 523,
      "sw": 524,
      "##rt": 525,
      "fire": 526,
      "frisbee": 527,
      "re": 528,
      "##cc": 529,
      "phone": 530,
      "flo": 531,
      "##ross": 532,
      "ban": 533,
      "col": 534,
      "##ses": 535,
      "surfboard": 536,
      "outside": 537,
      "lot": 538,
      "##gg": 539,
      "rea": 540,
      "bow": 541,
      "di": 542,
      "covered": 543,
      "count": 544,
      "bun": 545,
      "umbrella": 546,
      "##acket": 547,
      "trees": 548,
      "each": 549,
      "##ation": 550,
      "cow": 551,
      "##eat": 552,
      "##illed": 553,
      "##ove": 554,
      "##ich": 555,
      "cell": 556,
      "suit": 557,
      "banan": 558,
      "very": 559,
      "beh": 560,
      "behind": 561,
      "##eep": 562,
      "##sing": 563,
      "cl": 564,
      "filled": 565,
      "oran": 566,
      "off": 567,
      "court": 568,
      "many": 569,
      "##pla": 570,
      "##ground": 571,
      "tree": 572,
      "its": 573,
      "sky": 574,
      "##ap": 575,
      "cut": 576,
      "little": 577,
      "bowl": 578,
      "cont": 579,
      "##ching": 580,
      "ab": 581,
      "flow": 582,
      "ap": 583,
      "##ves": 584,
      "##up": 585,
      "ma": 586,
      "show": 587,
      "fen": 588,
      "into": 589,
      "toget": 590,
      "##ead": 591,
      "couch": 592,
      "##ction": 593,
      "together": 594,
      "##ors": 595,
      "##qu": 596,
      "sandw": 597,
      "##if": 598,
      "##iew": 599,
      "sandwich": 600,
      "bi": 601,
      "bunch": 602,
      "airpl": 603,
      "mount": 604,
      "shirt": 605,
      "run": 606,
      "this": 607,
      "##ly": 608,
      "background": 609,
      "dri": 610,
      "so": 611,
      "te": 612,
      "view": 613,
      "##rick": 614,
      "kite": 615,
      "##alk": 616,
      "skis": 617,
      "big": 618,
      "dou": 619,
      "##ag": 620,
      "inside": 621,
      "sheep": 622,
      "mir": 623,
      "stands": 624,
      "mirro": 625,
      "plat": 626,
      "pre": 627,
      "##ts": 628,
      "##les": 629,
      "displa": 630,
      "oce": 631,
      "hot": 632,
      "##ets": 633,
      "stu": 634,
      "##walk": 635,
      "bird": 636,
      "##ub": 637,
      "hy": 638,
      "le": 639,
      "pie": 640,
      "##ffic": 641,
      "ocean": 642,
      "##ry": 643,
      "go": 644,
      "counter": 645,
      "lu": 646,
      "##rant": 647,
      "##ang": 648,
      "hyd": 649,
      "veget": 650,
      "hydrant": 651,
      "traffic": 652,
      "zebra": 653,
      "##ras": 654,
      "mid": 655,
      "swing": 656,
      "##do": 657,
      "pass": 658,
      "##orm": 659,
      "racket": 660,
      "##eddy": 661,
      "##dle": 662,
      "airplane": 663,
      "##other": 664,
      "display": 665,
      "teddy": 666,
      "mirror": 667,
      "floor": 668,
      "vegetable": 669,
      "##ook": 670,
      "ref": 671,
      "wi": 672,
      "##ffer": 673,
      "##oth": 674,
      "orange": 675,
      "##fferent": 676,
      "another": 677,
      "dirt": 678,
      "women": 679,
      "anim": 680,
      "different": 681,
      "sidewalk": 682,
      "##ner": 683,
      "##ies": 684,
      "animal": 685,
      "mountain": 686,
      "stand": 687,
      "##eth": 688,
      "##sa": 689,
      "##iling": 690,
      "##ress": 691,
      "jum": 692,
      "tall": 693,
      "tower": 694,
      "##our": 695,
      "plane": 696,
      "flowers": 697,
      "##etting": 698,
      "##ous": 699,
      "che": 700,
      "##ruit": 701,
      "bab": 702,
      "met": 703,
      "hill": 704,
      "sa": 705,
      "parking": 706,
      "fruit": 707,
      "hit": 708,
      "tracks": 709,
      "horses": 710,
      "bro": 711,
      "along": 712,
      "giraffes": 713,
      "im": 714,
      "br": 715,
      "##era": 716,
      "baby": 717,
      "fence": 718,
      "day": 719,
      "gu": 720,
      "ground": 721,
      "vase": 722,
      "head": 723,
      "mo": 724,
      "##vel": 725,
      "##ket": 726,
      "graz": 727,
      "wave": 728,
      "grassy": 729,
      "##ble": 730,
      "##par": 731,
      "hang": 732,
      "snowboard": 733,
      "being": 734,
      "full": 735,
      "cars": 736,
      "fa": 737,
      "vegetables": 738,
      "##two": 739,
      "zebras": 740,
      "stuff": 741,
      "fe": 742,
      "rest": 743,
      "##ey": 744,
      "##ren": 745,
      "station": 746,
      "slop": 747,
      "ad": 748,
      "##ari": 749,
      "##rying": 750,
      "elephants": 751,
      "middle": 752,
      "##kes": 753,
      "bananas": 754,
      "##ated": 755,
      "##ick": 756,
      "tie": 757,
      "##ven": 758,
      "dress": 759,
      "un": 760,
      "ready": 761,
      "cup": 762,
      "image": 763,
      "##the": 764,
      "en": 765,
      "dr": 766,
      "cam": 767,
      "pro": 768,
      "##ip": 769,
      "##ment": 770,
      "taking": 771,
      "hat": 772,
      "cor": 773,
      "crow": 774,
      "them": 775,
      "##uring": 776,
      "##ator": 777,
      "box": 778,
      "driving": 779,
      "vari": 780,
      "##ggage": 781,
      "bes": 782,
      "stuffed": 783,
      "##ave": 784,
      "signs": 785,
      "cross": 786,
      "crowd": 787,
      "sun": 788,
      "ac": 789,
      "##ning": 790,
      "##oli": 791,
      "##ult": 792,
      "bike": 793,
      "piece": 794,
      "##rol": 795,
      "lo": 796,
      "##iger": 797,
      "##ess": 798,
      "##ade": 799,
      "ar": 800,
      "##rush": 801,
      "long": 802,
      "wor": 803,
      "brocc": 804,
      "above": 805,
      "across": 806,
      "grazing": 807,
      "kn": 808,
      "travel": 809,
      "refr": 810,
      "beside": 811,
      "guy": 812,
      "bot": 813,
      "luggage": 814,
      "skiing": 815,
      "##pe": 816,
      "prepar": 817,
      "broccoli": 818,
      "##ust": 819,
      "refriger": 820,
      "skate": 821,
      "wine": 822,
      "em": 823,
      "four": 824,
      "snowy": 825,
      "cows": 826,
      "kid": 827,
      "key": 828,
      "hanging": 829,
      "##elf": 830,
      "don": 831,
      "door": 832,
      "during": 833,
      "##iting": 834,
      "##cor": 835,
      "tele": 836,
      "refrigerator": 837,
      "holds": 838,
      "slope": 839,
      "bic": 840,
      "##eng": 841,
      "glasses": 842,
      "##ese": 843,
      "wii": 844,
      "color": 845,
      "cle": 846,
      "past": 847,
      "pink": 848,
      "##uts": 849,
      "##ten": 850,
      "##urn": 851,
      "doing": 852,
      "rem": 853,
      "tal": 854,
      "lea": 855,
      "##las": 856,
      "herd": 857,
      "camera": 858,
      "##ted": 859,
      "children": 860,
      "pair": 861,
      "##ries": 862,
      "rac": 863,
      "pole": 864,
      "pap": 865,
      "double": 866,
      "rid": 867,
      "track": 868,
      "keyboard": 869,
      "decor": 870,
      "passeng": 871,
      "oven": 872,
      "##ces": 873,
      "##pty": 874,
      "##ful": 875,
      "##out": 876,
      "corner": 877,
      "bicycle": 878,
      "empty": 879,
      "##vis": 880,
      "bag": 881,
      "ser": 882,
      "going": 883,
      "per": 884,
      "high": 885,
      "cutting": 886,
      "cab": 887,
      "walk": 888,
      "umbrellas": 889,
      "watching": 890,
      "who": 891,
      "cur": 892,
      "mar": 893,
      "pot": 894,
      "looks": 895,
      "control": 896,
      "bar": 897,
      "kites": 898,
      "ita": 899,
      "trick": 900,
      "##vision": 901,
      "jumping": 902,
      "television": 903,
      "bre": 904,
      "smiling": 905,
      "bottle": 906,
      "##form": 907,
      "socc": 908,
      "##cker": 909,
      "talking": 910,
      "pit": 911,
      "ag": 912,
      "soccer": 913,
      "din": 914,
      "posing": 915,
      "suitc": 916,
      "catch": 917,
      "stove": 918,
      "dogs": 919,
      "buildings": 920,
      "airport": 921,
      "vide": 922,
      "traveling": 923,
      "video": 924,
      "tv": 925,
      "boats": 926,
      "swinging": 927,
      "chairs": 928,
      "set": 929,
      "##lee": 930,
      "remot": 931,
      "topped": 932,
      "colorful": 933,
      "att": 934,
      "apple": 935,
      "using": 936,
      "lady": 937,
      "hou": 938,
      "all": 939,
      "getting": 940,
      "##idge": 941,
      "body": 942,
      "##ans": 943,
      "birds": 944,
      "##us": 945,
      "contain": 946,
      "##umb": 947,
      "cabin": 948,
      "pain": 949,
      "pat": 950,
      "plates": 951,
      "mon": 952,
      "night": 953,
      "##ainst": 954,
      "various": 955,
      "animals": 956,
      "##oes": 957,
      "against": 958,
      "fore": 959,
      "##eel": 960,
      "coff": 961,
      "brick": 962,
      "##quet": 963,
      "throw": 964,
      "me": 965,
      "##ps": 966,
      "paper": 967,
      "##arding": 968,
      "jet": 969,
      "app": 970,
      "som": 971,
      "home": 972,
      "item": 973,
      "##ft": 974,
      "meat": 975,
      "watch": 976,
      "book": 977,
      "rail": 978,
      "carrying": 979,
      "him": 980,
      "river": 981,
      "banana": 982,
      "lin": 983,
      "##ced": 984,
      "coffee": 985,
      "pol": 986,
      "cheese": 987,
      "can": 988,
      "ram": 989,
      "##ac": 990,
      "lots": 991,
      "##ian": 992,
      "pull": 993,
      "tray": 994,
      "##ething": 995,
      "slee": 996,
      "bedroom": 997,
      "##urant": 998,
      "something": 999,
      "##clo": 1000,
      "resta": 1001,
      "##ored": 1002,
      "motorcycles": 1003,
      "restaurant": 1004,
      "he": 1005,
      "##ash": 1006,
      "##iss": 1007,
      "waiting": 1008,
      "drink": 1009,
      "pitch": 1010,
      "##der": 1011,
      "or": 1012,
      "dish": 1013,
      "clou": 1014,
      "##ool": 1015,
      "row": 1016,
      "bears": 1017,
      "metal": 1018,
      "players": 1019,
      "plant": 1020,
      "##alf": 1021,
      "decker": 1022,
      "##oll": 1023,
      "##erse": 1024,
      "runway": 1025,
      "mu": 1026,
      "tile": 1027,
      "##ak": 1028,
      "##clos": 1029,
      "skateboarder": 1030,
      "outdo": 1031,
      "about": 1032,
      "racquet": 1033,
      "toy": 1034,
      "brush": 1035,
      "carro": 1036,
      "##mp": 1037,
      "shower": 1038,
      "enclos": 1039,
      "res": 1040,
      "remote": 1041,
      "skier": 1042,
      "lights": 1043,
      "running": 1044,
      "dough": 1045,
      "mic": 1046,
      "pile": 1047,
      "##ases": 1048,
      "##ial": 1049,
      "slic": 1050,
      "house": 1051,
      "busy": 1052,
      "surfer": 1053,
      "##ish": 1054,
      "someone": 1055,
      "store": 1056,
      "face": 1057,
      "pur": 1058,
      "items": 1059,
      "hel": 1060,
      "interse": 1061,
      "##gra": 1062,
      "rain": 1063,
      "mouth": 1064,
      "like": 1065,
      "sil": 1066,
      "ramp": 1067,
      "lying": 1068,
      "##ark": 1069,
      "screen": 1070,
      "passenger": 1071,
      "intersection": 1072,
      "dressed": 1073,
      "line": 1074,
      "##arm": 1075,
      "##ive": 1076,
      "doughn": 1077,
      "toward": 1078,
      "##oc": 1079,
      "##ty": 1080,
      "seat": 1081,
      "male": 1082,
      "monit": 1083,
      "rock": 1084,
      "surfing": 1085,
      "##gs": 1086,
      "bal": 1087,
      "gre": 1088,
      "half": 1089,
      "numb": 1090,
      "no": 1091,
      "##ather": 1092,
      "hands": 1093,
      "photogra": 1094,
      "pan": 1095,
      "am": 1096,
      "tub": 1097,
      "boo": 1098,
      "##raw": 1099,
      "batter": 1100,
      "shown": 1101,
      "ha": 1102,
      "slice": 1103,
      "preparing": 1104,
      "##ones": 1105,
      "rides": 1106,
      "sciss": 1107,
      "made": 1108,
      "dark": 1109,
      "##ire": 1110,
      "##we": 1111,
      "##ler": 1112,
      "pulling": 1113,
      "look": 1114,
      "colored": 1115,
      "ty": 1116,
      "##hic": 1117,
      "##cl": 1118,
      "gray": 1119,
      "way": 1120,
      "mat": 1121,
      "##ges": 1122,
      "surround": 1123,
      "sleeping": 1124,
      "vehic": 1125,
      "silver": 1126,
      "jacket": 1127,
      "scissors": 1128,
      "##te": 1129,
      "number": 1130,
      "suitcase": 1131,
      "cloth": 1132,
      "photograph": 1133,
      "##uce": 1134,
      "she": 1135,
      "bridge": 1136,
      "tooth": 1137,
      "##oarding": 1138,
      "##ert": 1139,
      "zoo": 1140,
      "##ife": 1141,
      "microw": 1142,
      "enclosure": 1143,
      "##ny": 1144,
      "##iz": 1145,
      "post": 1146,
      "bet": 1147,
      "##eath": 1148,
      "hair": 1149,
      "##ating": 1150,
      "donuts": 1151,
      "kids": 1152,
      "##pp": 1153,
      "surrounded": 1154,
      "##there": 1155,
      "##ond": 1156,
      "tablea": 1157,
      "##ween": 1158,
      "forest": 1159,
      "##to": 1160,
      "between": 1161,
      "##ale": 1162,
      "showing": 1163,
      "##aning": 1164,
      "##ched": 1165,
      "bread": 1166,
      "meal": 1167,
      "##phone": 1168,
      "##ooking": 1169,
      "carrots": 1170,
      "##ace": 1171,
      "bright": 1172,
      "lined": 1173,
      "pill": 1174,
      "decorated": 1175,
      "##ect": 1176,
      "few": 1177,
      "knife": 1178,
      "sal": 1179,
      "##iform": 1180,
      "uniform": 1181,
      "adult": 1182,
      "microwave": 1183,
      "mult": 1184,
      "streeta": 1185,
      "walks": 1186,
      "buses": 1187,
      "##ved": 1188,
      "cabinets": 1189,
      "boys": 1190,
      "##anes": 1191,
      "arm": 1192,
      "older": 1193,
      "scen": 1194,
      "blan": 1195,
      "furn": 1196,
      "cand": 1197,
      "##iture": 1198,
      "purple": 1199,
      "##ron": 1200,
      "star": 1201,
      "furniture": 1202,
      "skiers": 1203,
      "hu": 1204,
      "##man": 1205,
      "bran": 1206,
      "ex": 1207,
      "stat": 1208,
      "dock": 1209,
      "branch": 1210,
      "##old": 1211,
      "##pes": 1212,
      "##lic": 1213,
      "outdoor": 1214,
      "grey": 1215,
      "stick": 1216,
      "attach": 1217,
      "girls": 1218,
      "oranges": 1219,
      "tri": 1220,
      "stri": 1221,
      "shop": 1222,
      "##cing": 1223,
      "mouse": 1224,
      "lake": 1225,
      "gather": 1226,
      "pick": 1227,
      "pillow": 1228,
      "have": 1229,
      "cloudy": 1230,
      "tea": 1231,
      "waves": 1232,
      "choc": 1233,
      "fielda": 1234,
      "##atoes": 1235,
      "eng": 1236,
      "displayed": 1237,
      "throwing": 1238,
      "coming": 1239,
      "attached": 1240,
      "##olate": 1241,
      "incl": 1242,
      "comm": 1243,
      "fork": 1244,
      "##day": 1245,
      "fre": 1246,
      "monitor": 1247,
      "chocolate": 1248,
      "##ily": 1249,
      "making": 1250,
      "onto": 1251,
      "leaning": 1252,
      "clean": 1253,
      "ob": 1254,
      "fem": 1255,
      "feed": 1256,
      "##ings": 1257,
      "crossing": 1258,
      "helm": 1259,
      "inclu": 1260,
      "clear": 1261,
      "##inking": 1262,
      "shelf": 1263,
      "##oon": 1264,
      "dining": 1265,
      "perform": 1266,
      "ho": 1267,
      "salad": 1268,
      "gi": 1269,
      "stone": 1270,
      "##sp": 1271,
      "flower": 1272,
      "##irth": 1273,
      "elect": 1274,
      "birth": 1275,
      "painted": 1276,
      "##dge": 1277,
      "cook": 1278,
      "scene": 1279,
      "sha": 1280,
      "country": 1281,
      "cats": 1282,
      "drinking": 1283,
      "hitting": 1284,
      "##ime": 1285,
      "birthday": 1286,
      "market": 1287,
      "basket": 1288,
      "seen": 1289,
      "lush": 1290,
      "fla": 1291,
      "work": 1292,
      "##sed": 1293,
      "rocks": 1294,
      "resting": 1295,
      "pub": 1296,
      "towards": 1297,
      "multi": 1298,
      "windows": 1299,
      "female": 1300,
      "##int": 1301,
      "##by": 1302,
      "##ken": 1303,
      "public": 1304,
      "meter": 1305,
      "fruits": 1306,
      "##are": 1307,
      "sunny": 1308,
      "##astic": 1309,
      "ass": 1310,
      "##art": 1311,
      "lay": 1312,
      "beaut": 1313,
      "tables": 1314,
      "setting": 1315,
      "##ents": 1316,
      "fries": 1317,
      "##ance": 1318,
      "##ary": 1319,
      "apples": 1320,
      "##utter": 1321,
      "watera": 1322,
      "office": 1323,
      "blanket": 1324,
      "##di": 1325,
      "plastic": 1326,
      "walls": 1327,
      "donut": 1328,
      "##jo": 1329,
      "moving": 1330,
      "##brush": 1331,
      "pen": 1332,
      "leaves": 1333,
      "beautif": 1334,
      "squ": 1335,
      "shot": 1336,
      "trail": 1337,
      "stopped": 1338,
      "cre": 1339,
      "bush": 1340,
      "been": 1341,
      "ur": 1342,
      "edge": 1343,
      "tom": 1344,
      "bikes": 1345,
      "teeth": 1346,
      "##less": 1347,
      "part": 1348,
      "helmet": 1349,
      "enjo": 1350,
      "books": 1351,
      "platform": 1352,
      "path": 1353,
      "stack": 1354,
      "snowboarder": 1355,
      "working": 1356,
      "beautiful": 1357,
      "pictures": 1358,
      "smile": 1359,
      "towel": 1360,
      "fresh": 1361,
      "##ric": 1362,
      "sub": 1363,
      "##dd": 1364,
      "short": 1365,
      "toothbrush": 1366,
      "##lection": 1367,
      "##oot": 1368,
      "undern": 1369,
      "underneath": 1370,
      "ste": 1371,
      "bel": 1372,
      "trying": 1373,
      "not": 1374,
      "surfboards": 1375,
      "assort": 1376,
      "topping": 1377,
      "ride": 1378,
      "##ety": 1379,
      "yard": 1380,
      "pa": 1381,
      "cart": 1382,
      "dist": 1383,
      "slices": 1384,
      "statue": 1385,
      "fri": 1386,
      "af": 1387,
      "draw": 1388,
      "mountains": 1389,
      "sing": 1390,
      "##ally": 1391,
      "##pped": 1392,
      "turn": 1393,
      "##ug": 1394,
      "carri": 1395,
      "fam": 1396,
      "wild": 1397,
      "roll": 1398,
      "van": 1399,
      "lap": 1400,
      "wire": 1401,
      "having": 1402,
      "wet": 1403,
      "skateboarding": 1404,
      "pieces": 1405,
      "nice": 1406,
      "computers": 1407,
      "ent": 1408,
      "placed": 1409,
      "##ling": 1410,
      "perched": 1411,
      "##people": 1412,
      "new": 1413,
      "##inal": 1414,
      "shows": 1415,
      "shore": 1416,
      "doughnut": 1417,
      "pepp": 1418,
      "dire": 1419,
      "time": 1420,
      "passing": 1421,
      "eaten": 1422,
      "##ca": 1423,
      "mil": 1424,
      "gar": 1425,
      "catcher": 1426,
      "lamp": 1427,
      "balla": 1428,
      "controller": 1429,
      "sty": 1430,
      "vehicle": 1431,
      "put": 1432,
      "appl": 1433,
      "ti": 1434,
      "##ist": 1435,
      "cooking": 1436,
      "##bo": 1437,
      "sandy": 1438,
      "police": 1439,
      "dinner": 1440,
      "ey": 1441,
      "vases": 1442,
      "they": 1443,
      "neck": 1444,
      "##dern": 1445,
      "hotel": 1446,
      "dry": 1447,
      "family": 1448,
      "pizzas": 1449,
      "conc": 1450,
      "applian": 1451,
      "##ats": 1452,
      "trains": 1453,
      "land": 1454,
      "##ition": 1455,
      "tiled": 1456,
      "##thers": 1457,
      "modern": 1458,
      "nin": 1459,
      "##ix": 1460,
      "##py": 1461,
      "##ines": 1462,
      "brushing": 1463,
      "types": 1464,
      "just": 1465,
      "##ches": 1466,
      "end": 1467,
      "sea": 1468,
      "##ame": 1469,
      "town": 1470,
      "reading": 1471,
      "others": 1472,
      "chick": 1473,
      "##ides": 1474,
      "##three": 1475,
      "##top": 1476,
      "base": 1477,
      "##ement": 1478,
      "##ely": 1479,
      "ninten": 1480,
      "trun": 1481,
      "nintendo": 1482,
      "##bor": 1483,
      "pitcher": 1484,
      "##iti": 1485,
      "engine": 1486,
      "benches": 1487,
      "##ound": 1488,
      "watches": 1489,
      "hea": 1490,
      "single": 1491,
      "case": 1492,
      "pret": 1493,
      "##ley": 1494,
      "beer": 1495,
      "kind": 1496,
      "##ming": 1497,
      "laptops": 1498,
      "chicken": 1499,
      "mounted": 1500,
      "cent": 1501,
      "ped": 1502,
      "du": 1503,
      "gear": 1504,
      "graff": 1505,
      "take": 1506,
      "##ject": 1507,
      "variety": 1508,
      "boards": 1509,
      "##cial": 1510,
      "sail": 1511,
      "jump": 1512,
      "##ized": 1513,
      "enjoying": 1514,
      "cellphone": 1515,
      "tan": 1516,
      "curb": 1517,
      "##tub": 1518,
      "egg": 1519,
      "sauce": 1520,
      "equ": 1521,
      "##tain": 1522,
      "tarm": 1523,
      "left": 1524,
      "bathtub": 1525,
      "##wn": 1526,
      "guys": 1527,
      "wheel": 1528,
      "trucks": 1529,
      "pretty": 1530,
      "flat": 1531,
      "rack": 1532,
      "##vers": 1533,
      "sof": 1534,
      "graffiti": 1535,
      "tarmac": 1536,
      "after": 1537,
      "pad": 1538,
      "pack": 1539,
      "see": 1540,
      "phones": 1541,
      "hotdo": 1542,
      "##ush": 1543,
      "performing": 1544,
      "ce": 1545,
      "toppings": 1546,
      "doughnuts": 1547,
      "gathered": 1548,
      "appliances": 1549,
      "bowls": 1550,
      "passengers": 1551,
      "multiple": 1552,
      "tricks": 1553,
      "dess": 1554,
      "shoes": 1555,
      "##ger": 1556,
      "plants": 1557,
      "##ures": 1558,
      "cute": 1559,
      "fenced": 1560,
      "backgrounda": 1561,
      "##road": 1562,
      "fly": 1563,
      "swim": 1564,
      "well": 1565,
      "containing": 1566,
      "place": 1567,
      "arran": 1568,
      "feat": 1569,
      "glo": 1570,
      "pas": 1571,
      "##ages": 1572,
      "pedest": 1573,
      "sch": 1574,
      "##stru": 1575,
      "candles": 1576,
      "tran": 1577,
      "curtain": 1578,
      "stair": 1579,
      "##several": 1580,
      "flies": 1581,
      "rice": 1582,
      "pasture": 1583,
      "feeding": 1584,
      "fish": 1585,
      "team": 1586,
      "ear": 1587,
      "carriage": 1588,
      "fr": 1589,
      "break": 1590,
      "railroad": 1591,
      "##he": 1592,
      "equip": 1593,
      "frisbe": 1594,
      "concre": 1595,
      "spoon": 1596,
      "##ronic": 1597,
      "##ins": 1598,
      "dirty": 1599,
      "below": 1600,
      "win": 1601,
      "poin": 1602,
      "right": 1603,
      "##pack": 1604,
      "onion": 1605,
      "foot": 1606,
      "match": 1607,
      "poles": 1608,
      "##po": 1609,
      "including": 1610,
      "distance": 1611,
      "##elves": 1612,
      "cattle": 1613,
      "surface": 1614,
      "electronic": 1615,
      "##end": 1616,
      "school": 1617,
      "##head": 1618,
      "##its": 1619,
      "##place": 1620,
      "clutter": 1621,
      "center": 1622,
      "steel": 1623,
      "takes": 1624,
      "shaped": 1625,
      "##iding": 1626,
      "##ini": 1627,
      "##light": 1628,
      "concrete": 1629,
      "among": 1630,
      "pul": 1631,
      "bottles": 1632,
      "##ession": 1633,
      "bags": 1634,
      "ble": 1635,
      "backpack": 1636,
      "##intage": 1637,
      "sofa": 1638,
      "striped": 1639,
      "##rash": 1640,
      "crowded": 1641,
      "##que": 1642,
      "##ower": 1643,
      "wr": 1644,
      "polar": 1645,
      "pulled": 1646,
      "art": 1647,
      "woods": 1648,
      "nearby": 1649,
      "vintage": 1650,
      "wra": 1651,
      "fan": 1652,
      "cabinet": 1653,
      "painting": 1654,
      "loc": 1655,
      "##me": 1656,
      "chur": 1657,
      "catching": 1658,
      "beds": 1659,
      "huge": 1660,
      "boxes": 1661,
      "##ber": 1662,
      "sandwiches": 1663,
      "object": 1664,
      "trunk": 1665,
      "qu": 1666,
      "##here": 1667,
      "direction": 1668,
      "sou": 1669,
      "pillows": 1670,
      "cream": 1671,
      "fridge": 1672,
      "##cea": 1673,
      "rooma": 1674,
      "fireplace": 1675,
      "gold": 1676,
      "five": 1677,
      "alone": 1678,
      "church": 1679,
      "##idea": 1680,
      "planes": 1681,
      "feet": 1682,
      "prof": 1683,
      "ju": 1684,
      "mess": 1685,
      "skateboards": 1686,
      "##rist": 1687,
      "##ips": 1688,
      "giant": 1689,
      "style": 1690,
      "drinks": 1691,
      "##sc": 1692,
      "##illa": 1693,
      "equipment": 1694,
      "stea": 1695,
      "round": 1696,
      "##onea": 1697,
      "suitcases": 1698,
      "sliced": 1699,
      "but": 1700,
      "served": 1701,
      "both": 1702,
      "del": 1703,
      "##ball": 1704,
      "##ural": 1705,
      "##ged": 1706,
      "sinks": 1707,
      "reaching": 1708,
      "plays": 1709,
      "offic": 1710,
      "##ical": 1711,
      "putting": 1712,
      "where": 1713,
      "buildinga": 1714,
      "##anding": 1715,
      "floating": 1716,
      "vehicles": 1717,
      "container": 1718,
      "fo": 1719,
      "##vea": 1720,
      "##alm": 1721,
      "tour": 1722,
      "bushes": 1723,
      "##essional": 1724,
      "##ycl": 1725,
      "bicycles": 1726,
      "tomatoes": 1727,
      "wed": 1728,
      "poses": 1729,
      "clothes": 1730,
      "##de": 1731,
      "atop": 1732,
      "smiles": 1733,
      "beacha": 1734,
      "away": 1735,
      "sticking": 1736,
      "asian": 1737,
      "##eather": 1738,
      "##ll": 1739,
      "taken": 1740,
      "##lin": 1741,
      "prepares": 1742,
      "lays": 1743,
      "dishes": 1744,
      "hay": 1745,
      "##land": 1746,
      "serving": 1747,
      "spe": 1748,
      "pedestri": 1749,
      "professional": 1750,
      "##ato": 1751,
      "potatoes": 1752,
      "##vent": 1753,
      "##ti": 1754,
      "##ercial": 1755,
      "##elling": 1756,
      "surfers": 1757,
      "staring": 1758,
      "##set": 1759,
      "stall": 1760,
      "stain": 1761,
      "##lers": 1762,
      "grassa": 1763,
      "airplanes": 1764,
      "##ious": 1765,
      "blo": 1766,
      "legs": 1767,
      "form": 1768,
      "##iness": 1769,
      "commercial": 1770,
      "bak": 1771,
      "##mas": 1772,
      "dev": 1773,
      "##fast": 1774,
      "##owing": 1775,
      "##lasses": 1776,
      "platea": 1777,
      "space": 1778,
      "reflection": 1779,
      "fash": 1780,
      "smo": 1781,
      "cement": 1782,
      "led": 1783,
      "pose": 1784,
      "fashion": 1785,
      "which": 1786,
      "rust": 1787,
      "##ons": 1788,
      "christ": 1789,
      "##cy": 1790,
      "let": 1791,
      "business": 1792,
      "design": 1793,
      "breakfast": 1794,
      "##rench": 1795,
      "##etwo": 1796,
      "mother": 1797,
      "subway": 1798,
      "##iny": 1799,
      "##unch": 1800,
      "christmas": 1801,
      "stacked": 1802,
      "##read": 1803,
      "foods": 1804,
      "rug": 1805,
      "har": 1806,
      "roada": 1807,
      "shorts": 1808,
      "farm": 1809,
      "lone": 1810,
      "roo": 1811,
      "##ward": 1812,
      "##ular": 1813,
      "ump": 1814,
      "##cking": 1815,
      "flag": 1816,
      "##ban": 1817,
      "tur": 1818,
      "straw": 1819,
      "trash": 1820,
      "##ract": 1821,
      "##ugh": 1822,
      "##boarding": 1823,
      "appear": 1824,
      "same": 1825,
      "cooked": 1826,
      "french": 1827,
      "serve": 1828,
      "urinal": 1829,
      "load": 1830,
      "treesa": 1831,
      "gard": 1832,
      "dessert": 1833,
      "umpire": 1834,
      "cluttered": 1835,
      "kitten": 1836,
      "##urry": 1837,
      "seated": 1838,
      "soup": 1839,
      "##lder": 1840,
      "highway": 1841,
      "ham": 1842,
      "swings": 1843,
      "docked": 1844,
      "square": 1845,
      "games": 1846,
      "pool": 1847,
      "outf": 1848,
      "swimming": 1849,
      "hard": 1850,
      "sung": 1851,
      "garden": 1852,
      "boarding": 1853,
      "get": 1854,
      "sunglasses": 1855,
      "ret": 1856,
      "##ists": 1857,
      "fun": 1858,
      "##per": 1859,
      "mach": 1860,
      "pepper": 1861,
      "##bb": 1862,
      "outdoors": 1863,
      "##ults": 1864,
      "overl": 1865,
      "hotdog": 1866,
      "##ars": 1867,
      "##ends": 1868,
      "wedding": 1869,
      "##struction": 1870,
      "couches": 1871,
      "low": 1872,
      "##ige": 1873,
      "bur": 1874,
      "blender": 1875,
      "##ual": 1876,
      "##tom": 1877,
      "##kets": 1878,
      "##itary": 1879,
      "##ils": 1880,
      "##ethe": 1881,
      "##ock": 1882,
      "##let": 1883,
      "##ens": 1884,
      "##fe": 1885,
      "##this": 1886,
      "ter": 1887,
      "##liner": 1888,
      "say": 1889,
      "cra": 1890,
      "drawn": 1891,
      "##ned": 1892,
      "##ants": 1893,
      "clocks": 1894,
      "kneel": 1895,
      "controllers": 1896,
      "##kea": 1897,
      "cli": 1898,
      "shad": 1899,
      "assortment": 1900,
      "ind": 1901,
      "drives": 1902,
      "kick": 1903,
      "prod": 1904,
      "fra": 1905,
      "ice": 1906,
      "doors": 1907,
      "restroom": 1908,
      "signal": 1909,
      "##ape": 1910,
      "##br": 1911,
      "##oni": 1912,
      "ceiling": 1913,
      "cla": 1914,
      "desktop": 1915,
      "flock": 1916,
      "rocky": 1917,
      "jumps": 1918,
      "shelves": 1919,
      "adults": 1920,
      "eyes": 1921,
      "wooded": 1922,
      "hillside": 1923,
      "sho": 1924,
      "does": 1925,
      "hold": 1926,
      "facing": 1927,
      "appro": 1928,
      "acc": 1929,
      "stainless": 1930,
      "##io": 1931,
      "military": 1932,
      "lad": 1933,
      "skies": 1934,
      "##red": 1935,
      "ba": 1936,
      "ext": 1937,
      "lawn": 1938,
      "ledge": 1939,
      "##fore": 1940,
      "##ident": 1941,
      "fall": 1942,
      "free": 1943,
      "was": 1944,
      "##hou": 1945,
      "##nic": 1946,
      "tou": 1947,
      "##vy": 1948,
      "pointing": 1949,
      "onions": 1950,
      "eats": 1951,
      "##made": 1952,
      "desert": 1953,
      "prop": 1954,
      "##kers": 1955,
      "before": 1956,
      "card": 1957,
      "todd": 1958,
      "lunch": 1959,
      "nap": 1960,
      "##go": 1961,
      "compet": 1962,
      "##artment": 1963,
      "cru": 1964,
      "event": 1965,
      "##vert": 1966,
      "gamea": 1967,
      "approach": 1968,
      "we": 1969,
      "chop": 1970,
      "##irc": 1971,
      "neat": 1972,
      "make": 1973,
      "clouds": 1974,
      "vegg": 1975,
      "mod": 1976,
      "##na": 1977,
      "advert": 1978,
      "phonea": 1979,
      "cost": 1980,
      "eggs": 1981,
      "roof": 1982,
      "tw": 1983,
      "##ump": 1984,
      "##ef": 1985,
      "##uit": 1986,
      "coat": 1987,
      "cups": 1988,
      "says": 1989,
      "advertis": 1990,
      "doll": 1991,
      "construction": 1992,
      "fashioned": 1993,
      "circ": 1994,
      "##ates": 1995,
      "##arrow": 1996,
      "stru": 1997,
      "snowa": 1998,
      "##stwo": 1999,
      "beda": 2000,
      "assorted": 2001,
      "disc": 2002,
      "race": 2003,
      "##ative": 2004,
      "outs": 2005,
      "attem": 2006,
      "mini": 2007,
      "party": 2008,
      "inter": 2009,
      "arranged": 2010,
      "##des": 2011,
      "##icks": 2012,
      "type": 2013,
      "costum": 2014,
      "fig": 2015,
      "things": 2016,
      "spr": 2017,
      "landing": 2018,
      "pond": 2019,
      "snowboarding": 2020,
      "boarda": 2021,
      "##cture": 2022,
      "broken": 2023,
      "picnic": 2024,
      "trans": 2025,
      "floors": 2026,
      "decoration": 2027,
      "##ading": 2028,
      "hors": 2029,
      "closed": 2030,
      "##phones": 2031,
      "stairs": 2032,
      "toddler": 2033,
      "##vid": 2034,
      "monitors": 2035,
      "gate": 2036,
      "electric": 2037,
      "##xing": 2038,
      "bottom": 2039,
      "overlooking": 2040,
      "mix": 2041,
      "##some": 2042,
      "lett": 2043,
      "port": 2044,
      "##ering": 2045,
      "##cakes": 2046,
      "tied": 2047,
      "##cting": 2048,
      "kneeling": 2049,
      "##key": 2050,
      "graze": 2051,
      "must": 2052,
      "narrow": 2053,
      "deck": 2054,
      "arms": 2055,
      "boarder": 2056,
      "cage": 2057,
      "wash": 2058,
      "##self": 2059,
      "closeup": 2060,
      "chef": 2061,
      "pasta": 2062,
      "glove": 2063,
      "wide": 2064,
      "fight": 2065,
      "hap": 2066,
      "##pet": 2067,
      "cakes": 2068,
      "mag": 2069,
      "##ony": 2070,
      "parka": 2071,
      "##az": 2072,
      "##ia": 2073,
      "friends": 2074,
      "##ium": 2075,
      "##uc": 2076,
      "steps": 2077,
      "messy": 2078,
      "overhead": 2079,
      "leash": 2080,
      "gl": 2081,
      "skating": 2082,
      "reads": 2083,
      "indo": 2084,
      "anti": 2085,
      "skya": 2086,
      "himself": 2087,
      "pots": 2088,
      "orn": 2089,
      "colors": 2090,
      "rider": 2091,
      "stra": 2092,
      "##ctor": 2093,
      "net": 2094,
      "plain": 2095,
      "bever": 2096,
      "sides": 2097,
      "##ially": 2098,
      "##rop": 2099,
      "windowa": 2100,
      "sale": 2101,
      "fancy": 2102,
      "sweat": 2103,
      "##da": 2104,
      "ket": 2105,
      "steam": 2106,
      "appears": 2107,
      "pr": 2108,
      "##uter": 2109,
      "ship": 2110,
      "chain": 2111,
      "suits": 2112,
      "walkway": 2113,
      "pract": 2114,
      "rackets": 2115,
      "leather": 2116,
      "ties": 2117,
      "carpet": 2118,
      "##so": 2119,
      "smart": 2120,
      "transit": 2121,
      "veggies": 2122,
      "cap": 2123,
      "speed": 2124,
      "rela": 2125,
      "foreground": 2126,
      "##ican": 2127,
      "good": 2128,
      "sunset": 2129,
      "bite": 2130,
      "pos": 2131,
      "carrot": 2132,
      "model": 2133,
      "trailer": 2134,
      "partially": 2135,
      "features": 2136,
      "##ount": 2137,
      "##ns": 2138,
      "stor": 2139,
      "sport": 2140,
      "loaded": 2141,
      "walla": 2142,
      "mis": 2143,
      "##oung": 2144,
      "stret": 2145,
      "action": 2146,
      "##ators": 2147,
      "beard": 2148,
      "drive": 2149,
      "pastries": 2150,
      "still": 2151,
      "mush": 2152,
      "##ker": 2153,
      "urban": 2154,
      "paw": 2155,
      "pepperoni": 2156,
      "teen": 2157,
      "shou": 2158,
      "mushroom": 2159,
      "held": 2160,
      "push": 2161,
      "palm": 2162,
      "pants": 2163,
      "what": 2164,
      "pee": 2165,
      "courta": 2166,
      "##ired": 2167,
      "frisbeea": 2168,
      "##ooter": 2169,
      "toast": 2170,
      "clothing": 2171,
      "antique": 2172,
      "##ib": 2173,
      "towels": 2174,
      "##uff": 2175,
      "wrapped": 2176,
      "##very": 2177,
      "machine": 2178,
      "war": 2179,
      "toilets": 2180,
      "photos": 2181,
      "refle": 2182,
      "position": 2183,
      "##aster": 2184,
      "scooter": 2185,
      "doorway": 2186,
      "hole": 2187,
      "beneath": 2188,
      "cas": 2189,
      "vis": 2190,
      "##ope": 2191,
      "##oman": 2192,
      "lies": 2193,
      "winter": 2194,
      "##ence": 2195,
      "shade": 2196,
      "racing": 2197,
      "commuter": 2198,
      "tomato": 2199,
      "propell": 2200,
      "pea": 2201,
      "##ne": 2202,
      "grill": 2203,
      "pastry": 2204,
      "baked": 2205,
      "gets": 2206,
      "power": 2207,
      "saus": 2208,
      "kinds": 2209,
      "outfit": 2210,
      "##ise": 2211,
      "##ives": 2212,
      "makes": 2213,
      "##ina": 2214,
      "railing": 2215,
      "houses": 2216,
      "dra": 2217,
      "pier": 2218,
      "giving": 2219,
      "structure": 2220,
      "sprink": 2221,
      "sy": 2222,
      "contains": 2223,
      "bull": 2224,
      "flip": 2225,
      "treea": 2226,
      "supp": 2227,
      "class": 2228,
      "apartment": 2229,
      "heads": 2230,
      "harbor": 2231,
      "used": 2232,
      "decorative": 2233,
      "fighter": 2234,
      "device": 2235,
      "##co": 2236,
      "blurry": 2237,
      "##ring": 2238,
      "##nish": 2239,
      "petting": 2240,
      "island": 2241,
      "sheet": 2242,
      "wets": 2243,
      "lid": 2244,
      "sill": 2245,
      "spea": 2246,
      "fur": 2247,
      "grow": 2248,
      "##ighting": 2249,
      "blond": 2250,
      "##laz": 2251,
      "self": 2252,
      "##cket": 2253,
      "peppers": 2254,
      "includes": 2255,
      "pedestrians": 2256,
      "##ork": 2257,
      "smoke": 2258,
      "sort": 2259,
      "sized": 2260,
      "##sting": 2261,
      "##gull": 2262,
      "toys": 2263,
      "##tens": 2264,
      "##four": 2265,
      "kitchena": 2266,
      "rests": 2267,
      "comf": 2268,
      "areaa": 2269,
      "siz": 2270,
      "chips": 2271,
      "##sthe": 2272,
      "spot": 2273,
      "garage": 2274,
      "##nding": 2275,
      "##ggy": 2276,
      "leading": 2277,
      "outsidea": 2278,
      "bou": 2279,
      "med": 2280,
      "##yard": 2281,
      "bathrooma": 2282,
      "##tered": 2283,
      "mud": 2284,
      "opened": 2285,
      "containers": 2286,
      "waters": 2287,
      "mound": 2288,
      "foll": 2289,
      "pres": 2290,
      "seagull": 2291,
      "prepared": 2292,
      "lettuce": 2293,
      "##be": 2294,
      "mit": 2295,
      "use": 2296,
      "vanity": 2297,
      "##ier": 2298,
      "candle": 2299,
      "je": 2300,
      "vest": 2301,
      "aira": 2302,
      "bac": 2303,
      "nood": 2304,
      "stunt": 2305,
      "leaf": 2306,
      "papers": 2307,
      "streets": 2308,
      "produce": 2309,
      "##bs": 2310,
      "##house": 2311,
      "shar": 2312,
      "upside": 2313,
      "laptopa": 2314,
      "scul": 2315,
      "##many": 2316,
      "##idential": 2317,
      "lift": 2318,
      "writing": 2319,
      "hall": 2320,
      "bunches": 2321,
      "milk": 2322,
      "bacon": 2323,
      "utens": 2324,
      "waits": 2325,
      "umbrellaa": 2326,
      "rural": 2327,
      "beans": 2328,
      "mug": 2329,
      "indi": 2330,
      "##gon": 2331,
      "flight": 2332,
      "ripe": 2333,
      "shopping": 2334,
      "turned": 2335,
      "pave": 2336,
      "strawber": 2337,
      "sculpt": 2338,
      "tiny": 2339,
      "dep": 2340,
      "hood": 2341,
      "amer": 2342,
      "pavement": 2343,
      "brightly": 2344,
      "##pping": 2345,
      "##kin": 2346,
      "skateboarda": 2347,
      "##itten": 2348,
      "cond": 2349,
      "alongside": 2350,
      "residential": 2351,
      "hats": 2352,
      "happy": 2353,
      "groom": 2354,
      "rear": 2355,
      "##alle": 2356,
      "fencea": 2357,
      "##ray": 2358,
      "##yclist": 2359,
      "climb": 2360,
      "pans": 2361,
      "meters": 2362,
      "log": 2363,
      "paddle": 2364,
      "frosting": 2365,
      "fooda": 2366,
      "daya": 2367,
      "cal": 2368,
      "lamb": 2369,
      "patio": 2370,
      "##bage": 2371,
      "stream": 2372,
      "lem": 2373,
      "##ield": 2374,
      "##ital": 2375,
      "topa": 2376,
      "personal": 2377,
      "sheets": 2378,
      "urinals": 2379,
      "##erial": 2380,
      "soda": 2381,
      "rainy": 2382,
      "touching": 2383,
      "##ange": 2384,
      "##gging": 2385,
      "nose": 2386,
      "remotes": 2387,
      "smaller": 2388,
      "mirrora": 2389,
      "block": 2390,
      "##gre": 2391,
      "branches": 2392,
      "##eds": 2393,
      "laid": 2394,
      "cub": 2395,
      "ducks": 2396,
      "ketch": 2397,
      "##iv": 2398,
      "##ining": 2399,
      "cour": 2400,
      "sem": 2401,
      "sailing": 2402,
      "hilla": 2403,
      "itself": 2404,
      "kicking": 2405,
      "riders": 2406,
      "term": 2407,
      "persons": 2408,
      "displaying": 2409,
      "wetsuit": 2410,
      "butter": 2411,
      "loading": 2412,
      "##med": 2413,
      "lines": 2414,
      "ketchup": 2415,
      "##pl": 2416,
      "##ette": 2417,
      "built": 2418,
      "deep": 2419,
      "##act": 2420,
      "snowboards": 2421,
      "oppo": 2422,
      "leg": 2423,
      "six": 2424,
      "##bile": 2425,
      "tent": 2426,
      "practic": 2427,
      "juice": 2428,
      "mustard": 2429,
      "pup": 2430,
      "enclosed": 2431,
      "officer": 2432,
      "ladies": 2433,
      "terminal": 2434,
      "only": 2435,
      "beige": 2436,
      "tracksa": 2437,
      "american": 2438,
      "ow": 2439,
      "##mo": 2440,
      "##ows": 2441,
      "sliding": 2442,
      "platter": 2443,
      "sausage": 2444,
      "ador": 2445,
      "costume": 2446,
      "deska": 2447,
      "##pting": 2448,
      "##ird": 2449,
      "oceana": 2450,
      "directions": 2451,
      "glaz": 2452,
      "##lies": 2453,
      "here": 2454,
      "##aper": 2455,
      "noodles": 2456,
      "##cra": 2457,
      "sinka": 2458,
      "purse": 2459,
      "approaching": 2460,
      "##ature": 2461,
      "trays": 2462,
      "balan": 2463,
      "mas": 2464,
      "cakea": 2465,
      "eye": 2466,
      "pipe": 2467,
      "goes": 2468,
      "dresser": 2469,
      "pickup": 2470,
      "flags": 2471,
      "barn": 2472,
      "mushrooms": 2473,
      "##wing": 2474,
      "##ms": 2475,
      "bencha": 2476,
      "rais": 2477,
      "##gged": 2478,
      "throws": 2479,
      "elder": 2480,
      "uses": 2481,
      "leans": 2482,
      "fried": 2483,
      "##ster": 2484,
      "uniforms": 2485,
      "decorations": 2486,
      "wait": 2487,
      "racketa": 2488,
      "individ": 2489,
      "parade": 2490,
      "collection": 2491,
      "semi": 2492,
      "##ible": 2493,
      "togethera": 2494,
      "gas": 2495,
      "ornate": 2496,
      "laugh": 2497,
      "pin": 2498,
      "cons": 2499,
      "hangs": 2500,
      "paint": 2501,
      "posted": 2502,
      "##yclists": 2503,
      "sweater": 2504,
      "written": 2505,
      "deli": 2506,
      "freez": 2507,
      "propeller": 2508,
      "mitt": 2509,
      "most": 2510,
      "indoor": 2511,
      "##ior": 2512,
      "char": 2513,
      "liqu": 2514,
      "bride": 2515,
      "pulls": 2516,
      "elderly": 2517,
      "crosswalk": 2518,
      "attempting": 2519,
      "growing": 2520,
      "sim": 2521,
      "##iff": 2522,
      "rolling": 2523,
      "beverage": 2524,
      "stad": 2525,
      "sailbo": 2526,
      "utensils": 2527,
      "pour": 2528,
      "##ral": 2529,
      "runs": 2530,
      "floora": 2531,
      "fake": 2532,
      "tank": 2533,
      "individual": 2534,
      "wavea": 2535,
      "guit": 2536,
      "ol": 2537,
      "these": 2538,
      "tong": 2539,
      "##omot": 2540,
      "lam": 2541,
      "##craft": 2542,
      "stadium": 2543,
      "handa": 2544,
      "##ully": 2545,
      "neatly": 2546,
      "spread": 2547,
      "passes": 2548,
      "jets": 2549,
      "##gan": 2550,
      "greens": 2551,
      "pizzaa": 2552,
      "spect": 2553,
      "##erry": 2554,
      "##els": 2555,
      "##rounding": 2556,
      "flor": 2557,
      "baskets": 2558,
      "surrounding": 2559,
      "comple": 2560,
      "micro": 2561,
      "gent": 2562,
      "if": 2563,
      "##als": 2564,
      "##cted": 2565,
      "locomot": 2566,
      "relaxing": 2567,
      "supplies": 2568,
      "life": 2569,
      "goats": 2570,
      "##scape": 2571,
      "formation": 2572,
      "cara": 2573,
      "bending": 2574,
      "curled": 2575,
      "##ser": 2576,
      "potted": 2577,
      "fast": 2578,
      "transp": 2579,
      "##fl": 2580,
      "##erts": 2581,
      "tax": 2582,
      "course": 2583,
      "pet": 2584,
      "signa": 2585,
      "handle": 2586,
      "patter": 2587,
      "missing": 2588,
      "##ton": 2589,
      "##ked": 2590,
      "##ues": 2591,
      "roses": 2592,
      "how": 2593,
      "##bi": 2594,
      "roadway": 2595,
      "por": 2596,
      "siting": 2597,
      "stationa": 2598,
      "paved": 2599,
      "##boy": 2600,
      "hear": 2601,
      "tool": 2602,
      "snack": 2603,
      "##site": 2604,
      "sto": 2605,
      "airliner": 2606,
      "packed": 2607,
      "sold": 2608,
      "sticks": 2609,
      "aircraft": 2610,
      "shirtless": 2611,
      "shoe": 2612,
      "locomotive": 2613,
      "bell": 2614,
      "crou": 2615,
      "##ness": 2616,
      "##seum": 2617,
      "##ended": 2618,
      "falling": 2619,
      "##uffy": 2620,
      "motion": 2621,
      "checker": 2622,
      "museum": 2623,
      "duck": 2624,
      "gentle": 2625,
      "dim": 2626,
      "capt": 2627,
      "rows": 2628,
      "sports": 2629,
      "cele": 2630,
      "ang": 2631,
      "##cked": 2632,
      "separ": 2633,
      "booksh": 2634,
      "performs": 2635,
      "##cake": 2636,
      "practicing": 2637,
      "glazed": 2638,
      "guitar": 2639,
      "celebr": 2640,
      "##case": 2641,
      "without": 2642,
      "wagon": 2643,
      "chees": 2644,
      "haired": 2645,
      "aw": 2646,
      "##inish": 2647,
      "##rance": 2648,
      "arrange": 2649,
      "##hill": 2650,
      "toss": 2651,
      "##allow": 2652,
      "##ices": 2653,
      "tail": 2654,
      "coll": 2655,
      "piled": 2656,
      "sculpture": 2657,
      "##nel": 2658,
      "section": 2659,
      "grounda": 2660,
      "toothbrushes": 2661,
      "floral": 2662,
      "##bow": 2663,
      "dead": 2664,
      "##ware": 2665,
      "tops": 2666,
      "adj": 2667,
      "fir": 2668,
      "trol": 2669,
      "##umer": 2670,
      "talks": 2671,
      "jeans": 2672,
      "lamps": 2673,
      "cycle": 2674,
      "hum": 2675,
      "##ath": 2676,
      "electronics": 2677,
      "arrangement": 2678,
      "##og": 2679,
      "shallow": 2680,
      "spectators": 2681,
      "soft": 2682,
      "wheels": 2683,
      "frame": 2684,
      "cro": 2685,
      "rope": 2686,
      "also": 2687,
      "cupboard": 2688,
      "telephone": 2689,
      "ingre": 2690,
      "ingredi": 2691,
      "steep": 2692,
      "##sted": 2693,
      "fing": 2694,
      "##woman": 2695,
      "bucket": 2696,
      "flown": 2697,
      "balls": 2698,
      "garbage": 2699,
      "pedestrian": 2700,
      "##cts": 2701,
      "##estwo": 2702,
      "##essor": 2703,
      "delic": 2704,
      "cop": 2705,
      "foc": 2706,
      "toaster": 2707,
      "stool": 2708,
      "covering": 2709,
      "rub": 2710,
      "##com": 2711,
      "selling": 2712,
      "##iers": 2713,
      "##eback": 2714,
      "bank": 2715,
      "homemade": 2716,
      "selfie": 2717,
      "opposite": 2718,
      "paras": 2719,
      "images": 2720,
      "cool": 2721,
      "##asing": 2722,
      "mus": 2723,
      "##bur": 2724,
      "##erries": 2725,
      "slopes": 2726,
      "return": 2727,
      "##bed": 2728,
      "##ered": 2729,
      "sniff": 2730,
      "slopea": 2731,
      "jetliner": 2732,
      "wires": 2733,
      "curtains": 2734,
      "cupcakes": 2735,
      "travels": 2736,
      "patch": 2737,
      "exh": 2738,
      "freezer": 2739,
      "gro": 2740,
      "numer": 2741,
      "##line": 2742,
      "##ctive": 2743,
      "toileta": 2744,
      "##abit": 2745,
      "pitching": 2746,
      "hotdogs": 2747,
      "da": 2748,
      "buff": 2749,
      "##usk": 2750,
      "horseback": 2751,
      "aut": 2752,
      "skateboarders": 2753,
      "hits": 2754,
      "remo": 2755,
      "##allen": 2756,
      "tongue": 2757,
      "icing": 2758,
      "tu": 2759,
      "counters": 2760,
      "muff": 2761,
      "fallen": 2762,
      "fluffy": 2763,
      "cones": 2764,
      "hous": 2765,
      "us": 2766,
      "aslee": 2767,
      "marble": 2768,
      "objects": 2769,
      "competition": 2770,
      "pushing": 2771,
      "sprinkles": 2772,
      "tab": 2773,
      "peoplea": 2774,
      "shirts": 2775,
      "headphones": 2776,
      "##ertain": 2777,
      "newsp": 2778,
      "strawberries": 2779,
      "puppy": 2780,
      "asleep": 2781,
      "stuck": 2782,
      "habit": 2783,
      "##ooks": 2784,
      "skirt": 2785,
      "motorbi": 2786,
      "##umin": 2787,
      "corn": 2788,
      "blankets": 2789,
      "ingredients": 2790,
      "##ta": 2791,
      "pictured": 2792,
      "workers": 2793,
      "mixed": 2794,
      "visible": 2795,
      "lab": 2796,
      "na": 2797,
      "string": 2798,
      "snowboarders": 2799,
      "faces": 2800,
      "neon": 2801,
      "downhill": 2802,
      "doga": 2803,
      "stoplight": 2804,
      "organ": 2805,
      "kitea": 2806,
      "##ways": 2807,
      "##ooked": 2808,
      "exp": 2809,
      "tiea": 2810,
      "washing": 2811,
      "checkered": 2812,
      "chin": 2813,
      "stud": 2814,
      "mirrors": 2815,
      "##lit": 2816,
      "chaira": 2817,
      "tiles": 2818,
      "gathering": 2819,
      "rolls": 2820,
      "mop": 2821,
      "balloon": 2822,
      "whole": 2823,
      "golden": 2824,
      "climbing": 2825,
      "frosted": 2826,
      "rep": 2827,
      "shoulder": 2828,
      "tast": 2829,
      "##wood": 2830,
      "##amic": 2831,
      "wears": 2832,
      "blonde": 2833,
      "habitat": 2834,
      "bent": 2835,
      "reaches": 2836,
      "far": 2837,
      "buildingsa": 2838,
      "featuring": 2839,
      "wing": 2840,
      "entrance": 2841,
      "citya": 2842,
      "furnish": 2843,
      "coach": 2844,
      "##aged": 2845,
      "moves": 2846,
      "officers": 2847,
      "transport": 2848,
      "lond": 2849,
      "range": 2850,
      "##oned": 2851,
      "hills": 2852,
      "stickers": 2853,
      "obser": 2854,
      "magn": 2855,
      "london": 2856,
      "even": 2857,
      "cargo": 2858,
      "tracka": 2859,
      "landscape": 2860,
      "pouring": 2861,
      "au": 2862,
      "hers": 2863,
      "bul": 2864,
      "carries": 2865,
      "##ental": 2866,
      "napkin": 2867,
      "shiny": 2868,
      "someones": 2869,
      "chil": 2870,
      "covers": 2871,
      "##os": 2872,
      "##ila": 2873,
      "##ough": 2874,
      "shadow": 2875,
      "olives": 2876,
      "stee": 2877,
      "holder": 2878,
      "great": 2879,
      "first": 2880,
      "jar": 2881,
      "##ending": 2882,
      "plan": 2883,
      "batting": 2884,
      "condim": 2885,
      "##time": 2886,
      "cookies": 2887,
      "##ountain": 2888,
      "laughing": 2889,
      "delicious": 2890,
      "loung": 2891,
      "name": 2892,
      "pige": 2893,
      "##orter": 2894,
      "blowing": 2895,
      "liquid": 2896,
      "jo": 2897,
      "tun": 2898,
      "##van": 2899,
      "sidewalka": 2900,
      "potato": 2901,
      "bare": 2902,
      "rainbow": 2903,
      "ahead": 2904,
      "hambur": 2905,
      "figur": 2906,
      "exhib": 2907,
      "##ied": 2908,
      "ins": 2909,
      "##asea": 2910,
      "conf": 2911,
      "thema": 2912,
      "prin": 2913,
      "cr": 2914,
      "fountain": 2915,
      "##mall": 2916,
      "arch": 2917,
      "enjoy": 2918,
      "beef": 2919,
      "bata": 2920,
      "desserts": 2921,
      "thin": 2922,
      "checking": 2923,
      "cleaning": 2924,
      "miniature": 2925,
      "blow": 2926,
      "gravel": 2927,
      "opening": 2928,
      "indic": 2929,
      "lighting": 2930,
      "fishing": 2931,
      "cardboard": 2932,
      "interior": 2933,
      "trav": 2934,
      "shape": 2935,
      "steeple": 2936,
      "##ka": 2937,
      "##car": 2938,
      "ona": 2939,
      "shru": 2940,
      "grilled": 2941,
      "##ured": 2942,
      "goat": 2943,
      "saf": 2944,
      "mobile": 2945,
      "basketball": 2946,
      "##ded": 2947,
      "weather": 2948,
      "##lage": 2949,
      "##ently": 2950,
      "sug": 2951,
      "alley": 2952,
      "##aked": 2953,
      "turning": 2954,
      "advertisement": 2955,
      "teenag": 2956,
      "##rial": 2957,
      "bunk": 2958,
      "rusty": 2959,
      "cust": 2960,
      "den": 2961,
      "proc": 2962,
      "booth": 2963,
      "bit": 2964,
      "##rot": 2965,
      "cowboy": 2966,
      "cameraa": 2967,
      "crust": 2968,
      "trolley": 2969,
      "dot": 2970,
      "tire": 2971,
      "vol": 2972,
      "##ited": 2973,
      "##alla": 2974,
      "plaid": 2975,
      "##anta": 2976,
      "displays": 2977,
      "entertain": 2978,
      "microphone": 2979,
      "bookshelf": 2980,
      "sad": 2981,
      "coucha": 2982,
      "size": 2983,
      "muddy": 2984,
      "tabby": 2985,
      "dow": 2986,
      "catches": 2987,
      "pickle": 2988,
      "located": 2989,
      "clay": 2990,
      "focus": 2991,
      "##men": 2992,
      "##ethere": 2993,
      "carts": 2994,
      "flooring": 2995,
      "accessor": 2996,
      "herself": 2997,
      "cran": 2998,
      "##urf": 2999,
      "spin": 3000,
      "leag": 3001,
      "fold": 3002,
      "lar": 3003,
      "rad": 3004,
      "##olored": 3005,
      "countertop": 3006,
      "##spital": 3007,
      "rusted": 3008,
      "indust": 3009,
      "depic": 3010,
      "travelling": 3011,
      "cere": 3012,
      "odd": 3013,
      "feeder": 3014,
      "hospital": 3015,
      "jock": 3016,
      "##iet": 3017,
      "forward": 3018,
      "##thy": 3019,
      "unmade": 3020,
      "exhibit": 3021,
      "bri": 3022,
      "cer": 3023,
      "downt": 3024,
      "dump": 3025,
      "lane": 3026,
      "mead": 3027,
      "backs": 3028,
      "controls": 3029,
      "story": 3030,
      "industrial": 3031,
      "sec": 3032,
      "spray": 3033,
      "multic": 3034,
      "magaz": 3035,
      "eith": 3036,
      "every": 3037,
      "nic": 3038,
      "##was": 3039,
      "##nect": 3040,
      "stir": 3041,
      "##eting": 3042,
      "lif": 3043,
      "scar": 3044,
      "balc": 3045,
      "hallway": 3046,
      "collar": 3047,
      "chest": 3048,
      "attire": 3049,
      "gloves": 3050,
      "sharing": 3051,
      "either": 3052,
      "##ging": 3053,
      "thrown": 3054,
      "##iled": 3055,
      "brushes": 3056,
      "helping": 3057,
      "matt": 3058,
      "frisbees": 3059,
      "taxi": 3060,
      "tools": 3061,
      "ceramic": 3062,
      "meadow": 3063,
      "neigh": 3064,
      "posed": 3065,
      "comforter": 3066,
      "##most": 3067,
      "custom": 3068,
      "##ano": 3069,
      "onl": 3070,
      "stage": 3071,
      "##stem": 3072,
      "libr": 3073,
      "system": 3074,
      "condiments": 3075,
      "sugar": 3076,
      "jockey": 3077,
      "av": 3078,
      "calm": 3079,
      "main": 3080,
      "driver": 3081,
      "series": 3082,
      "groc": 3083,
      "newspaper": 3084,
      "library": 3085,
      "aerial": 3086,
      "##uzz": 3087,
      "grapes": 3088,
      "surfboarda": 3089,
      "uni": 3090,
      "words": 3091,
      "ill": 3092,
      "##lish": 3093,
      "##fully": 3094,
      "moutha": 3095,
      "padd": 3096,
      "following": 3097,
      "league": 3098,
      "bill": 3099,
      "biting": 3100,
      "calf": 3101,
      "##black": 3102,
      "stares": 3103,
      "accessories": 3104,
      "##washer": 3105,
      "fil": 3106,
      "iron": 3107,
      "own": 3108,
      "othera": 3109,
      "freshly": 3110,
      "seems": 3111,
      "connect": 3112,
      "dishwasher": 3113,
      "cliff": 3114,
      "nicely": 3115,
      "neighbor": 3116,
      "more": 3117,
      "santa": 3118,
      "##hood": 3119,
      "##attered": 3120,
      "peel": 3121,
      "chasing": 3122,
      "watering": 3123,
      "susp": 3124,
      "almost": 3125,
      "seats": 3126,
      "designed": 3127,
      "twin": 3128,
      "band": 3129,
      "gaz": 3130,
      "##wh": 3131,
      "para": 3132,
      "sleeps": 3133,
      "pancakes": 3134,
      "heading": 3135,
      "steak": 3136,
      "foil": 3137,
      "mostly": 3138,
      "multicolored": 3139,
      "serv": 3140,
      "picking": 3141,
      "audi": 3142,
      "chili": 3143,
      "##sth": 3144,
      "matching": 3145,
      "baking": 3146,
      "mattress": 3147,
      "nat": 3148,
      "##asting": 3149,
      "mans": 3150,
      "grand": 3151,
      "apron": 3152,
      "railway": 3153,
      "tasty": 3154,
      "jumb": 3155,
      "##ail": 3156,
      "##stri": 3157,
      "hugging": 3158,
      "chinese": 3159,
      "onlook": 3160,
      "##grou": 3161,
      "tennisa": 3162,
      "bouquet": 3163,
      "seagulls": 3164,
      "balcony": 3165,
      "cush": 3166,
      "dig": 3167,
      "wings": 3168,
      "##work": 3169,
      "amongst": 3170,
      "warm": 3171,
      "comb": 3172,
      "aband": 3173,
      "canop": 3174,
      "gentleman": 3175,
      "pow": 3176,
      "neighborhood": 3177,
      "cushion": 3178,
      "el": 3179,
      "##zen": 3180,
      "##ility": 3181,
      "marina": 3182,
      "statues": 3183,
      "funny": 3184,
      "burger": 3185,
      "advertising": 3186,
      "sidea": 3187,
      "##esting": 3188,
      "motorcyclea": 3189,
      "foreign": 3190,
      "straight": 3191,
      "finish": 3192,
      "##oun": 3193,
      "##allic": 3194,
      "arrow": 3195,
      "countryside": 3196,
      "teams": 3197,
      "lemon": 3198,
      "larger": 3199,
      "##mer": 3200,
      "ribb": 3201,
      "##stand": 3202,
      "convers": 3203,
      "sniffing": 3204,
      "father": 3205,
      "##isting": 3206,
      "cuts": 3207,
      "leaving": 3208,
      "hima": 3209,
      "order": 3210,
      "buffet": 3211,
      "housea": 3212,
      "hamburger": 3213,
      "cig": 3214,
      "pri": 3215,
      "tractor": 3216,
      "##ried": 3217,
      "prepare": 3218,
      "heavy": 3219,
      "bakery": 3220,
      "abandoned": 3221,
      "thick": 3222,
      "beg": 3223,
      "intera": 3224,
      "metallic": 3225,
      "typing": 3226,
      "baggage": 3227,
      "paws": 3228,
      "tin": 3229,
      "##tor": 3230,
      "##aste": 3231,
      "countera": 3232,
      "owner": 3233,
      "jumbo": 3234,
      "cigar": 3235,
      "dust": 3236,
      "vend": 3237,
      "##ters": 3238,
      "chewing": 3239,
      "sunlight": 3240,
      "trunks": 3241,
      "heart": 3242,
      "fed": 3243,
      "fixt": 3244,
      "##ggles": 3245,
      "chopped": 3246,
      "natural": 3247,
      "id": 3248,
      "sets": 3249,
      "surfac": 3250,
      "resort": 3251,
      "attempt": 3252,
      "horsea": 3253,
      "##group": 3254,
      "##ront": 3255,
      "##olf": 3256,
      "##ute": 3257,
      "horns": 3258,
      "trucka": 3259,
      "formal": 3260,
      "driveway": 3261,
      "dimly": 3262,
      "organized": 3263,
      "cases": 3264,
      "dusk": 3265,
      "jers": 3266,
      "tries": 3267,
      "##amp": 3268,
      "disp": 3269,
      "worker": 3270,
      "move": 3271,
      "busses": 3272,
      "##ption": 3273,
      "winds": 3274,
      "cold": 3275,
      "framed": 3276,
      "circular": 3277,
      "mask": 3278,
      "entertainment": 3279,
      "folded": 3280,
      "pop": 3281,
      "pony": 3282,
      "##gress": 3283,
      "##ightly": 3284,
      "##quets": 3285,
      "poster": 3286,
      "downtown": 3287,
      "jersey": 3288,
      "mass": 3289,
      "rose": 3290,
      "candy": 3291,
      "hung": 3292,
      "castle": 3293,
      "motorbike": 3294,
      "mom": 3295,
      "strol": 3296,
      "bik": 3297,
      "turkey": 3298,
      "connected": 3299,
      "emb": 3300,
      "tim": 3301,
      "##bble": 3302,
      "shining": 3303,
      "computera": 3304,
      "prote": 3305,
      "helmets": 3306,
      "dryer": 3307,
      "bearded": 3308,
      "bra": 3309,
      "unus": 3310,
      "propped": 3311,
      "polea": 3312,
      "devices": 3313,
      "produ": 3314,
      "##ival": 3315,
      "magnets": 3316,
      "bay": 3317,
      "son": 3318,
      "fieldtwo": 3319,
      "progress": 3320,
      "boots": 3321,
      "hose": 3322,
      "##pass": 3323,
      "##ud": 3324,
      "##und": 3325,
      "instru": 3326,
      "level": 3327,
      "sailboat": 3328,
      "##ama": 3329,
      "read": 3330,
      "toothp": 3331,
      "onlookers": 3332,
      "ring": 3333,
      "##front": 3334,
      "traina": 3335,
      "busa": 3336,
      "motorcyclist": 3337,
      "guard": 3338,
      "besides": 3339,
      "hiding": 3340,
      "tus": 3341,
      "##chair": 3342,
      "bund": 3343,
      "upon": 3344,
      "##eman": 3345,
      "obst": 3346,
      "should": 3347,
      "lounging": 3348,
      "fab": 3349,
      "ple": 3350,
      "##ung": 3351,
      "backyard": 3352,
      "quiet": 3353,
      "tossing": 3354,
      "evening": 3355,
      "tunnel": 3356,
      "canopy": 3357,
      "##sea": 3358,
      "##young": 3359,
      "##alley": 3360,
      "cafe": 3361,
      "##coming": 3362,
      "wit": 3363,
      "tablet": 3364,
      "flood": 3365,
      "point": 3366,
      "desc": 3367,
      "bowla": 3368,
      "males": 3369,
      "savan": 3370,
      "cupcake": 3371,
      "ovena": 3372,
      "amount": 3373,
      "step": 3374,
      "adorable": 3375,
      "porch": 3376,
      "scarf": 3377,
      "golf": 3378,
      "roam": 3379,
      "piano": 3380,
      "##stre": 3381,
      "kitty": 3382,
      "racquets": 3383,
      "storage": 3384,
      "reflected": 3385,
      "present": 3386,
      "obstac": 3387,
      "##pers": 3388,
      "##pher": 3389,
      "##mes": 3390,
      "##zy": 3391,
      "lighthouse": 3392,
      "contents": 3393,
      "raised": 3394,
      "illumin": 3395,
      "furry": 3396,
      "sid": 3397,
      "##large": 3398,
      "thumb": 3399,
      "licking": 3400,
      "monkey": 3401,
      "wilder": 3402,
      "audience": 3403,
      "lang": 3404,
      "oper": 3405,
      "lota": 3406,
      "separate": 3407,
      "grocery": 3408,
      "powder": 3409,
      "rel": 3410,
      "##vated": 3411,
      "bya": 3412,
      "beara": 3413,
      "##ift": 3414,
      "bikers": 3415,
      "##vely": 3416,
      "tva": 3417,
      "rails": 3418,
      "strip": 3419,
      "hardwood": 3420,
      "langu": 3421,
      "parrot": 3422,
      "skiis": 3423,
      "rec": 3424,
      "saying": 3425,
      "bars": 3426,
      "##istic": 3427,
      "chefs": 3428,
      "spinach": 3429,
      "gri": 3430,
      "stran": 3431,
      "scattered": 3432,
      "tag": 3433,
      "mountaina": 3434,
      "grazes": 3435,
      "squat": 3436,
      "dispens": 3437,
      "savanna": 3438,
      "lear": 3439,
      "sla": 3440,
      "##ees": 3441,
      "##za": 3442,
      "##rain": 3443,
      "barrel": 3444,
      "warning": 3445,
      "##ened": 3446,
      "##ord": 3447,
      "##anda": 3448,
      "collage": 3449,
      "crosses": 3450,
      "airporta": 3451,
      "rivera": 3452,
      "friend": 3453,
      "smoking": 3454,
      "circle": 3455,
      "fabric": 3456,
      "word": 3457,
      "works": 3458,
      "##usting": 3459,
      "heal": 3460,
      "freight": 3461,
      "shaking": 3462,
      "ears": 3463,
      "lambs": 3464,
      "balancing": 3465,
      "unique": 3466,
      "mel": 3467,
      "ori": 3468,
      "than": 3469,
      "##ngle": 3470,
      "blind": 3471,
      "runwaya": 3472,
      "football": 3473,
      "jungle": 3474,
      "awa": 3475,
      "finger": 3476,
      "music": 3477,
      "cu": 3478,
      "fair": 3479,
      "link": 3480,
      "##use": 3481,
      "itthe": 3482,
      "rampa": 3483,
      "stretching": 3484,
      "comfort": 3485,
      "simple": 3486,
      "bikini": 3487,
      "ge": 3488,
      "pean": 3489,
      "##ments": 3490,
      "peeking": 3491,
      "nam": 3492,
      "polic": 3493,
      "lemons": 3494,
      "##ounge": 3495,
      "talk": 3496,
      "##oe": 3497,
      "ant": 3498,
      "need": 3499,
      "played": 3500,
      "##illing": 3501,
      "goggles": 3502,
      "fauc": 3503,
      "thems": 3504,
      "belt": 3505,
      "sizes": 3506,
      "delivery": 3507,
      "safety": 3508,
      "fans": 3509,
      "##view": 3510,
      "storm": 3511,
      "shut": 3512,
      "parach": 3513,
      "##sthere": 3514,
      "really": 3515,
      "##ethree": 3516,
      "silverware": 3517,
      "drawers": 3518,
      "leafy": 3519,
      "hi": 3520,
      "hom": 3521,
      "ath": 3522,
      "cookie": 3523,
      "peeled": 3524,
      "moped": 3525,
      "suspended": 3526,
      "flowersa": 3527,
      "cupboards": 3528,
      "volley": 3529,
      "##xed": 3530,
      "fixing": 3531,
      "lighta": 3532,
      "furnished": 3533,
      "ribbon": 3534,
      "themselves": 3535,
      "lounge": 3536,
      "##rib": 3537,
      "daytime": 3538,
      "unc": 3539,
      "ladder": 3540,
      "figure": 3541,
      "hip": 3542,
      "ke": 3543,
      "ut": 3544,
      "prot": 3545,
      "keyboarda": 3546,
      "nighta": 3547,
      "##ooters": 3548,
      "fighting": 3549,
      "pine": 3550,
      "skin": 3551,
      "surfs": 3552,
      "rece": 3553,
      "##ipped": 3554,
      "pickles": 3555,
      "magazine": 3556,
      "fest": 3557,
      "nuts": 3558,
      "villa": 3559,
      "thing": 3560,
      "##owed": 3561,
      "bats": 3562,
      "snea": 3563,
      "carsa": 3564,
      "courtyard": 3565,
      "shorel": 3566,
      "complete": 3567,
      "muffin": 3568,
      "inf": 3569,
      "towering": 3570,
      "screens": 3571,
      "indoors": 3572,
      "classroom": 3573,
      "cereal": 3574,
      "##gir": 3575,
      "##atwo": 3576,
      "clocka": 3577,
      "reg": 3578,
      "clust": 3579,
      "logs": 3580,
      "haul": 3581,
      "##ught": 3582,
      "##orting": 3583,
      "cellphones": 3584,
      "lean": 3585,
      "tourists": 3586,
      "surfacea": 3587,
      "inst": 3588,
      "gran": 3589,
      "##ument": 3590,
      "scooters": 3591,
      "goal": 3592,
      "pairs": 3593,
      "quil": 3594,
      "cigarette": 3595,
      "too": 3596,
      "plaza": 3597,
      "closet": 3598,
      "blu": 3599,
      "stops": 3600,
      "soap": 3601,
      "sau": 3602,
      "headed": 3603,
      "foggy": 3604,
      "consisting": 3605,
      "process": 3606,
      "strange": 3607,
      "##ells": 3608,
      "doub": 3609,
      "vegetation": 3610,
      "camer": 3611,
      "barri": 3612,
      "photographs": 3613,
      "army": 3614,
      "sticker": 3615,
      "rustic": 3616,
      "##bbing": 3617,
      "healthy": 3618,
      "panda": 3619,
      "##aking": 3620,
      "##where": 3621,
      "##ination": 3622,
      "##eap": 3623,
      "##ebo": 3624,
      "grin": 3625,
      "##oney": 3626,
      "project": 3627,
      "knit": 3628,
      "trim": 3629,
      "points": 3630,
      "speakers": 3631,
      "numerous": 3632,
      "crane": 3633,
      "obstacle": 3634,
      "##rat": 3635,
      "##ze": 3636,
      "##omeone": 3637,
      "motorcyclists": 3638,
      "slightly": 3639,
      "buns": 3640,
      "##lash": 3641,
      "tricka": 3642,
      "canoe": 3643,
      "microwa": 3644,
      "beverages": 3645,
      "pigeons": 3646,
      "det": 3647,
      "tat": 3648,
      "comes": 3649,
      "tusks": 3650,
      "berries": 3651,
      "eu": 3652,
      "##hol": 3653,
      "##lines": 3654,
      "stock": 3655,
      "shri": 3656,
      "upa": 3657,
      "bedsp": 3658,
      "picturea": 3659,
      "meeting": 3660,
      "noteb": 3661,
      "wrapp": 3662,
      "fat": 3663,
      "valley": 3664,
      "##af": 3665,
      "##ifl": 3666,
      "##anger": 3667,
      "heada": 3668,
      "lob": 3669,
      "shops": 3670,
      "peace": 3671,
      "charact": 3672,
      "students": 3673,
      "shoreline": 3674,
      "bedspread": 3675,
      "act": 3676,
      "bin": 3677,
      "dan": 3678,
      "puts": 3679,
      "##gie": 3680,
      "shel": 3681,
      "arri": 3682,
      "positioned": 3683,
      "softball": 3684,
      "balloons": 3685,
      "observing": 3686,
      "toothpaste": 3687,
      "wading": 3688,
      "swe": 3689,
      "pedestal": 3690,
      "oriental": 3691,
      "kept": 3692,
      "cone": 3693,
      "dem": 3694,
      "pump": 3695,
      "bathing": 3696,
      "eleg": 3697,
      "skyline": 3698,
      "maj": 3699,
      "crossed": 3700,
      "slicing": 3701,
      "layer": 3702,
      "approaches": 3703,
      "paddling": 3704,
      "wilderness": 3705,
      "goo": 3706,
      "##val": 3707,
      "stem": 3708,
      "##raying": 3709,
      "##ulifl": 3710,
      "airlines": 3711,
      "waterway": 3712,
      "conve": 3713,
      "slow": 3714,
      "catchers": 3715,
      "##ashed": 3716,
      "##cloth": 3717,
      "material": 3718,
      "##toon": 3719,
      "exc": 3720,
      "direct": 3721,
      "conversation": 3722,
      "shrimp": 3723,
      "fry": 3724,
      "grabbing": 3725,
      "silhou": 3726,
      "exam": 3727,
      "forks": 3728,
      "beak": 3729,
      "reach": 3730,
      "fully": 3731,
      "reflecting": 3732,
      "vendor": 3733,
      "attempts": 3734,
      "dispenser": 3735,
      "lis": 3736,
      "may": 3737,
      "wand": 3738,
      "will": 3739,
      "any": 3740,
      "##icle": 3741,
      "caulifl": 3742,
      "colle": 3743,
      "leaping": 3744,
      "pens": 3745,
      "##wards": 3746,
      "illuminated": 3747,
      "faucet": 3748,
      "granite": 3749,
      "elegant": 3750,
      "fol": 3751,
      "min": 3752,
      "wre": 3753,
      "arena": 3754,
      "waving": 3755,
      "boxa": 3756,
      "monument": 3757,
      "drawing": 3758,
      "classic": 3759,
      "teenager": 3760,
      "service": 3761,
      "peanut": 3762,
      "kis": 3763,
      "trough": 3764,
      "sideways": 3765,
      "desks": 3766,
      "caught": 3767,
      "##unk": 3768,
      "numbers": 3769,
      "button": 3770,
      "##ucumb": 3771,
      "repair": 3772,
      "village": 3773,
      "cucumb": 3774,
      "tight": 3775,
      "ware": 3776,
      "##ole": 3777,
      "##vest": 3778,
      "##person": 3779,
      "##icop": 3780,
      "coast": 3781,
      "lighted": 3782,
      "patterned": 3783,
      "crash": 3784,
      "##right": 3785,
      "themed": 3786,
      "knives": 3787,
      "helicop": 3788,
      "mall": 3789,
      "pud": 3790,
      "ru": 3791,
      "trop": 3792,
      "##ined": 3793,
      "##phonea": 3794,
      "raft": 3795,
      "spa": 3796,
      "diam": 3797,
      "skisa": 3798,
      "leads": 3799,
      "married": 3800,
      "sailboats": 3801,
      "cheesy": 3802,
      "flooded": 3803,
      "cans": 3804,
      "had": 3805,
      "kay": 3806,
      "str": 3807,
      "itan": 3808,
      "groups": 3809,
      "herding": 3810,
      "cobble": 3811,
      "afric": 3812,
      "designs": 3813,
      "snacks": 3814,
      "cauliflower": 3815,
      "##pon": 3816,
      "clos": 3817,
      "blur": 3818,
      "split": 3819,
      "mov": 3820,
      "heard": 3821,
      "note": 3822,
      "owl": 3823,
      "second": 3824,
      "euro": 3825,
      "diamond": 3826,
      "greenery": 3827,
      "factor": 3828,
      "much": 3829,
      "bald": 3830,
      "interesting": 3831,
      "unusual": 3832,
      "skater": 3833,
      "##ific": 3834,
      "dried": 3835,
      "boogie": 3836,
      "portra": 3837,
      "strapped": 3838,
      "tropical": 3839,
      "drying": 3840,
      "ostri": 3841,
      "tasting": 3842,
      "seas": 3843,
      "recor": 3844,
      "umbrellasa": 3845,
      "nightstand": 3846,
      "freeway": 3847,
      "bad": 3848,
      "roman": 3849,
      "##my": 3850,
      "##erence": 3851,
      "within": 3852,
      "roast": 3853,
      "backa": 3854,
      "conso": 3855,
      "stopping": 3856,
      "deer": 3857,
      "spac": 3858,
      "##aging": 3859,
      "print": 3860,
      "goods": 3861,
      "individuals": 3862,
      "helicopter": 3863,
      "##cast": 3864,
      "##ities": 3865,
      "##labor": 3866,
      "atten": 3867,
      "tablecloth": 3868,
      "poss": 3869,
      "overpass": 3870,
      "splash": 3871,
      "##angular": 3872,
      "unf": 3873,
      "keys": 3874,
      "terrain": 3875,
      "stovea": 3876,
      "celebrating": 3877,
      "massive": 3878,
      "roaming": 3879,
      "##eapple": 3880,
      "convey": 3881,
      "now": 3882,
      "##hed": 3883,
      "##pid": 3884,
      "stable": 3885,
      "upright": 3886,
      "cartoon": 3887,
      "histor": 3888,
      "baseballa": 3889,
      "limb": 3890,
      "tags": 3891,
      "english": 3892,
      "##boat": 3893,
      "shades": 3894,
      "costumes": 3895,
      "daugh": 3896,
      "fixtures": 3897,
      "doubles": 3898,
      "factory": 3899,
      "cel": 3900,
      "##dition": 3901,
      "spraying": 3902,
      "cellular": 3903,
      "wiia": 3904,
      "canal": 3905,
      "turns": 3906,
      "spoons": 3907,
      "relax": 3908,
      "transportation": 3909,
      "windsurf": 3910,
      "europe": 3911,
      "hal": 3912,
      "tents": 3913,
      "airbor": 3914,
      "compan": 3915,
      "fenc": 3916,
      "hydranta": 3917,
      "garnish": 3918,
      "ornam": 3919,
      "human": 3920,
      "autom": 3921,
      "utility": 3922,
      "##ider": 3923,
      "##ots": 3924,
      "buggy": 3925,
      "recl": 3926,
      "piles": 3927,
      "indicating": 3928,
      "handing": 3929,
      "mi": 3930,
      "##aring": 3931,
      "##apan": 3932,
      "text": 3933,
      "fac": 3934,
      "photographer": 3935,
      "tuba": 3936,
      "gives": 3937,
      "pineapple": 3938,
      "bor": 3939,
      "##vi": 3940,
      "##oored": 3941,
      "##ably": 3942,
      "boarders": 3943,
      "baga": 3944,
      "polka": 3945,
      "##close": 3946,
      "soldiers": 3947,
      "figurine": 3948,
      "language": 3949,
      "quilt": 3950,
      "console": 3951,
      "bis": 3952,
      "come": 3953,
      "cree": 3954,
      "love": 3955,
      "##ky": 3956,
      "##met": 3957,
      "tabletwo": 3958,
      "basin": 3959,
      "elevated": 3960,
      "rect": 3961,
      "vegetablesa": 3962,
      "brid": 3963,
      "unlo": 3964,
      "doora": 3965,
      "cornera": 3966,
      "waya": 3967,
      "depot": 3968,
      "pattern": 3969,
      "adjusting": 3970,
      "notebook": 3971,
      "eight": 3972,
      "eag": 3973,
      "hooked": 3974,
      "japan": 3975,
      "tiss": 3976,
      "##oping": 3977,
      "whit": 3978,
      "stance": 3979,
      "dest": 3980,
      "tape": 3981,
      "knee": 3982,
      "zooa": 3983,
      "weird": 3984,
      "brief": 3985,
      "thumbs": 3986,
      "grinding": 3987,
      "portrait": 3988,
      "ren": 3989,
      "waff": 3990,
      "##bag": 3991,
      "backd": 3992,
      "dec": 3993,
      "depar": 3994,
      "float": 3995,
      "##ations": 3996,
      "mac": 3997,
      "tex": 3998,
      "brit": 3999,
      "bananasa": 4000,
      "winding": 4001,
      "speaking": 4002,
      "sharp": 4003,
      "ident": 4004,
      "learning": 4005,
      "airborne": 4006,
      "mashed": 4007,
      "##gu": 4008,
      "compartment": 4009,
      "alco": 4010,
      "bagel": 4011,
      "cloud": 4012,
      "cleaned": 4013,
      "extended": 4014,
      "conference": 4015,
      "crib": 4016,
      "elabor": 4017,
      "keep": 4018,
      "naked": 4019,
      "##ode": 4020,
      "##rome": 4021,
      "site": 4022,
      "blood": 4023,
      "seven": 4024,
      "wake": 4025,
      "wicker": 4026,
      "hangar": 4027,
      "world": 4028,
      "include": 4029,
      "butt": 4030,
      "savannah": 4031,
      "grown": 4032,
      "##ls": 4033,
      "##stone": 4034,
      "##sticks": 4035,
      "watertwo": 4036,
      "##shirt": 4037,
      "oppon": 4038,
      "boata": 4039,
      "drivers": 4040,
      "canad": 4041,
      "posts": 4042,
      "flav": 4043,
      "alcohol": 4044,
      "frying": 4045,
      "tar": 4046,
      "babies": 4047,
      "rowing": 4048,
      "pathway": 4049,
      "drawer": 4050,
      "geese": 4051,
      "kissing": 4052,
      "backdrop": 4053,
      "pug": 4054,
      "ris": 4055,
      "##mon": 4056,
      "##eter": 4057,
      "##ico": 4058,
      "streettwo": 4059,
      "bean": 4060,
      "snu": 4061,
      "carry": 4062,
      "phon": 4063,
      "overcast": 4064,
      "glassa": 4065,
      "headboard": 4066,
      "prov": 4067,
      "panel": 4068,
      "happ": 4069,
      "##plane": 4070,
      "begin": 4071,
      "festival": 4072,
      "daughter": 4073,
      "##ditional": 4074,
      "##ma": 4075,
      "third": 4076,
      "##alt": 4077,
      "##vering": 4078,
      "cathed": 4079,
      "youth": 4080,
      "metro": 4081,
      "amid": 4082,
      "winea": 4083,
      "teenage": 4084,
      "toasted": 4085,
      "##sthree": 4086,
      "squatting": 4087,
      "hauling": 4088,
      "listen": 4089,
      "cathedral": 4090,
      "nur": 4091,
      "##mit": 4092,
      "##ater": 4093,
      "worn": 4094,
      "message": 4095,
      "farmers": 4096,
      "crack": 4097,
      "circus": 4098,
      "chained": 4099,
      "wrapper": 4100,
      "rot": 4101,
      "##den": 4102,
      "##tru": 4103,
      "##idy": 4104,
      "##andel": 4105,
      "##eeled": 4106,
      "such": 4107,
      "##ills": 4108,
      "photographed": 4109,
      "billboard": 4110,
      "digital": 4111,
      "blueb": 4112,
      "cast": 4113,
      "##ws": 4114,
      "lie": 4115,
      "deser": 4116,
      "asph": 4117,
      "##ational": 4118,
      "logo": 4119,
      "broccolia": 4120,
      "curve": 4121,
      "seating": 4122,
      "signals": 4123,
      "extra": 4124,
      "figurines": 4125,
      "depicting": 4126,
      "uncooked": 4127,
      "jars": 4128,
      "shap": 4129,
      "china": 4130,
      "downa": 4131,
      "knif": 4132,
      "jackets": 4133,
      "trio": 4134,
      "sails": 4135,
      "products": 4136,
      "british": 4137,
      "ot": 4138,
      "pig": 4139,
      "sol": 4140,
      "##hand": 4141,
      "##kins": 4142,
      "##uits": 4143,
      "##bing": 4144,
      "towing": 4145,
      "gravy": 4146,
      "scenic": 4147,
      "enter": 4148,
      "customers": 4149,
      "stroller": 4150,
      "sneakers": 4151,
      "heat": 4152,
      "##too": 4153,
      "##gers": 4154,
      "stom": 4155,
      "##ised": 4156,
      "shines": 4157,
      "carous": 4158,
      "skysc": 4159,
      "bikea": 4160,
      "knees": 4161,
      "roller": 4162,
      "package": 4163,
      "special": 4164,
      "retur": 4165,
      "practice": 4166,
      "medium": 4167,
      "##ners": 4168,
      "pears": 4169,
      "##ables": 4170,
      "rob": 4171,
      "placing": 4172,
      "##arious": 4173,
      "barbed": 4174,
      "suitcasea": 4175,
      "attract": 4176,
      "windowsill": 4177,
      "artistic": 4178,
      "kettle": 4179,
      "adorned": 4180,
      "shuttle": 4181,
      "closely": 4182,
      "conveyor": 4183,
      "skyscra": 4184,
      "returning": 4185,
      "hind": 4186,
      "##tra": 4187,
      "chrome": 4188,
      "imp": 4189,
      "barbe": 4190,
      "aged": 4191,
      "commode": 4192,
      "competing": 4193,
      "printer": 4194,
      "##white": 4195,
      "major": 4196,
      "african": 4197,
      "stomach": 4198,
      "ger": 4199,
      "vasea": 4200,
      "thre": 4201,
      "ones": 4202,
      "towers": 4203,
      "grab": 4204,
      "press": 4205,
      "marked": 4206,
      "meats": 4207,
      "bridgea": 4208,
      "backpacks": 4209,
      "tourist": 4210,
      "strawberry": 4211,
      "carousel": 4212,
      "pay": 4213,
      "selection": 4214,
      "force": 4215,
      "arounda": 4216,
      "donkey": 4217,
      "stripes": 4218,
      "cluster": 4219,
      "lobby": 4220,
      "directly": 4221,
      "deserted": 4222,
      "asphalt": 4223,
      "call": 4224,
      "cooks": 4225,
      "foli": 4226,
      "##life": 4227,
      "##itch": 4228,
      "##ately": 4229,
      "anch": 4230,
      "##ution": 4231,
      "ittwo": 4232,
      "places": 4233,
      "##acks": 4234,
      "##elly": 4235,
      "pocket": 4236,
      "handsa": 4237,
      "stationary": 4238,
      "camp": 4239,
      "kitesa": 4240,
      "rocking": 4241,
      "expo": 4242,
      "##deled": 4243,
      "cruise": 4244,
      "inspe": 4245,
      "powdered": 4246,
      "tattoo": 4247,
      "sweet": 4248,
      "gy": 4249,
      "sat": 4250,
      "were": 4251,
      "##tie": 4252,
      "##ops": 4253,
      "when": 4254,
      "skil": 4255,
      "super": 4256,
      "cola": 4257,
      "togethertwo": 4258,
      "sandwicha": 4259,
      "check": 4260,
      "potter": 4261,
      "subur": 4262,
      "entering": 4263,
      "calico": 4264,
      "soldier": 4265,
      "crates": 4266,
      "foliage": 4267,
      "gour": 4268,
      "##ient": 4269,
      "##father": 4270,
      "##ains": 4271,
      "boardwalk": 4272,
      "macar": 4273,
      "sauc": 4274,
      "emer": 4275,
      "curious": 4276,
      "help": 4277,
      "newly": 4278,
      "##pod": 4279,
      "electrical": 4280,
      "stretched": 4281,
      "ostrich": 4282,
      "mixt": 4283,
      "opponent": 4284,
      "eas": 4285,
      "rop": 4286,
      "wo": 4287,
      "thru": 4288,
      "##owers": 4289,
      "##otic": 4290,
      "frozen": 4291,
      "suv": 4292,
      "podi": 4293,
      "umbrell": 4294,
      "lightsa": 4295,
      "midair": 4296,
      "dressing": 4297,
      "meas": 4298,
      "memb": 4299,
      "enclosurea": 4300,
      "stepping": 4301,
      "staircase": 4302,
      "fog": 4303,
      "stalls": 4304,
      "cubicle": 4305,
      "crouching": 4306,
      "shoulders": 4307,
      "puddle": 4308,
      "european": 4309,
      "mixture": 4310,
      "dash": 4311,
      "mes": 4312,
      "nest": 4313,
      "tiger": 4314,
      "vac": 4315,
      "yog": 4316,
      "##ively": 4317,
      "care": 4318,
      "intently": 4319,
      "##ummy": 4320,
      "scrat": 4321,
      "tube": 4322,
      "wheelchair": 4323,
      "paintings": 4324,
      "chopsticks": 4325,
      "balances": 4326,
      "stools": 4327,
      "archite": 4328,
      "radio": 4329,
      "names": 4330,
      "snugg": 4331,
      "shapes": 4332,
      "podium": 4333,
      "ferry": 4334,
      "gun": 4335,
      "##ula": 4336,
      "streetlight": 4337,
      "##amb": 4338,
      "slide": 4339,
      "##ccup": 4340,
      "dip": 4341,
      "runner": 4342,
      "checks": 4343,
      "envi": 4344,
      "loaf": 4345,
      "keyboards": 4346,
      "maroon": 4347,
      "planter": 4348,
      "storea": 4349,
      "dual": 4350,
      "extre": 4351,
      "dusty": 4352,
      "warehouse": 4353,
      "listening": 4354,
      "rings": 4355,
      "tee": 4356,
      "##gen": 4357,
      "##rong": 4358,
      "plains": 4359,
      "chandel": 4360,
      "##aded": 4361,
      "suite": 4362,
      "raw": 4363,
      "##ests": 4364,
      "cellphonea": 4365,
      "towera": 4366,
      "unit": 4367,
      "array": 4368,
      "bicyclist": 4369,
      "sleep": 4370,
      "##ronment": 4371,
      "partly": 4372,
      "racks": 4373,
      "angle": 4374,
      "muffins": 4375,
      "antel": 4376,
      "infant": 4377,
      "leaned": 4378,
      "rectangular": 4379,
      "texting": 4380,
      "environment": 4381,
      "lower": 4382,
      "##een": 4383,
      "mane": 4384,
      "##iday": 4385,
      "##eball": 4386,
      "##amas": 4387,
      "pies": 4388,
      "disk": 4389,
      "divid": 4390,
      "lego": 4391,
      "refrigerators": 4392,
      "glassesa": 4393,
      "bookcase": 4394,
      "feeds": 4395,
      "portion": 4396,
      "spotted": 4397,
      "caption": 4398,
      "rubbing": 4399,
      "tuxed": 4400,
      "express": 4401,
      "operating": 4402,
      "policeman": 4403,
      "parachute": 4404,
      "barrier": 4405,
      "macaroni": 4406,
      "dug": 4407,
      "gall": 4408,
      "##various": 4409,
      "##five": 4410,
      "tort": 4411,
      "##ooth": 4412,
      "necks": 4413,
      "shear": 4414,
      "tablethe": 4415,
      "##cept": 4416,
      "##rup": 4417,
      "grasstwo": 4418,
      "coke": 4419,
      "caf": 4420,
      "chairsa": 4421,
      "starting": 4422,
      "rocksa": 4423,
      "shots": 4424,
      "paj": 4425,
      "wildlife": 4426,
      "artwork": 4427,
      "harness": 4428,
      "indian": 4429,
      "claim": 4430,
      "syrup": 4431,
      "##flowers": 4432,
      "grandfather": 4433,
      "cudd": 4434,
      "try": 4435,
      "##tim": 4436,
      "##cue": 4437,
      "##food": 4438,
      "##athe": 4439,
      "cherry": 4440,
      "sum": 4441,
      "tagged": 4442,
      "spat": 4443,
      "floats": 4444,
      "apart": 4445,
      "showera": 4446,
      "outfits": 4447,
      "craft": 4448,
      "touch": 4449,
      "parasol": 4450,
      "priv": 4451,
      "excited": 4452,
      "blurred": 4453,
      "spacious": 4454,
      "border": 4455,
      "map": 4456,
      "ox": 4457,
      "inform": 4458,
      "peering": 4459,
      "grassland": 4460,
      "firetru": 4461,
      "dipping": 4462,
      "serves": 4463,
      "curved": 4464,
      "televisiona": 4465,
      "somethinga": 4466,
      "raina": 4467,
      "uniformed": 4468,
      "competit": 4469,
      "speeding": 4470,
      "stretches": 4471,
      "sprinkled": 4472,
      "##ales": 4473,
      "##gn": 4474,
      "##rent": 4475,
      "##lain": 4476,
      "needs": 4477,
      "walled": 4478,
      "elephanta": 4479,
      "lodge": 4480,
      "restauranta": 4481,
      "cabinetsa": 4482,
      "brancha": 4483,
      "sofas": 4484,
      "quick": 4485,
      "##someone": 4486,
      "flipping": 4487,
      "remodeled": 4488,
      "silhouette": 4489,
      "cobblestone": 4490,
      "elaborate": 4491,
      "skillet": 4492,
      "##amboo": 4493,
      "bamboo": 4494,
      "ed": 4495,
      "hut": 4496,
      "si": 4497,
      "san": 4498,
      "##fts": 4499,
      "##urt": 4500,
      "##loy": 4501,
      "dozen": 4502,
      "signage": 4503,
      "younger": 4504,
      "menu": 4505,
      "hitter": 4506,
      "snowboarda": 4507,
      "unri": 4508,
      "refrigeratora": 4509,
      "fingers": 4510,
      "crate": 4511,
      "shrubs": 4512,
      "skinny": 4513,
      "demon": 4514,
      "tidy": 4515,
      "##field": 4516,
      "##orn": 4517,
      "ships": 4518,
      "plu": 4519,
      "plush": 4520,
      "capped": 4521,
      "traya": 4522,
      "drinka": 4523,
      "stacks": 4524,
      "shrubb": 4525,
      "athlet": 4526,
      "pajamas": 4527,
      "york": 4528,
      "##cars": 4529,
      "##ino": 4530,
      "##icip": 4531,
      "streetthe": 4532,
      "lakea": 4533,
      "##celain": 4534,
      "bowling": 4535,
      "mountainous": 4536,
      "wavesa": 4537,
      "engaged": 4538,
      "entree": 4539,
      "letter": 4540,
      "figures": 4541,
      "stunts": 4542,
      "parasa": 4543,
      "movie": 4544,
      "gourmet": 4545,
      "aven": 4546,
      "rab": 4547,
      "##suit": 4548,
      "##con": 4549,
      "##bu": 4550,
      "traditional": 4551,
      "holiday": 4552,
      "alarm": 4553,
      "biker": 4554,
      "tech": 4555,
      "bicyclists": 4556,
      "diner": 4557,
      "clearing": 4558,
      "carriages": 4559,
      "washer": 4560,
      "glowing": 4561,
      "##inished": 4562,
      "pigeon": 4563,
      "tissue": 4564,
      "identical": 4565,
      "dam": 4566,
      "fit": 4567,
      "jeep": 4568,
      "jelly": 4569,
      "##ose": 4570,
      "##pris": 4571,
      "##mar": 4572,
      "though": 4573,
      "##oose": 4574,
      "##utes": 4575,
      "parts": 4576,
      "##str": 4577,
      "skiier": 4578,
      "mousea": 4579,
      "##shi": 4580,
      "viewed": 4581,
      "bigger": 4582,
      "##ethis": 4583,
      "cupa": 4584,
      "booka": 4585,
      "porcelain": 4586,
      "rubber": 4587,
      "teenagers": 4588,
      "awaiting": 4589,
      "japanese": 4590,
      "shrubbery": 4591,
      "heel": 4592,
      "rol": 4593,
      "rout": 4594,
      "rough": 4595,
      "##obile": 4596,
      "##por": 4597,
      "##green": 4598,
      "stump": 4599,
      "##ora": 4600,
      "##icap": 4601,
      "rode": 4602,
      "somewhere": 4603,
      "cata": 4604,
      "grind": 4605,
      "woodsa": 4606,
      "gaming": 4607,
      "treat": 4608,
      "mail": 4609,
      "united": 4610,
      "barren": 4611,
      "stores": 4612,
      "start": 4613,
      "cooling": 4614,
      "unfinished": 4615,
      "ottom": 4616,
      "suburban": 4617,
      "spatula": 4618,
      "iced": 4619,
      "king": 4620,
      "mem": 4621,
      "##tched": 4622,
      "##ara": 4623,
      "infl": 4624,
      "motel": 4625,
      "handicap": 4626,
      "real": 4627,
      "lining": 4628,
      "pitched": 4629,
      "penc": 4630,
      "notes": 4631,
      "##box": 4632,
      "foam": 4633,
      "farmer": 4634,
      "spots": 4635,
      "blinds": 4636,
      "dancing": 4637,
      "possib": 4638,
      "done": 4639,
      "fer": 4640,
      "file": 4641,
      "moored": 4642,
      "pane": 4643,
      "peng": 4644,
      "pork": 4645,
      "tying": 4646,
      "##nes": 4647,
      "##ana": 4648,
      "##onal": 4649,
      "fix": 4650,
      "roads": 4651,
      "roadside": 4652,
      "##umn": 4653,
      "treats": 4654,
      "opena": 4655,
      "banner": 4656,
      "cutter": 4657,
      "engines": 4658,
      "separated": 4659,
      "navy": 4660,
      "hiking": 4661,
      "automobile": 4662,
      "gym": 4663,
      "possibly": 4664,
      "junk": 4665,
      "lead": 4666,
      "sle": 4667,
      "tro": 4668,
      "##pan": 4669,
      "##ckets": 4670,
      "##etti": 4671,
      "cock": 4672,
      "windsh": 4673,
      "scra": 4674,
      "swung": 4675,
      "bunny": 4676,
      "clown": 4677,
      "viewing": 4678,
      "faced": 4679,
      "facea": 4680,
      "ovens": 4681,
      "##izon": 4682,
      "stripped": 4683,
      "appliance": 4684,
      "chickens": 4685,
      "equipped": 4686,
      "weeds": 4687,
      "plent": 4688,
      "##street": 4689,
      "celery": 4690,
      "bisc": 4691,
      "mural": 4692,
      "##ether": 4693,
      "upward": 4694,
      "signsa": 4695,
      "waterf": 4696,
      "towed": 4697,
      "handbag": 4698,
      "wallp": 4699,
      "opens": 4700,
      "emp": 4701,
      "balance": 4702,
      "haw": 4703,
      "##eathers": 4704,
      "teaching": 4705,
      "distan": 4706,
      "garlic": 4707,
      "outsid": 4708,
      "bulls": 4709,
      "silly": 4710,
      "lifting": 4711,
      "hipster": 4712,
      "protest": 4713,
      "reno": 4714,
      "crackers": 4715,
      "attractive": 4716,
      "rabb": 4717,
      "pengu": 4718,
      "bid": 4719,
      "que": 4720,
      "##off": 4721,
      "tor": 4722,
      "##semb": 4723,
      "fieldthe": 4724,
      "##ssome": 4725,
      "sushi": 4726,
      "horizon": 4727,
      "othertwo": 4728,
      "compact": 4729,
      "scru": 4730,
      "displaya": 4731,
      "locked": 4732,
      "screena": 4733,
      "local": 4734,
      "##uzzy": 4735,
      "eagle": 4736,
      "windshield": 4737,
      "ave": 4738,
      "bla": 4739,
      "cot": 4740,
      "letting": 4741,
      "mer": 4742,
      "rh": 4743,
      "sam": 4744,
      "##uss": 4745,
      "##inea": 4746,
      "##aseball": 4747,
      "tram": 4748,
      "itthere": 4749,
      "##rie": 4750,
      "bends": 4751,
      "##eseveral": 4752,
      "breaking": 4753,
      "attent": 4754,
      "mean": 4755,
      "forested": 4756,
      "tiered": 4757,
      "pads": 4758,
      "blocks": 4759,
      "outfield": 4760,
      "powered": 4761,
      "hoodie": 4762,
      "cubs": 4763,
      "happily": 4764,
      "aff": 4765,
      "dun": 4766,
      "fle": 4767,
      "fut": 4768,
      "lon": 4769,
      "pant": 4770,
      "til": 4771,
      "##pad": 4772,
      "##aks": 4773,
      "##noon": 4774,
      "##cat": 4775,
      "##ua": 4776,
      "##bird": 4777,
      "##fo": 4778,
      "whipped": 4779,
      "champ": 4780,
      "horned": 4781,
      "lime": 4782,
      "stopa": 4783,
      "def": 4784,
      "dirta": 4785,
      "hata": 4786,
      "remotea": 4787,
      "steer": 4788,
      "afternoon": 4789,
      "retrie": 4790,
      "falls": 4791,
      "letters": 4792,
      "bullet": 4793,
      "else": 4794,
      "unloading": 4795,
      "yogurt": 4796,
      "chandelier": 4797,
      "tuxedo": 4798,
      "pir": 4799,
      "pil": 4800,
      "wool": 4801,
      "##yed": 4802,
      "##alks": 4803,
      "wheeled": 4804,
      "peas": 4805,
      "doz": 4806,
      "grouped": 4807,
      "outstre": 4808,
      "playground": 4809,
      "scale": 4810,
      "treestwo": 4811,
      "maker": 4812,
      "adm": 4813,
      "ridding": 4814,
      "breast": 4815,
      "pitchers": 4816,
      "crest": 4817,
      "teetha": 4818,
      "yarda": 4819,
      "blocking": 4820,
      "decked": 4821,
      "crouched": 4822,
      "interacting": 4823,
      "windsurfing": 4824,
      "company": 4825,
      "buttons": 4826,
      "ottoman": 4827,
      "cit": 4828,
      "drop": 4829,
      "fuzzy": 4830,
      "money": 4831,
      "##rit": 4832,
      "##ually": 4833,
      "situ": 4834,
      "areas": 4835,
      "surpris": 4836,
      "poised": 4837,
      "##ache": 4838,
      "alumin": 4839,
      "slides": 4840,
      "handles": 4841,
      "baref": 4842,
      "##acent": 4843,
      "squar": 4844,
      "juic": 4845,
      "delta": 4846,
      "##vention": 4847,
      "stained": 4848,
      "visit": 4849,
      "called": 4850,
      "adjacent": 4851,
      "relish": 4852,
      "##wear": 4853,
      "##iw": 4854,
      "##law": 4855,
      "##andal": 4856,
      "##ulated": 4857,
      "spar": 4858,
      "##dless": 4859,
      "luggagea": 4860,
      "watched": 4861,
      "##ocad": 4862,
      "females": 4863,
      "bloom": 4864,
      "gliding": 4865,
      "##ivity": 4866,
      "butterf": 4867,
      "humming": 4868,
      "aluminum": 4869,
      "feathers": 4870,
      "jam": 4871,
      "##atable": 4872,
      "##ically": 4873,
      "rim": 4874,
      "coles": 4875,
      "coats": 4876,
      "toiletries": 4877,
      "caution": 4878,
      "##thing": 4879,
      "driven": 4880,
      "preten": 4881,
      "hudd": 4882,
      "stripe": 4883,
      "forka": 4884,
      "shaggy": 4885,
      "belong": 4886,
      "pointed": 4887,
      "sausages": 4888,
      "followed": 4889,
      "avocad": 4890,
      "pottery": 4891,
      "firetruck": 4892,
      "unripe": 4893,
      "avenue": 4894,
      "plenty": 4895,
      "outstretched": 4896,
      "coleslaw": 4897,
      "oil": 4898,
      "page": 4899,
      "tem": 4900,
      "vic": 4901,
      "vandal": 4902,
      "##iner": 4903,
      "##inger": 4904,
      "shed": 4905,
      "pipes": 4906,
      "carn": 4907,
      "ballthe": 4908,
      "wallsa": 4909,
      "papera": 4910,
      "perches": 4911,
      "dinning": 4912,
      "news": 4913,
      "directing": 4914,
      "flatbed": 4915,
      "##post": 4916,
      "grizz": 4917,
      "kayak": 4918,
      "halves": 4919,
      "depart": 4920,
      "provide": 4921,
      "german": 4922,
      "bru": 4923,
      "cass": 4924,
      "dom": 4925,
      "sled": 4926,
      "ul": 4927,
      "##yond": 4928,
      "##asp": 4929,
      "##chet": 4930,
      "beyond": 4931,
      "outa": 4932,
      "skates": 4933,
      "poking": 4934,
      "beachtwo": 4935,
      "convention": 4936,
      "assemb": 4937,
      "sanda": 4938,
      "diving": 4939,
      "contem": 4940,
      "sheepa": 4941,
      "cabbage": 4942,
      "setup": 4943,
      "##izing": 4944,
      "distant": 4945,
      "necktie": 4946,
      "wrap": 4947,
      "mixing": 4948,
      "adjust": 4949,
      "bricks": 4950,
      "folding": 4951,
      "dugout": 4952,
      "parasailing": 4953,
      "memor": 4954,
      "##book": 4955,
      "ther": 4956,
      "##ener": 4957,
      "##child": 4958,
      "manne": 4959,
      "##ilar": 4960,
      "bump": 4961,
      "grasses": 4962,
      "bedding": 4963,
      "asc": 4964,
      "aspar": 4965,
      "windowsa": 4966,
      "sprou": 4967,
      "sleek": 4968,
      "holes": 4969,
      "flowered": 4970,
      "stew": 4971,
      "bushesa": 4972,
      "dolls": 4973,
      "sweatshirt": 4974,
      "similar": 4975,
      "insidea": 4976,
      "saddle": 4977,
      "peeling": 4978,
      "times": 4979,
      "stocked": 4980,
      "character": 4981,
      "wandering": 4982,
      "dru": 4983,
      "pets": 4984,
      "##vily": 4985,
      "##ien": 4986,
      "##mat": 4987,
      "##alled": 4988,
      "##cher": 4989,
      "robe": 4990,
      "waterm": 4991,
      "club": 4992,
      "socks": 4993,
      "animala": 4994,
      "hilly": 4995,
      "theme": 4996,
      "##ulti": 4997,
      "coffe": 4998,
      "itemsa": 4999,
      "pillar": 5000,
      "steering": 5001,
      "crouches": 5002,
      "embra": 5003,
      "comfortable": 5004,
      "quickly": 5005,
      "rabbit": 5006,
      "mannequ": 5007,
      "bb": 5008,
      "ipod": 5009,
      "pel": 5010,
      "tug": 5011,
      "vast": 5012,
      "##ha": 5013,
      "##hor": 5014,
      "##ude": 5015,
      "##fruit": 5016,
      "smooth": 5017,
      "hera": 5018,
      "photoa": 5019,
      "span": 5020,
      "swan": 5021,
      "swans": 5022,
      "mountainsa": 5023,
      "hanger": 5024,
      "ramps": 5025,
      "matcha": 5026,
      "cards": 5027,
      "cucumbers": 5028,
      "strings": 5029,
      "measuring": 5030,
      "members": 5031,
      "plugged": 5032,
      "inflatable": 5033,
      "waterfall": 5034,
      "wallpaper": 5035,
      "bidet": 5036,
      "dozens": 5037,
      "ever": 5038,
      "kiw": 5039,
      "pou": 5040,
      "und": 5041,
      "##gy": 5042,
      "##ern": 5043,
      "##ense": 5044,
      "mantle": 5045,
      "flash": 5046,
      "nearly": 5047,
      "plated": 5048,
      "broad": 5049,
      "cord": 5050,
      "leave": 5051,
      "marsh": 5052,
      "bananaa": 5053,
      "exit": 5054,
      "heavily": 5055,
      "location": 5056,
      "##berries": 5057,
      "symb": 5058,
      "raising": 5059,
      "complet": 5060,
      "bites": 5061,
      "gazel": 5062,
      "melted": 5063,
      "anchored": 5064,
      "antelope": 5065,
      "champag": 5066,
      "situated": 5067,
      "vandalized": 5068,
      "asparag": 5069,
      "overs": 5070,
      "could": 5071,
      "##ions": 5072,
      "carved": 5073,
      "fronta": 5074,
      "sewing": 5075,
      "##tled": 5076,
      "##anging": 5077,
      "leaps": 5078,
      "##erseveral": 5079,
      "storefront": 5080,
      "trip": 5081,
      "marketa": 5082,
      "squash": 5083,
      "kneels": 5084,
      "chopping": 5085,
      "portable": 5086,
      "speaker": 5087,
      "consum": 5088,
      "cops": 5089,
      "furnishings": 5090,
      "slab": 5091,
      "rolled": 5092,
      "employ": 5093,
      "19": 5094,
      "cyclist": 5095,
      "dad": 5096,
      "esc": 5097,
      "nuzz": 5098,
      "zone": 5099,
      "state": 5100,
      "share": 5101,
      "fields": 5102,
      "airline": 5103,
      "backwards": 5104,
      "##emen": 5105,
      "altered": 5106,
      "backgroundtwo": 5107,
      "social": 5108,
      "guests": 5109,
      "unable": 5110,
      "corral": 5111,
      "suna": 5112,
      "current": 5113,
      "appet": 5114,
      "layered": 5115,
      "lands": 5116,
      "bleach": 5117,
      "liquor": 5118,
      "cooler": 5119,
      "finished": 5120,
      "interactive": 5121,
      "private": 5122,
      "demonstr": 5123,
      "sparse": 5124,
      "asparagus": 5125,
      "20": 5126,
      "dro": 5127,
      "hun": 5128,
      "pon": 5129,
      "tul": 5130,
      "tether": 5131,
      "won": 5132,
      "##ella": 5133,
      "thats": 5134,
      "smelling": 5135,
      "roomtwo": 5136,
      "lung": 5137,
      "midst": 5138,
      "##park": 5139,
      "helps": 5140,
      "smiley": 5141,
      "carrier": 5142,
      "styled": 5143,
      "discuss": 5144,
      "cycles": 5145,
      "croiss": 5146,
      "descri": 5147,
      "knitted": 5148,
      "knifea": 5149,
      "threw": 5150,
      "heels": 5151,
      "barefoot": 5152,
      "casser": 5153,
      "bbq": 5154,
      "symbol": 5155,
      "crown": 5156,
      "rise": 5157,
      "sour": 5158,
      "##hua": 5159,
      "##ection": 5160,
      "##lete": 5161,
      "##ics": 5162,
      "ital": 5163,
      "training": 5164,
      "sex": 5165,
      "kitchent": 5166,
      "cages": 5167,
      "##estri": 5168,
      "legged": 5169,
      "##olli": 5170,
      "shaded": 5171,
      "price": 5172,
      "sculptures": 5173,
      "numerals": 5174,
      "motorbikes": 5175,
      "washington": 5176,
      "mopeds": 5177,
      "grizzly": 5178,
      "amb": 5179,
      "cyclists": 5180,
      "pal": 5181,
      "rasp": 5182,
      "##du": 5183,
      "##multi": 5184,
      "##band": 5185,
      "incoming": 5186,
      "##ening": 5187,
      "stating": 5188,
      "##iring": 5189,
      "ske": 5190,
      "persona": 5191,
      "##amese": 5192,
      "tending": 5193,
      "airfield": 5194,
      "herbs": 5195,
      "coca": 5196,
      "wax": 5197,
      "grape": 5198,
      "soaked": 5199,
      "curba": 5200,
      "##sthis": 5201,
      "##giraff": 5202,
      "dashboard": 5203,
      "information": 5204,
      "route": 5205,
      "champagne": 5206,
      "dorm": 5207,
      "filling": 5208,
      "oval": 5209,
      "year": 5210,
      "##ex": 5211,
      "##eled": 5212,
      "##lera": 5213,
      "##yl": 5214,
      "##col": 5215,
      "##ury": 5216,
      "horn": 5217,
      "bend": 5218,
      "studi": 5219,
      "watcha": 5220,
      "polo": 5221,
      "shake": 5222,
      "flaming": 5223,
      "takeoff": 5224,
      "crumb": 5225,
      "pushed": 5226,
      "boun": 5227,
      "buffal": 5228,
      "tucked": 5229,
      "combination": 5230,
      "protective": 5231,
      "slowly": 5232,
      "college": 5233,
      "spagh": 5234,
      "surprised": 5235,
      "completely": 5236,
      "casserole": 5237,
      "hed": 5238,
      "mor": 5239,
      "poo": 5240,
      "##vd": 5241,
      "##vet": 5242,
      "##ester": 5243,
      "##iced": 5244,
      "rapid": 5245,
      "broc": 5246,
      "##ipping": 5247,
      "travelers": 5248,
      "mex": 5249,
      "meatball": 5250,
      "cheesecake": 5251,
      "posters": 5252,
      "strike": 5253,
      "blanketa": 5254,
      "touches": 5255,
      "medical": 5256,
      "celebration": 5257,
      "labeled": 5258,
      "beginning": 5259,
      "##gency": 5260,
      "##porary": 5261,
      "huddled": 5262,
      "studio": 5263,
      "iphone": 5264,
      "noth": 5265,
      "oly": 5266,
      "ran": 5267,
      "sig": 5268,
      "##can": 5269,
      "##iving": 5270,
      "##bath": 5271,
      "those": 5272,
      "paralle": 5273,
      "busines": 5274,
      "basil": 5275,
      "caged": 5276,
      "taped": 5277,
      "spire": 5278,
      "reve": 5279,
      "biplane": 5280,
      "soaring": 5281,
      "hydrants": 5282,
      "dresses": 5283,
      "cords": 5284,
      "colorfully": 5285,
      "perf": 5286,
      "rams": 5287,
      "##ished": 5288,
      "seata": 5289,
      "stare": 5290,
      "monitora": 5291,
      "shelfa": 5292,
      "squir": 5293,
      "##dded": 5294,
      "mixer": 5295,
      "dragon": 5296,
      "crochet": 5297,
      "creek": 5298,
      "destination": 5299,
      "maneu": 5300,
      "nothing": 5301,
      "olymp": 5302,
      "best": 5303,
      "cable": 5304,
      "ges": 5305,
      "lat": 5306,
      "nut": 5307,
      "yar": 5308,
      "##using": 5309,
      "upper": 5310,
      "waterthe": 5311,
      "conver": 5312,
      "fruita": 5313,
      "brand": 5314,
      "serious": 5315,
      "perch": 5316,
      "canoes": 5317,
      "landed": 5318,
      "accom": 5319,
      "veggie": 5320,
      "smartphone": 5321,
      "comfortably": 5322,
      "microwavea": 5323,
      "blueberries": 5324,
      "queen": 5325,
      "pirate": 5326,
      "spaghetti": 5327,
      "brow": 5328,
      "hour": 5329,
      "non": 5330,
      "rou": 5331,
      "##sk": 5332,
      "##mot": 5333,
      "##baseball": 5334,
      "instruction": 5335,
      "##ouf": 5336,
      "shre": 5337,
      "##sters": 5338,
      "rele": 5339,
      "camouf": 5340,
      "shaving": 5341,
      "leavesa": 5342,
      "patha": 5343,
      "singing": 5344,
      "shoesa": 5345,
      "accents": 5346,
      "casea": 5347,
      "angry": 5348,
      "parasail": 5349,
      "lifts": 5350,
      "presentation": 5351,
      "##girl": 5352,
      "installed": 5353,
      "waffles": 5354,
      "emergency": 5355,
      "scratching": 5356,
      "rodeo": 5357,
      "watermel": 5358,
      "miss": 5359,
      "vert": 5360,
      "##izz": 5361,
      "oncoming": 5362,
      "##ased": 5363,
      "##ett": 5364,
      "##igating": 5365,
      "##eboard": 5366,
      "streetan": 5367,
      "limit": 5368,
      "##orted": 5369,
      "##angle": 5370,
      "meals": 5371,
      "clearly": 5372,
      "crew": 5373,
      "featured": 5374,
      "cabinetry": 5375,
      "##ocked": 5376,
      "stretch": 5377,
      "draped": 5378,
      "opposing": 5379,
      "printed": 5380,
      "sauces": 5381,
      "characters": 5382,
      "briefcase": 5383,
      "saucer": 5384,
      "lonely": 5385,
      "bleachers": 5386,
      "parallel": 5387,
      "gesture": 5388,
      "fin": 5389,
      "ome": 5390,
      "occup": 5391,
      "tanger": 5392,
      "yet": 5393,
      "##oise": 5394,
      "##zeb": 5395,
      "##aling": 5396,
      "skull": 5397,
      "##emet": 5398,
      "sporting": 5399,
      "oceant": 5400,
      "camping": 5401,
      "rocka": 5402,
      "booksa": 5403,
      "machines": 5404,
      "cram": 5405,
      "twig": 5406,
      "mustache": 5407,
      "carpeted": 5408,
      "##what": 5409,
      "instruments": 5410,
      "barrels": 5411,
      "tulips": 5412,
      "buffalo": 5413,
      "cemet": 5414,
      "deb": 5415,
      "fill": 5416,
      "give": 5417,
      "##pie": 5418,
      "##mely": 5419,
      "tablean": 5420,
      "change": 5421,
      "wallet": 5422,
      "raila": 5423,
      "appar": 5424,
      "mountainside": 5425,
      "standa": 5426,
      "preparation": 5427,
      "watchinga": 5428,
      "marking": 5429,
      "cloudless": 5430,
      "mugs": 5431,
      "pana": 5432,
      "states": 5433,
      "entry": 5434,
      "##boats": 5435,
      "artific": 5436,
      "quite": 5437,
      "directional": 5438,
      "makeup": 5439,
      "nav": 5440,
      "##ebody": 5441,
      "shelving": 5442,
      "relaxes": 5443,
      "##timate": 5444,
      "penguin": 5445,
      "ultimate": 5446,
      "yarn": 5447,
      "aqu": 5448,
      "mill": 5449,
      "nes": 5450,
      "##small": 5451,
      "##ki": 5452,
      "##atea": 5453,
      "invest": 5454,
      "##eties": 5455,
      "##eling": 5456,
      "##ids": 5457,
      "##olit": 5458,
      "rod": 5459,
      "gametwo": 5460,
      "bron": 5461,
      "varieties": 5462,
      "curly": 5463,
      "smilinga": 5464,
      "##ishes": 5465,
      "greeting": 5466,
      "darkened": 5467,
      "picked": 5468,
      "friz": 5469,
      "ends": 5470,
      "frames": 5471,
      "consists": 5472,
      "musical": 5473,
      "gazing": 5474,
      "begins": 5475,
      "bundle": 5476,
      "athlete": 5477,
      "volleyball": 5478,
      "regular": 5479,
      "stems": 5480,
      "materials": 5481,
      "historic": 5482,
      "canadian": 5483,
      "barbecue": 5484,
      "siamese": 5485,
      "damaged": 5486,
      "##children": 5487,
      "tethered": 5488,
      "##multiple": 5489,
      "perfect": 5490,
      "hur": 5491,
      "honey": 5492,
      "my": 5493,
      "ni": 5494,
      "oct": 5495,
      "rand": 5496,
      "sight": 5497,
      "##vil": 5498,
      "##ney": 5499,
      "tablethere": 5500,
      "parent": 5501,
      "motorized": 5502,
      "deserts": 5503,
      "slip": 5504,
      "moon": 5505,
      "nighttime": 5506,
      "pitcha": 5507,
      "obama": 5508,
      "lapa": 5509,
      "official": 5510,
      "burning": 5511,
      "steamed": 5512,
      "bookshelves": 5513,
      "bulld": 5514,
      "fixture": 5515,
      "deta": 5516,
      "wrest": 5517,
      "season": 5518,
      "extremely": 5519,
      "summer": 5520,
      "distancea": 5521,
      "shredded": 5522,
      "artificial": 5523,
      "aim": 5524,
      "got": 5525,
      "hook": 5526,
      "icy": 5527,
      "nine": 5528,
      "telling": 5529,
      "##atory": 5530,
      "neckla": 5531,
      "nearbya": 5532,
      "south": 5533,
      "choppy": 5534,
      "taxis": 5535,
      "enjoys": 5536,
      "paddles": 5537,
      "cameras": 5538,
      "arriving": 5539,
      "exposed": 5540,
      "carnival": 5541,
      "dol": 5542,
      "fu": 5543,
      "oak": 5544,
      "sanding": 5545,
      "tick": 5546,
      "strewn": 5547,
      "trainer": 5548,
      "coin": 5549,
      "cozy": 5550,
      "lip": 5551,
      "sco": 5552,
      "flowing": 5553,
      "lux": 5554,
      "refer": 5555,
      "walka": 5556,
      "polit": 5557,
      "foresta": 5558,
      "towna": 5559,
      "wheeler": 5560,
      "##lights": 5561,
      "blend": 5562,
      "extends": 5563,
      "glides": 5564,
      "chains": 5565,
      "follows": 5566,
      "presents": 5567,
      "stirring": 5568,
      "policemen": 5569,
      "butterfly": 5570,
      "department": 5571,
      "sprouts": 5572,
      "coffeea": 5573,
      "signt": 5574,
      "bins": 5575,
      "gad": 5576,
      "kicks": 5577,
      "##ela": 5578,
      "##pia": 5579,
      "##wning": 5580,
      "##bl": 5581,
      "##chan": 5582,
      "somewhat": 5583,
      "wateran": 5584,
      "skiiers": 5585,
      "roadtwo": 5586,
      "##shop": 5587,
      "gradu": 5588,
      "trek": 5589,
      "abo": 5590,
      "camper": 5591,
      "arched": 5592,
      "skatepark": 5593,
      "curvy": 5594,
      "controllera": 5595,
      "bottlea": 5596,
      "intersectiona": 5597,
      "hund": 5598,
      "docka": 5599,
      "##rict": 5600,
      "doesn": 5601,
      "awning": 5602,
      "tires": 5603,
      "projector": 5604,
      "microwaves": 5605,
      "crashing": 5606,
      "tarp": 5607,
      "easy": 5608,
      "vacant": 5609,
      "victor": 5610,
      "italian": 5611,
      "ambul": 5612,
      "morning": 5613,
      "mexican": 5614,
      "businesses": 5615,
      "accompan": 5616,
      "watermelon": 5617,
      "pale": 5618,
      "##vation": 5619,
      "##nam": 5620,
      "##cot": 5621,
      "##zard": 5622,
      "mana": 5623,
      "##ersa": 5624,
      "peers": 5625,
      "##pled": 5626,
      "airways": 5627,
      "##dog": 5628,
      "##othered": 5629,
      "jumped": 5630,
      "metrop": 5631,
      "decorating": 5632,
      "pita": 5633,
      "somebody": 5634,
      "hello": 5635,
      "scissorsa": 5636,
      "exiting": 5637,
      "pena": 5638,
      "accident": 5639,
      "balanced": 5640,
      "olive": 5641,
      "student": 5642,
      "planea": 5643,
      "everything": 5644,
      "jockeys": 5645,
      "sided": 5646,
      "homes": 5647,
      "homea": 5648,
      "cucumber": 5649,
      "tortilla": 5650,
      "evergreen": 5651,
      "rounding": 5652,
      "omelet": 5653,
      "filed": 5654,
      "lion": 5655,
      "##pot": 5656,
      "##cre": 5657,
      "##cut": 5658,
      "##res": 5659,
      "today": 5660,
      "strong": 5661,
      "beat": 5662,
      "batters": 5663,
      "##aint": 5664,
      "##ples": 5665,
      "limes": 5666,
      "wav": 5667,
      "spices": 5668,
      "airplan": 5669,
      "animalsa": 5670,
      "mechan": 5671,
      "furniturea": 5672,
      "striking": 5673,
      "platforma": 5674,
      "submer": 5675,
      "carton": 5676,
      "earth": 5677,
      "early": 5678,
      "##berry": 5679,
      "turqu": 5680,
      "overlooks": 5681,
      "medic": 5682,
      "president": 5683,
      "utensil": 5684,
      "sniffs": 5685,
      "dotted": 5686,
      "countertops": 5687,
      "everyone": 5688,
      "historical": 5689,
      "nursing": 5690,
      "architecture": 5691,
      "competitive": 5692,
      "attention": 5693,
      "wonder": 5694,
      "debris": 5695,
      "nestled": 5696,
      "random": 5697,
      "gadget": 5698,
      "less": 5699,
      "rese": 5700,
      "rather": 5701,
      "wig": 5702,
      "web": 5703,
      "##bee": 5704,
      "##rest": 5705,
      "ann": 5706,
      "##ory": 5707,
      "buckets": 5708,
      "parents": 5709,
      "smothered": 5710,
      "##stal": 5711,
      "windy": 5712,
      "graph": 5713,
      "offa": 5714,
      "shirta": 5715,
      "horsesa": 5716,
      "themtwo": 5717,
      "racer": 5718,
      "napkins": 5719,
      "propellers": 5720,
      "vests": 5721,
      "condu": 5722,
      "belly": 5723,
      "removed": 5724,
      "warming": 5725,
      "flavored": 5726,
      "rising": 5727,
      "rotten": 5728,
      "cafeter": 5729,
      "hummingbird": 5730,
      "avocado": 5731,
      "##olitan": 5732,
      "turquoise": 5733,
      "resemb": 5734,
      "cry": 5735,
      "gated": 5736,
      "ic": 5737,
      "sells": 5738,
      "woo": 5739,
      "west": 5740,
      "yach": 5741,
      "##oy": 5742,
      "##hree": 5743,
      "##hich": 5744,
      "##gle": 5745,
      "stones": 5746,
      "##oms": 5747,
      "##lapid": 5748,
      "plaque": 5749,
      "flush": 5750,
      "backhand": 5751,
      "cong": 5752,
      "grabs": 5753,
      "underwear": 5754,
      "flore": 5755,
      "contra": 5756,
      "##ified": 5757,
      "backgroundan": 5758,
      "kiteboarding": 5759,
      "pregn": 5760,
      "##ipe": 5761,
      "doughnuta": 5762,
      "equestri": 5763,
      "##liners": 5764,
      "shady": 5765,
      "pours": 5766,
      "safari": 5767,
      "paneled": 5768,
      "escal": 5769,
      "brocolli": 5770,
      "cemetery": 5771,
      "submerged": 5772,
      "cafeteria": 5773,
      "##lapidated": 5774,
      "##dant": 5775,
      "##hus": 5776,
      "##wise": 5777,
      "##cows": 5778,
      "##lets": 5779,
      "##eda": 5780,
      "##ament": 5781,
      "flan": 5782,
      "sandwhich": 5783,
      "backgroundthe": 5784,
      "lovely": 5785,
      "know": 5786,
      "servea": 5787,
      "liner": 5788,
      "bedrooma": 5789,
      "noses": 5790,
      "particip": 5791,
      "jumpa": 5792,
      "lounges": 5793,
      "depicts": 5794,
      "slaw": 5795,
      "##guy": 5796,
      "skyscrapers": 5797,
      "cuddling": 5798,
      "raspberries": 5799,
      "referee": 5800,
      "10": 5801,
      "blaz": 5802,
      "craw": 5803,
      "wines": 5804,
      "##dit": 5805,
      "##ai": 5806,
      "##now": 5807,
      "##cis": 5808,
      "##cul": 5809,
      "##gly": 5810,
      "##brown": 5811,
      "##bread": 5812,
      "then": 5813,
      "buying": 5814,
      "shoo": 5815,
      "blows": 5816,
      "mote": 5817,
      "giraffea": 5818,
      "alert": 5819,
      "##rispy": 5820,
      "##unching": 5821,
      "trey": 5822,
      "sword": 5823,
      "metera": 5824,
      "ridden": 5825,
      "bricked": 5826,
      "meet": 5827,
      "orch": 5828,
      "stars": 5829,
      "burnt": 5830,
      "clad": 5831,
      "##efully": 5832,
      "gentlemen": 5833,
      "facility": 5834,
      "mesh": 5835,
      "expression": 5836,
      "kiwi": 5837,
      "gazelle": 5838,
      "sexy": 5839,
      "##estern": 5840,
      "pregnant": 5841,
      "dance": 5842,
      "found": 5843,
      "late": 5844,
      "lanes": 5845,
      "mad": 5846,
      "tide": 5847,
      "##dated": 5848,
      "##looking": 5849,
      "##reds": 5850,
      "##rofo": 5851,
      "stalk": 5852,
      "##ister": 5853,
      "buy": 5854,
      "skills": 5855,
      "trailing": 5856,
      "rip": 5857,
      "##rus": 5858,
      "##station": 5859,
      "your": 5860,
      "##airy": 5861,
      "scre": 5862,
      "skyan": 5863,
      "mirrored": 5864,
      "bicyclea": 5865,
      "bagels": 5866,
      "resid": 5867,
      "scissor": 5868,
      "shopa": 5869,
      "district": 5870,
      "milking": 5871,
      "wrapping": 5872,
      "fridgea": 5873,
      "kittens": 5874,
      "crafts": 5875,
      "compete": 5876,
      "cruis": 5877,
      "speeds": 5878,
      "drain": 5879,
      "pupp": 5880,
      "dais": 5881,
      "label": 5882,
      "indicates": 5883,
      "radi": 5884,
      "digging": 5885,
      "splashing": 5886,
      "garnished": 5887,
      "rises": 5888,
      "snuggling": 5889,
      "bumper": 5890,
      "embracing": 5891,
      "appetiz": 5892,
      "ambulance": 5893,
      "metropolitan": 5894,
      "est": 5895,
      "faded": 5896,
      "ga": 5897,
      "kiss": 5898,
      "leng": 5899,
      "milling": 5900,
      "pac": 5901,
      "wel": 5902,
      "##od": 5903,
      "##wor": 5904,
      "##cock": 5905,
      "##glasses": 5906,
      "##uses": 5907,
      "ofa": 5908,
      "##alog": 5909,
      "sta": 5910,
      "womana": 5911,
      "chalk": 5912,
      "##ades": 5913,
      "picks": 5914,
      "carving": 5915,
      "busted": 5916,
      "basea": 5917,
      "seed": 5918,
      "fences": 5919,
      "passed": 5920,
      "knick": 5921,
      "paperwork": 5922,
      "boot": 5923,
      "toppingsa": 5924,
      "lapse": 5925,
      "wireless": 5926,
      "lampa": 5927,
      "eyed": 5928,
      "swims": 5929,
      "retro": 5930,
      "retail": 5931,
      "##ensive": 5932,
      "cloudsa": 5933,
      "pushes": 5934,
      "support": 5935,
      "wetsuits": 5936,
      "jew": 5937,
      "magazines": 5938,
      "waffle": 5939,
      "canada": 5940,
      "wok": 5941,
      "techn": 5942,
      "camouflage": 5943,
      "cin": 5944,
      "dairy": 5945,
      "hid": 5946,
      "lens": 5947,
      "pers": 5948,
      "unt": 5949,
      "vending": 5950,
      "##oid": 5951,
      "##tage": 5952,
      "##ele": 5953,
      "##pa": 5954,
      "##zing": 5955,
      "##rots": 5956,
      "##urity": 5957,
      "sepia": 5958,
      "firepla": 5959,
      "dilapidated": 5960,
      "anothera": 5961,
      "guiding": 5962,
      "knocked": 5963,
      "patron": 5964,
      "except": 5965,
      "commun": 5966,
      "styl": 5967,
      "##ready": 5968,
      "machin": 5969,
      "##bbles": 5970,
      "cracked": 5971,
      "autumn": 5972,
      "lifted": 5973,
      "shelter": 5974,
      "skyscraper": 5975,
      "ropes": 5976,
      "torn": 5977,
      "medicine": 5978,
      "##rofoam": 5979,
      "length": 5980,
      "gener": 5981,
      "mc": 5982,
      "mama": 5983,
      "tip": 5984,
      "##uting": 5985,
      "inv": 5986,
      "##ilight": 5987,
      "##ilies": 5988,
      "areatwo": 5989,
      "##vered": 5990,
      "tabletop": 5991,
      "cherries": 5992,
      "buss": 5993,
      "already": 5994,
      "intric": 5995,
      "##rought": 5996,
      "traffica": 5997,
      "##arian": 5998,
      "crowds": 5999,
      "sunflowers": 6000,
      "remains": 6001,
      "pati": 6002,
      "platesa": 6003,
      "typ": 6004,
      "shorea": 6005,
      "styrofoam": 6006,
      "pasturea": 6007,
      "function": 6008,
      "washroom": 6009,
      "condition": 6010,
      "blocked": 6011,
      "raises": 6012,
      "transporting": 6013,
      "cheesea": 6014,
      "auto": 6015,
      "processor": 6016,
      "security": 6017,
      "instrument": 6018,
      "pumpkin": 6019,
      "examining": 6020,
      "attending": 6021,
      "fencetwo": 6022,
      "amidst": 6023,
      "inspecting": 6024,
      "athletic": 6025,
      "lettering": 6026,
      "admiring": 6027,
      "visitors": 6028,
      "pretending": 6029,
      "grapefruit": 6030,
      "bronze": 6031,
      "hundreds": 6032,
      "crystal": 6033,
      "escalator": 6034,
      "ginger": 6035,
      "##kn": 6036,
      "##come": 6037,
      "##irds": 6038,
      "##idger": 6039,
      "##erst": 6040,
      "shell": 6041,
      "plow": 6042,
      "chat": 6043,
      "docks": 6044,
      "beers": 6045,
      "grouping": 6046,
      "dogsa": 6047,
      "fieldan": 6048,
      "fieldthere": 6049,
      "fieldthree": 6050,
      "rooms": 6051,
      "backed": 6052,
      "livest": 6053,
      "cact": 6054,
      "##ements": 6055,
      "roadthe": 6056,
      "teal": 6057,
      "daylight": 6058,
      "moss": 6059,
      "##ketwo": 6060,
      "boxing": 6061,
      "sunsh": 6062,
      "paste": 6063,
      "caboose": 6064,
      "barely": 6065,
      "bottled": 6066,
      "deckered": 6067,
      "purch": 6068,
      "mouths": 6069,
      "exotic": 6070,
      "triple": 6071,
      "partial": 6072,
      "seafood": 6073,
      "twilight": 6074,
      "spring": 6075,
      "bells": 6076,
      "archway": 6077,
      "oddly": 6078,
      "squares": 6079,
      "squirrel": 6080,
      "olympic": 6081,
      "##zebras": 6082,
      "octop": 6083,
      "patrons": 6084,
      "livestock": 6085,
      "lite": 6086,
      "var": 6087,
      "##ddle": 6088,
      "##pic": 6089,
      "##rola": 6090,
      "tof": 6091,
      "stored": 6092,
      "chip": 6093,
      "##anted": 6094,
      "roomthe": 6095,
      "##mbled": 6096,
      "otherwise": 6097,
      "grain": 6098,
      "eatinga": 6099,
      "##unches": 6100,
      "handed": 6101,
      "spir": 6102,
      "diag": 6103,
      "##apers": 6104,
      "decorate": 6105,
      "walked": 6106,
      "marker": 6107,
      "barb": 6108,
      "patrol": 6109,
      "linens": 6110,
      "posta": 6111,
      "hovering": 6112,
      "enthus": 6113,
      "duff": 6114,
      "phonesa": 6115,
      "formally": 6116,
      "gamesa": 6117,
      "claw": 6118,
      "holders": 6119,
      "napping": 6120,
      "mascot": 6121,
      "captured": 6122,
      "returns": 6123,
      "job": 6124,
      "everywhere": 6125,
      "arrows": 6126,
      "vendors": 6127,
      "bundled": 6128,
      "goose": 6129,
      "roasted": 6130,
      "reclining": 6131,
      "tilted": 6132,
      "tangerines": 6133,
      "equestrian": 6134,
      "ais": 6135,
      "cd": 6136,
      "cane": 6137,
      "gown": 6138,
      "jug": 6139,
      "rv": 6140,
      "rig": 6141,
      "sound": 6142,
      "##lings": 6143,
      "##walks": 6144,
      "##cess": 6145,
      "##min": 6146,
      "##reme": 6147,
      "##ould": 6148,
      "neut": 6149,
      "##ebe": 6150,
      "chi": 6151,
      "frog": 6152,
      "snap": 6153,
      "grassthe": 6154,
      "##ycling": 6155,
      "overg": 6156,
      "cak": 6157,
      "littered": 6158,
      "contest": 6159,
      "platters": 6160,
      "crowda": 6161,
      "##pective": 6162,
      "##urned": 6163,
      "barric": 6164,
      "televisions": 6165,
      "hairy": 6166,
      "meala": 6167,
      "starbu": 6168,
      "hovers": 6169,
      "noodle": 6170,
      "calcul": 6171,
      "sectional": 6172,
      "stoplights": 6173,
      "cerem": 6174,
      "owners": 6175,
      "timea": 6176,
      "ornament": 6177,
      "divided": 6178,
      "grinds": 6179,
      "citrus": 6180,
      "adjusts": 6181,
      "smoothie": 6182,
      "necklace": 6183,
      "accompanied": 6184,
      "##namon": 6185,
      "radiator": 6186,
      "cinnamon": 6187,
      "typical": 6188,
      "neutral": 6189,
      "dome": 6190,
      "find": 6191,
      "fist": 6192,
      "gone": 6193,
      "gates": 6194,
      "jack": 6195,
      "vent": 6196,
      "##gate": 6197,
      "thread": 6198,
      "##atic": 6199,
      "##enting": 6200,
      "##rous": 6201,
      "streetthere": 6202,
      "flips": 6203,
      "basic": 6204,
      "kits": 6205,
      "sear": 6206,
      "seeds": 6207,
      "foodtwo": 6208,
      "alp": 6209,
      "spark": 6210,
      "clip": 6211,
      "wiping": 6212,
      "knacks": 6213,
      "panor": 6214,
      "shepher": 6215,
      "tier": 6216,
      "##ixed": 6217,
      "packages": 6218,
      "appearing": 6219,
      "burrit": 6220,
      "##plate": 6221,
      "taxiing": 6222,
      "##strip": 6223,
      "goalie": 6224,
      "rugs": 6225,
      "hawk": 6226,
      "contemporary": 6227,
      "ascending": 6228,
      "##piece": 6229,
      "bulldog": 6230,
      "puppies": 6231,
      "cant": 6232,
      "dalm": 6233,
      "would": 6234,
      "##dled": 6235,
      "##aila": 6236,
      "##cycle": 6237,
      "##cient": 6238,
      "analog": 6239,
      "##raut": 6240,
      "##ote": 6241,
      "whis": 6242,
      "laund": 6243,
      "beca": 6244,
      "##adult": 6245,
      "grassan": 6246,
      "bedtwo": 6247,
      "sund": 6248,
      "beached": 6249,
      "sandals": 6250,
      "treetwo": 6251,
      "litter": 6252,
      "biking": 6253,
      "##ormous": 6254,
      "enormous": 6255,
      "height": 6256,
      "amuse": 6257,
      "breada": 6258,
      "incline": 6259,
      "seem": 6260,
      "stairway": 6261,
      "trashcan": 6262,
      "extending": 6263,
      "advertisements": 6264,
      "partya": 6265,
      "washed": 6266,
      "reflects": 6267,
      "peacock": 6268,
      "calves": 6269,
      "recre": 6270,
      "examines": 6271,
      "record": 6272,
      "robot": 6273,
      "pilot": 6274,
      "belongings": 6275,
      "mannequin": 6276,
      "describe": 6277,
      "ranch": 6278,
      "##motor": 6279,
      "hidden": 6280,
      "##idgerator": 6281,
      "aisle": 6282,
      "starbucks": 6283,
      "ceremony": 6284,
      "because": 6285,
      "dang": 6286,
      "dvd": 6287,
      "gn": 6288,
      "pc": 6289,
      "ses": 6290,
      "tired": 6291,
      "ya": 6292,
      "##turned": 6293,
      "##his": 6294,
      "##itude": 6295,
      "##lent": 6296,
      "ina": 6297,
      "##rail": 6298,
      "##olog": 6299,
      "waling": 6300,
      "waterfront": 6301,
      "##entwo": 6302,
      "surfboarding": 6303,
      "cole": 6304,
      "##ctors": 6305,
      "live": 6306,
      "benchtwo": 6307,
      "taco": 6308,
      "spars": 6309,
      "cowa": 6310,
      "courttwo": 6311,
      "platetwo": 6312,
      "markers": 6313,
      "monster": 6314,
      "planta": 6315,
      "hazy": 6316,
      "scenery": 6317,
      "candies": 6318,
      "lamppost": 6319,
      "tanker": 6320,
      "packaged": 6321,
      "cabineta": 6322,
      "businessman": 6323,
      "hamm": 6324,
      "hammer": 6325,
      "shadows": 6326,
      "ledgea": 6327,
      "##uffed": 6328,
      "handleb": 6329,
      "##little": 6330,
      "radishes": 6331,
      "availa": 6332,
      "conversing": 6333,
      "product": 6334,
      "presented": 6335,
      "named": 6336,
      "creepy": 6337,
      "galloping": 6338,
      "troph": 6339,
      "hedge": 6340,
      "cramped": 6341,
      "tofu": 6342,
      "enthusi": 6343,
      "amusement": 6344,
      "danger": 6345,
      "eff": 6346,
      "fran": 6347,
      "fine": 6348,
      "might": 6349,
      "wrist": 6350,
      "zo": 6351,
      "##dress": 6352,
      "##port": 6353,
      "##cou": 6354,
      "##ared": 6355,
      "##arella": 6356,
      "ancient": 6357,
      "stay": 6358,
      "stere": 6359,
      "##omb": 6360,
      "##icea": 6361,
      "roy": 6362,
      "parl": 6363,
      "airstrip": 6364,
      "licks": 6365,
      "windm": 6366,
      "lugg": 6367,
      "##icking": 6368,
      "linen": 6369,
      "##graph": 6370,
      "exer": 6371,
      "shaved": 6372,
      "friesa": 6373,
      "##dible": 6374,
      "vanilla": 6375,
      "appliancesa": 6376,
      "foal": 6377,
      "accent": 6378,
      "reflective": 6379,
      "##coat": 6380,
      "hooded": 6381,
      "climbs": 6382,
      "numeral": 6383,
      "removing": 6384,
      "spinning": 6385,
      "readies": 6386,
      "pumpkins": 6387,
      "recording": 6388,
      "recliner": 6389,
      "##closeup": 6390,
      "heater": 6391,
      "pencils": 6392,
      "scrub": 6393,
      "futon": 6394,
      "##horses": 6395,
      "bouncing": 6396,
      "conductor": 6397,
      "octopus": 6398,
      "shepherd": 6399,
      "sesame": 6400,
      "sparsely": 6401,
      "available": 6402,
      "hooks": 6403,
      "mur": 6404,
      "master": 6405,
      "native": 6406,
      "trot": 6407,
      "vi": 6408,
      "vane": 6409,
      "waste": 6410,
      "western": 6411,
      "##bus": 6412,
      "##bably": 6413,
      "inj": 6414,
      "tourn": 6415,
      "toned": 6416,
      "##oween": 6417,
      "##ckey": 6418,
      "##isher": 6419,
      "##ided": 6420,
      "##ica": 6421,
      "atv": 6422,
      "bunt": 6423,
      "chan": 6424,
      "downward": 6425,
      "buildingan": 6426,
      "##zzarella": 6427,
      "handled": 6428,
      "raquet": 6429,
      "##ago": 6430,
      "standard": 6431,
      "mozzarella": 6432,
      "marching": 6433,
      "applesa": 6434,
      "linea": 6435,
      "drinksa": 6436,
      "raining": 6437,
      "pillars": 6438,
      "basketa": 6439,
      "workstation": 6440,
      "donuta": 6441,
      "subst": 6442,
      "wired": 6443,
      "eatena": 6444,
      "concert": 6445,
      "burner": 6446,
      "burners": 6447,
      "eventa": 6448,
      "##ucch": 6449,
      "salea": 6450,
      "peeks": 6451,
      "peach": 6452,
      "dragging": 6453,
      "halloween": 6454,
      "practices": 6455,
      "charging": 6456,
      "captivity": 6457,
      "trolly": 6458,
      "##athers": 6459,
      "dots": 6460,
      "fedora": 6461,
      "stormy": 6462,
      "barriers": 6463,
      "destro": 6464,
      "architect": 6465,
      "sleigh": 6466,
      "biscuit": 6467,
      "renovated": 6468,
      "dropping": 6469,
      "##ettes": 6470,
      "tournament": 6471,
      "gor": 6472,
      "gull": 6473,
      "gang": 6474,
      "vans": 6475,
      "yummy": 6476,
      "zucch": 6477,
      "##hold": 6478,
      "##pit": 6479,
      "##uea": 6480,
      "##fting": 6481,
      "##50": 6482,
      "##opes": 6483,
      "traila": 6484,
      "plac": 6485,
      "plung": 6486,
      "personnel": 6487,
      "snowtwo": 6488,
      "snowsuit": 6489,
      "##eech": 6490,
      "##inder": 6491,
      "sidecar": 6492,
      "sidewalks": 6493,
      "surfa": 6494,
      "buildingtwo": 6495,
      "poor": 6496,
      "windowthe": 6497,
      "##ested": 6498,
      "colum": 6499,
      "courts": 6500,
      "flowery": 6501,
      "##ques": 6502,
      "bib": 6503,
      "chews": 6504,
      "loft": 6505,
      "refridgerator": 6506,
      "##tennis": 6507,
      "barber": 6508,
      "bottlesa": 6509,
      "patri": 6510,
      "breads": 6511,
      "salon": 6512,
      "huddle": 6513,
      "pillowa": 6514,
      "donutsa": 6515,
      "casual": 6516,
      "drapes": 6517,
      "grooming": 6518,
      "delivering": 6519,
      "complex": 6520,
      "grove": 6521,
      "remod": 6522,
      "focused": 6523,
      "bandana": 6524,
      "finishing": 6525,
      "moment": 6526,
      "spaces": 6527,
      "beanie": 6528,
      "solar": 6529,
      "handicapped": 6530,
      "biscuits": 6531,
      "hunched": 6532,
      "ponies": 6533,
      "flamingos": 6534,
      "machinery": 6535,
      "overgrown": 6536,
      "laundry": 6537,
      "stereo": 6538,
      "dum": 6539,
      "gift": 6540,
      "mp": 6541,
      "mice": 6542,
      "rush": 6543,
      "ven": 6544,
      "##verse": 6545,
      "##gin": 6546,
      "##back": 6547,
      "##fight": 6548,
      "##itwo": 6549,
      "##anse": 6550,
      "think": 6551,
      "##omy": 6552,
      "##eta": 6553,
      "##ram": 6554,
      "##roud": 6555,
      "bug": 6556,
      "pear": 6557,
      "shine": 6558,
      "plum": 6559,
      "parrots": 6560,
      "##antic": 6561,
      "upwards": 6562,
      "baseman": 6563,
      "##eeping": 6564,
      "cocon": 6565,
      "wooda": 6566,
      "clockt": 6567,
      "congre": 6568,
      "waist": 6569,
      "underground": 6570,
      "speech": 6571,
      "reins": 6572,
      "fencing": 6573,
      "views": 6574,
      "vegetarian": 6575,
      "guide": 6576,
      "mosa": 6577,
      "middlea": 6578,
      "came": 6579,
      "probably": 6580,
      "ord": 6581,
      "plantains": 6582,
      "##gram": 6583,
      "salt": 6584,
      "salmon": 6585,
      "hug": 6586,
      "engaging": 6587,
      "busha": 6588,
      "wildebe": 6589,
      "garb": 6590,
      "stylish": 6591,
      "necka": 6592,
      "racka": 6593,
      "##structed": 6594,
      "turtle": 6595,
      "peak": 6596,
      "peaches": 6597,
      "film": 6598,
      "populated": 6599,
      "descending": 6600,
      "languages": 6601,
      "reception": 6602,
      "compartments": 6603,
      "import": 6604,
      "pressing": 6605,
      "oxen": 6606,
      "pencil": 6607,
      "unders": 6608,
      "currently": 6609,
      "instructions": 6610,
      "##izza": 6611,
      "slippers": 6612,
      "abovea": 6613,
      "crawling": 6614,
      "alpine": 6615,
      "zucchini": 6616,
      "idle": 6617,
      "krispy": 6618,
      "nature": 6619,
      "rat": 6620,
      "vess": 6621,
      "##ties": 6622,
      "##hap": 6623,
      "##nch": 6624,
      "##cases": 6625,
      "##bic": 6626,
      "##erior": 6627,
      "tot": 6628,
      "##alls": 6629,
      "lav": 6630,
      "##seat": 6631,
      "carefully": 6632,
      "gras": 6633,
      "buildingthe": 6634,
      "##pthe": 6635,
      "balltwo": 6636,
      "##aneous": 6637,
      "cityscape": 6638,
      "interst": 6639,
      "grave": 6640,
      "##estic": 6641,
      "clut": 6642,
      "goble": 6643,
      "stuffing": 6644,
      "sunlit": 6645,
      "kno": 6646,
      "household": 6647,
      "amaz": 6648,
      "haira": 6649,
      "haircut": 6650,
      "pillowsa": 6651,
      "hoop": 6652,
      "concent": 6653,
      "frisbeetwo": 6654,
      "wedge": 6655,
      "bloss": 6656,
      "crab": 6657,
      "warns": 6658,
      "stoves": 6659,
      "expanse": 6660,
      "hamburgers": 6661,
      "dense": 6662,
      "activ": 6663,
      "goof": 6664,
      "athletes": 6665,
      "##market": 6666,
      "affixed": 6667,
      "memorial": 6668,
      "poured": 6669,
      "trekking": 6670,
      "florets": 6671,
      "residence": 6672,
      "daisies": 6673,
      "mcd": 6674,
      "patiently": 6675,
      "##picture": 6676,
      "royal": 6677,
      "mp3": 6678,
      "mosaic": 6679,
      "berry": 6680,
      "husk": 6681,
      "las": 6682,
      "nast": 6683,
      "sell": 6684,
      "ugly": 6685,
      "vir": 6686,
      "vine": 6687,
      "##son": 6688,
      "##hift": 6689,
      "##ake": 6690,
      "##erk": 6691,
      "##eries": 6692,
      "theater": 6693,
      "##esa": 6694,
      "##orful": 6695,
      "buried": 6696,
      "##igns": 6697,
      "foraging": 6698,
      "caps": 6699,
      "##these": 6700,
      "boardsa": 6701,
      "slanted": 6702,
      "veg": 6703,
      "banquet": 6704,
      "showroom": 6705,
      "broccol": 6706,
      "herded": 6707,
      "##used": 6708,
      "meata": 6709,
      "plantsa": 6710,
      "amtra": 6711,
      "strips": 6712,
      "flowering": 6713,
      "marketplace": 6714,
      "trails": 6715,
      "carried": 6716,
      "tricksa": 6717,
      "stairsa": 6718,
      "teamm": 6719,
      "eara": 6720,
      "terri": 6721,
      "struct": 6722,
      "glow": 6723,
      "positions": 6724,
      "makeshift": 6725,
      "tossed": 6726,
      "weathered": 6727,
      "filthy": 6728,
      "levels": 6729,
      "awaits": 6730,
      "needle": 6731,
      "whitea": 6732,
      "fleet": 6733,
      "consumption": 6734,
      "##giraffes": 6735,
      "vertical": 6736,
      "political": 6737,
      "airplanea": 6738,
      "cactus": 6739,
      "calculator": 6740,
      "important": 6741,
      "concentr": 6742,
      "mcdonal": 6743,
      "nasty": 6744,
      "11": 6745,
      "aer": 6746,
      "barge": 6747,
      "nor": 6748,
      "ver": 6749,
      "##well": 6750,
      "##unt": 6751,
      "##birds": 6752,
      "##itting": 6753,
      "##omen": 6754,
      "##eline": 6755,
      "tablesa": 6756,
      "chee": 6757,
      "snowing": 6758,
      "##ston": 6759,
      "waterthere": 6760,
      "pokes": 6761,
      "elev": 6762,
      "tails": 6763,
      "treesan": 6764,
      "##iche": 6765,
      "##agie": 6766,
      "swinga": 6767,
      "racketsa": 6768,
      "camel": 6769,
      "proper": 6770,
      "skiinga": 6771,
      "ways": 6772,
      "hoagie": 6773,
      "settings": 6774,
      "toothbrusha": 6775,
      "packing": 6776,
      "spoona": 6777,
      "quart": 6778,
      "spewing": 6779,
      "##bbling": 6780,
      "outdoorsa": 6781,
      "twent": 6782,
      "peaking": 6783,
      "median": 6784,
      "charger": 6785,
      "##flower": 6786,
      "croo": 6787,
      "depicted": 6788,
      "cushions": 6789,
      "saucea": 6790,
      "trimmed": 6791,
      "peacefully": 6792,
      "bridle": 6793,
      "supermarket": 6794,
      "rhin": 6795,
      "blooming": 6796,
      "pelican": 6797,
      "broadway": 6798,
      "croissant": 6799,
      "crocheted": 6800,
      "markings": 6801,
      "ticket": 6802,
      "jewel": 6803,
      "##elephant": 6804,
      "fireplacea": 6805,
      "stylized": 6806,
      "patriotic": 6807,
      "amtrak": 6808,
      "fell": 6809,
      "goth": 6810,
      "kreme": 6811,
      "lant": 6812,
      "proud": 6813,
      "tusk": 6814,
      "wil": 6815,
      "wrong": 6816,
      "##pizza": 6817,
      "##long": 6818,
      "##yellow": 6819,
      "##war": 6820,
      "##wich": 6821,
      "##water": 6822,
      "##ience": 6823,
      "##inary": 6824,
      "##inging": 6825,
      "##anas": 6826,
      "##ala": 6827,
      "tone": 6828,
      "##ablish": 6829,
      "bud": 6830,
      "bubble": 6831,
      "shack": 6832,
      "shells": 6833,
      "itthis": 6834,
      "placea": 6835,
      "hash": 6836,
      "coaster": 6837,
      "diaper": 6838,
      "treesthe": 6839,
      "##ifts": 6840,
      "goers": 6841,
      "headlights": 6842,
      "added": 6843,
      "enough": 6844,
      "proce": 6845,
      "highchair": 6846,
      "applea": 6847,
      "housing": 6848,
      "##athere": 6849,
      "cloths": 6850,
      "clothed": 6851,
      "england": 6852,
      "obsc": 6853,
      "hockey": 6854,
      "beautifully": 6855,
      "squats": 6856,
      "doughnutsa": 6857,
      "wheelie": 6858,
      "passengersa": 6859,
      "spec": 6860,
      "rooft": 6861,
      "access": 6862,
      "grilling": 6863,
      "deliver": 6864,
      "captive": 6865,
      "cheeses": 6866,
      "sections": 6867,
      "shrub": 6868,
      "combing": 6869,
      "instead": 6870,
      "stockings": 6871,
      "ornaments": 6872,
      "ornamental": 6873,
      "snuggled": 6874,
      "ferris": 6875,
      "rhino": 6876,
      "retriever": 6877,
      "##eboarder": 6878,
      "##blue": 6879,
      "yacht": 6880,
      "congrat": 6881,
      "establish": 6882,
      "sunshine": 6883,
      "destroyed": 6884,
      "clocktower": 6885,
      "12": 6886,
      "ast": 6887,
      "aboard": 6888,
      "cris": 6889,
      "cables": 6890,
      "rally": 6891,
      "##over": 6892,
      "##aget": 6893,
      "onea": 6894,
      "##icans": 6895,
      "cho": 6896,
      "chic": 6897,
      "chill": 6898,
      "streetpeople": 6899,
      "motorboat": 6900,
      "overturned": 6901,
      "eata": 6902,
      "boardthe": 6903,
      "##lders": 6904,
      "lightly": 6905,
      "firefight": 6906,
      "behinda": 6907,
      "##play": 6908,
      "drizz": 6909,
      "teens": 6910,
      "safe": 6911,
      "headband": 6912,
      "cann": 6913,
      "sleepy": 6914,
      "##aker": 6915,
      "brusha": 6916,
      "halfway": 6917,
      "zootwo": 6918,
      "wilda": 6919,
      "central": 6920,
      "laden": 6921,
      "exterior": 6922,
      "intern": 6923,
      "glider": 6924,
      "speaks": 6925,
      "##tail": 6926,
      "studying": 6927,
      "replic": 6928,
      "minim": 6929,
      "flavors": 6930,
      "extreme": 6931,
      "horizont": 6932,
      "employees": 6933,
      "nuzzling": 6934,
      "landsca": 6935,
      "poola": 6936,
      "gadgets": 6937,
      "wooly": 6938,
      "intricate": 6939,
      "architectural": 6940,
      "interstate": 6941,
      "husky": 6942,
      "aust": 6943,
      "era": 6944,
      "rink": 6945,
      "##pair": 6946,
      "##women": 6947,
      "##lect": 6948,
      "tol": 6949,
      "staff": 6950,
      "##omas": 6951,
      "##ckled": 6952,
      "##isted": 6953,
      "peps": 6954,
      "##ebur": 6955,
      "changing": 6956,
      "law": 6957,
      "beera": 6958,
      "snowman": 6959,
      "parks": 6960,
      "signing": 6961,
      "##stick": 6962,
      "coated": 6963,
      "beachthe": 6964,
      "asia": 6965,
      "browns": 6966,
      "wallthe": 6967,
      "swift": 6968,
      "fireman": 6969,
      "contin": 6970,
      "contact": 6971,
      "##dock": 6972,
      "wiitwo": 6973,
      "taller": 6974,
      "brass": 6975,
      "##arium": 6976,
      "##pect": 6977,
      "server": 6978,
      "mark": 6979,
      "barna": 6980,
      "attack": 6981,
      "canv": 6982,
      "salsa": 6983,
      "teapot": 6984,
      "worked": 6985,
      "layed": 6986,
      "seeing": 6987,
      "claus": 6988,
      "misc": 6989,
      "mounda": 6990,
      "mitts": 6991,
      "##athree": 6992,
      "musc": 6993,
      "plank": 6994,
      "cranes": 6995,
      "maintain": 6996,
      "groceries": 6997,
      "fedex": 6998,
      "unused": 6999,
      "instructor": 7000,
      "recei": 7001,
      "took": 7002,
      "wander": 7003,
      "macbook": 7004,
      "blueberry": 7005,
      "woven": 7006,
      "blades": 7007,
      "lunging": 7008,
      "contraption": 7009,
      "shooting": 7010,
      "burrito": 7011,
      "substance": 7012,
      "underside": 7013,
      "activities": 7014,
      "structures": 7015,
      "pepsi": 7016,
      "diced": 7017,
      "hides": 7018,
      "nook": 7019,
      "oat": 7020,
      "ping": 7021,
      "pood": 7022,
      "root": 7023,
      "wrought": 7024,
      "##occup": 7025,
      "##ham": 7026,
      "##lots": 7027,
      "##mers": 7028,
      "thomas": 7029,
      "##atian": 7030,
      "inn": 7031,
      "##rocc": 7032,
      "stages": 7033,
      "wheat": 7034,
      "##amel": 7035,
      "waterseveral": 7036,
      "parktwo": 7037,
      "ford": 7038,
      "lips": 7039,
      "wak": 7040,
      "boarded": 7041,
      "laptopsa": 7042,
      "##sheep": 7043,
      "swiss": 7044,
      "diffic": 7045,
      "itsome": 7046,
      "skythe": 7047,
      "viewer": 7048,
      "preform": 7049,
      "animated": 7050,
      "loves": 7051,
      "##tenance": 7052,
      "leap": 7053,
      "marks": 7054,
      "controlled": 7055,
      "forehead": 7056,
      "##acy": 7057,
      "docking": 7058,
      "bushel": 7059,
      "helmeted": 7060,
      "pauses": 7061,
      "styles": 7062,
      "vehiclea": 7063,
      "seaa": 7064,
      "##born": 7065,
      "tarmaca": 7066,
      "gloomy": 7067,
      "polesa": 7068,
      "##meal": 7069,
      "quaint": 7070,
      "##scap": 7071,
      "leashes": 7072,
      "colorsa": 7073,
      "garagea": 7074,
      "groomed": 7075,
      "eyeglasses": 7076,
      "hearts": 7077,
      "tosses": 7078,
      "expired": 7079,
      "receive": 7080,
      "##guard": 7081,
      "tattoos": 7082,
      "curiously": 7083,
      "umbrellatwo": 7084,
      "affection": 7085,
      "pantry": 7086,
      "assembly": 7087,
      "drum": 7088,
      "##huahua": 7089,
      "welcome": 7090,
      "chihuahua": 7091,
      "dalmatian": 7092,
      "recreational": 7093,
      "murky": 7094,
      "channel": 7095,
      "congratul": 7096,
      "##occupied": 7097,
      "difficult": 7098,
      "18": 7099,
      "certain": 7100,
      "rd": 7101,
      "rum": 7102,
      "tit": 7103,
      "tell": 7104,
      "yield": 7105,
      "##osa": 7106,
      "##orous": 7107,
      "##tea": 7108,
      "##kia": 7109,
      "##ians": 7110,
      "##fth": 7111,
      "##ites": 7112,
      "##erly": 7113,
      "##reading": 7114,
      "stalks": 7115,
      "##asa": 7116,
      "##elve": 7117,
      "buds": 7118,
      "tableseveral": 7119,
      "parad": 7120,
      "grilla": 7121,
      "foodthe": 7122,
      "herds": 7123,
      "backseat": 7124,
      "toilette": 7125,
      "conne": 7126,
      "wavy": 7127,
      "frisby": 7128,
      "##asts": 7129,
      "spreading": 7130,
      "column": 7131,
      "##ggling": 7132,
      "suita": 7133,
      "controla": 7134,
      "able": 7135,
      "##iforn": 7136,
      "backgroundthere": 7137,
      "viewa": 7138,
      "kiteboard": 7139,
      "##anges": 7140,
      "unoccupied": 7141,
      "proj": 7142,
      "races": 7143,
      "bagsa": 7144,
      "seta": 7145,
      "sleeve": 7146,
      "rowboat": 7147,
      "toya": 7148,
      "greet": 7149,
      "novel": 7150,
      "##ize": 7151,
      "orangesa": 7152,
      "beauty": 7153,
      "trailers": 7154,
      "carta": 7155,
      "famous": 7156,
      "packs": 7157,
      "glovea": 7158,
      "burg": 7159,
      "##ension": 7160,
      "modified": 7161,
      "floorsa": 7162,
      "strap": 7163,
      "casting": 7164,
      "sorts": 7165,
      "californ": 7166,
      "streamers": 7167,
      "sheetsa": 7168,
      "observe": 7169,
      "customer": 7170,
      "maintenance": 7171,
      "sauerk": 7172,
      "paneling": 7173,
      "##colorful": 7174,
      "meatballs": 7175,
      "aquarium": 7176,
      "appetizers": 7177,
      "hammock": 7178,
      "columns": 7179,
      "virgin": 7180,
      "elevator": 7181,
      "gothic": 7182,
      "replica": 7183,
      "california": 7184,
      "bone": 7185,
      "gatea": 7186,
      "gathers": 7187,
      "national": 7188,
      "pra": 7189,
      "packet": 7190,
      "rund": 7191,
      "sigh": 7192,
      "##tel": 7193,
      "##nut": 7194,
      "##ga": 7195,
      "##glass": 7196,
      "##bea": 7197,
      "##inating": 7198,
      "##opard": 7199,
      "boiled": 7200,
      "caramel": 7201,
      "bust": 7202,
      "towela": 7203,
      "##rise": 7204,
      "motorcyclesa": 7205,
      "##umps": 7206,
      "throughout": 7207,
      "cowsa": 7208,
      "cly": 7209,
      "platethe": 7210,
      "prey": 7211,
      "leopard": 7212,
      "standup": 7213,
      "checked": 7214,
      "broth": 7215,
      "unb": 7216,
      "lock": 7217,
      "knot": 7218,
      "bara": 7219,
      "rescue": 7220,
      "nokia": 7221,
      "triangle": 7222,
      "salads": 7223,
      "paying": 7224,
      "entire": 7225,
      "newborn": 7226,
      "landa": 7227,
      "pretz": 7228,
      "paddock": 7229,
      "feature": 7230,
      "curtaina": 7231,
      "arts": 7232,
      "officea": 7233,
      "burgers": 7234,
      "crazy": 7235,
      "doorsa": 7236,
      "cagea": 7237,
      "models": 7238,
      "misses": 7239,
      "boulders": 7240,
      "mason": 7241,
      "spreads": 7242,
      "lifeguard": 7243,
      "angel": 7244,
      "cheesebur": 7245,
      "recently": 7246,
      "fairly": 7247,
      "protru": 7248,
      "region": 7249,
      "fryer": 7250,
      "##traffic": 7251,
      "scrambled": 7252,
      "blade": 7253,
      "employee": 7254,
      "demonstration": 7255,
      "skew": 7256,
      "rapids": 7257,
      "##bathroom": 7258,
      "investigating": 7259,
      "graphic": 7260,
      "community": 7261,
      "dangling": 7262,
      "plunger": 7263,
      "twenty": 7264,
      "##roccoli": 7265,
      "rundown": 7266,
      "dy": 7267,
      "norm": 7268,
      "pong": 7269,
      "tack": 7270,
      "tric": 7271,
      "usa": 7272,
      "wid": 7273,
      "##sung": 7274,
      "##hot": 7275,
      "##nas": 7276,
      "##itti": 7277,
      "whip": 7278,
      "outdated": 7279,
      "##stract": 7280,
      "bedthe": 7281,
      "playfully": 7282,
      "backside": 7283,
      "beam": 7284,
      "couples": 7285,
      "constructed": 7286,
      "boating": 7287,
      "brownies": 7288,
      "##ortwo": 7289,
      "swir": 7290,
      "unkn": 7291,
      "whose": 7292,
      "pota": 7293,
      "clotha": 7294,
      "blank": 7295,
      "starts": 7296,
      "layers": 7297,
      "settinga": 7298,
      "steal": 7299,
      "bathtuba": 7300,
      "flatbread": 7301,
      "rounded": 7302,
      "butcher": 7303,
      "ruga": 7304,
      "ceilings": 7305,
      "shelvesa": 7306,
      "follow": 7307,
      "preser": 7308,
      "india": 7309,
      "newspapers": 7310,
      "magnet": 7311,
      "idly": 7312,
      "bundt": 7313,
      "operated": 7314,
      "learn": 7315,
      "kayaks": 7316,
      "bordered": 7317,
      "mailbox": 7318,
      "foamy": 7319,
      "merch": 7320,
      "samsung": 7321,
      "dunkin": 7322,
      "bruss": 7323,
      "spanish": 7324,
      "lunges": 7325,
      "maneuver": 7326,
      "wrestling": 7327,
      "graduation": 7328,
      "mechanical": 7329,
      "blazer": 7330,
      "perspective": 7331,
      "spiral": 7332,
      "handlebars": 7333,
      "trotting": 7334,
      "injured": 7335,
      "goofy": 7336,
      "minimal": 7337,
      "austral": 7338,
      "miscell": 7339,
      "poodle": 7340,
      "sauerkraut": 7341,
      "unknown": 7342,
      "50": 7343,
      "ara": 7344,
      "award": 7345,
      "crying": 7346,
      "ere": 7347,
      "gifts": 7348,
      "iro": 7349,
      "pu": 7350,
      "rul": 7351,
      "tr": 7352,
      "vines": 7353,
      "zip": 7354,
      "##dry": 7355,
      "##dale": 7356,
      "##cup": 7357,
      "##iel": 7358,
      "inner": 7359,
      "##resh": 7360,
      "##etted": 7361,
      "##ouse": 7362,
      "##olding": 7363,
      "peer": 7364,
      "shark": 7365,
      "itseveral": 7366,
      "holly": 7367,
      "launch": 7368,
      "bases": 7369,
      "##aining": 7370,
      "rooman": 7371,
      "blown": 7372,
      "airliners": 7373,
      "##boarder": 7374,
      "playful": 7375,
      "combo": 7376,
      "walkinga": 7377,
      "succ": 7378,
      "forrest": 7379,
      "foodsa": 7380,
      "lizard": 7381,
      "overalls": 7382,
      "ash": 7383,
      "lighter": 7384,
      "banners": 7385,
      "surfboardsa": 7386,
      "skytwo": 7387,
      "abstract": 7388,
      "showa": 7389,
      "togetherthe": 7390,
      "##ifying": 7391,
      "sod": 7392,
      "least": 7393,
      "daytwo": 7394,
      "groundtwo": 7395,
      "unat": 7396,
      "program": 7397,
      "cabs": 7398,
      "diners": 7399,
      "cana": 7400,
      "pitches": 7401,
      "exch": 7402,
      "squee": 7403,
      "bushy": 7404,
      "partition": 7405,
      "dude": 7406,
      "rugby": 7407,
      "machinea": 7408,
      "##ensely": 7409,
      "bake": 7410,
      "costumed": 7411,
      "carpeta": 7412,
      "watersa": 7413,
      "presenting": 7414,
      "leafless": 7415,
      "rearview": 7416,
      "david": 7417,
      "univers": 7418,
      "ribbons": 7419,
      "stepsa": 7420,
      "arrive": 7421,
      "wreath": 7422,
      "phonethe": 7423,
      "divider": 7424,
      "shears": 7425,
      "##marine": 7426,
      "juicer": 7427,
      "oversized": 7428,
      "discussing": 7429,
      "palace": 7430,
      "skelet": 7431,
      "converted": 7432,
      "seasoning": 7433,
      "southw": 7434,
      "scoop": 7435,
      "luxury": 7436,
      "technolog": 7437,
      "trophy": 7438,
      "terrier": 7439,
      "north": 7440,
      "jewelry": 7441,
      "establishment": 7442,
      "canvas": 7443,
      "ironing": 7444,
      "30": 7445,
      "age": 7446,
      "bon": 7447,
      "bitten": 7448,
      "ding": 7449,
      "dre": 7450,
      "et": 7451,
      "fellow": 7452,
      "lan": 7453,
      "lic": 7454,
      "tips": 7455,
      "tightly": 7456,
      "##lift": 7457,
      "##city": 7458,
      "##ene": 7459,
      "ton": 7460,
      "##oring": 7461,
      "##igious": 7462,
      "##uters": 7463,
      "##icles": 7464,
      "##icular": 7465,
      "##arded": 7466,
      "##abil": 7467,
      "peels": 7468,
      "coupe": 7469,
      "fixed": 7470,
      "boston": 7471,
      "batch": 7472,
      "##ami": 7473,
      "pip": 7474,
      "parkthe": 7475,
      "##airs": 7476,
      "coal": 7477,
      "pizzatwo": 7478,
      "beads": 7479,
      "bearsa": 7480,
      "cave": 7481,
      "gamethe": 7482,
      "banks": 7483,
      "abund": 7484,
      "##venile": 7485,
      "enc": 7486,
      "boxed": 7487,
      "fours": 7488,
      "brushed": 7489,
      "panting": 7490,
      "pancake": 7491,
      "##inton": 7492,
      "submarine": 7493,
      "families": 7494,
      "landscap": 7495,
      "curbside": 7496,
      "feather": 7497,
      "##iously": 7498,
      "harley": 7499,
      "terra": 7500,
      "shoea": 7501,
      "sunseta": 7502,
      "propellor": 7503,
      "glaze": 7504,
      "laughs": 7505,
      "tongs": 7506,
      "microphones": 7507,
      "coaches": 7508,
      "alleyway": 7509,
      "##urfer": 7510,
      "brace": 7511,
      "pleas": 7512,
      "anticip": 7513,
      "peaceful": 7514,
      "folks": 7515,
      "seasoned": 7516,
      "nightstands": 7517,
      "companion": 7518,
      "pineapples": 7519,
      "robes": 7520,
      "##itchen": 7521,
      "streetlights": 7522,
      "cottage": 7523,
      "##haw": 7524,
      "croissants": 7525,
      "releasing": 7526,
      "navig": 7527,
      "frizbee": 7528,
      "flanked": 7529,
      "chatting": 7530,
      "##motorcycle": 7531,
      "quarters": 7532,
      "projection": 7533,
      "cheeseburger": 7534,
      "miscellaneous": 7535,
      "##dryer": 7536,
      "bom": 7537,
      "gig": 7538,
      "gummy": 7539,
      "ipad": 7540,
      "tshirt": 7541,
      "vel": 7542,
      "zomb": 7543,
      "##yle": 7544,
      "##wed": 7545,
      "##wag": 7546,
      "##kitchen": 7547,
      "##uck": 7548,
      "##lem": 7549,
      "peoples": 7550,
      "roasting": 7551,
      "chun": 7552,
      "charm": 7553,
      "laps": 7554,
      "##atee": 7555,
      "floored": 7556,
      "rivers": 7557,
      "fieldseveral": 7558,
      "##enthe": 7559,
      "loose": 7560,
      "bedside": 7561,
      "seal": 7562,
      "seper": 7563,
      "skateboardthe": 7564,
      "conven": 7565,
      "almon": 7566,
      "slal": 7567,
      "intense": 7568,
      "sinkthe": 7569,
      "scall": 7570,
      "photoshop": 7571,
      "deal": 7572,
      "spraw": 7573,
      "livingroom": 7574,
      "soars": 7575,
      "hitched": 7576,
      "promin": 7577,
      "curls": 7578,
      "allowed": 7579,
      "monk": 7580,
      "##olded": 7581,
      "freely": 7582,
      "salada": 7583,
      "century": 7584,
      "##pos": 7585,
      "centerpiece": 7586,
      "quiche": 7587,
      "overlook": 7588,
      "toddlers": 7589,
      "twelve": 7590,
      "dollar": 7591,
      "discs": 7592,
      "patterns": 7593,
      "stovet": 7594,
      "celebratory": 7595,
      "melon": 7596,
      "parachutes": 7597,
      "knitting": 7598,
      "sweets": 7599,
      "demol": 7600,
      "bison": 7601,
      "phonetwo": 7602,
      "barbeque": 7603,
      "shearing": 7604,
      "cafea": 7605,
      "edges": 7606,
      "automobiles": 7607,
      "pilots": 7608,
      "pelicans": 7609,
      "revealing": 7610,
      "navigating": 7611,
      "participating": 7612,
      "gau": 7613,
      "invol": 7614,
      "panoramic": 7615,
      "effect": 7616,
      "chicago": 7617,
      "horizontal": 7618,
      "swiftly": 7619,
      "oatmeal": 7620,
      "tricycle": 7621,
      "almonds": 7622,
      "galley": 7623,
      "jun": 7624,
      "last": 7625,
      "mick": 7626,
      "pins": 7627,
      "sure": 7628,
      "via": 7629,
      "wants": 7630,
      "##ho": 7631,
      "##creen": 7632,
      "##ike": 7633,
      "##atively": 7634,
      "stalla": 7635,
      "##outs": 7636,
      "##raction": 7637,
      "laven": 7638,
      "frowning": 7639,
      "bored": 7640,
      "battle": 7641,
      "outhouse": 7642,
      "cos": 7643,
      "beaks": 7644,
      "motoc": 7645,
      "bearing": 7646,
      "alt": 7647,
      "laptopthe": 7648,
      "boatsa": 7649,
      "##iful": 7650,
      "sheeps": 7651,
      "birda": 7652,
      "mirrorthe": 7653,
      "wiim": 7654,
      "sales": 7655,
      "facial": 7656,
      "union": 7657,
      "sunflower": 7658,
      "attraction": 7659,
      "patient": 7660,
      "canned": 7661,
      "runwayan": 7662,
      "raincoat": 7663,
      "amen": 7664,
      "looked": 7665,
      "mats": 7666,
      "surrounds": 7667,
      "enclosuretwo": 7668,
      "exe": 7669,
      "watchesa": 7670,
      "centera": 7671,
      "sailors": 7672,
      "tanks": 7673,
      "##posed": 7674,
      "sofaa": 7675,
      "juvenile": 7676,
      "wedges": 7677,
      "burned": 7678,
      "shovel": 7679,
      "sprinkle": 7680,
      "flipped": 7681,
      "waterski": 7682,
      "jean": 7683,
      "exha": 7684,
      "buliding": 7685,
      "childs": 7686,
      "indicate": 7687,
      "volks": 7688,
      "saddled": 7689,
      "popular": 7690,
      "stroll": 7691,
      "bundles": 7692,
      "recipe": 7693,
      "thingsa": 7694,
      "attend": 7695,
      "messing": 7696,
      "hawai": 7697,
      "outsidetwo": 7698,
      "renovation": 7699,
      "drops": 7700,
      "discussion": 7701,
      "##giraffe": 7702,
      "crumbs": 7703,
      "hurdle": 7704,
      "victorian": 7705,
      "varying": 7706,
      "diagonal": 7707,
      "yawning": 7708,
      "parlor": 7709,
      "prair": 7710,
      "stovetop": 7711,
      "bm": 7712,
      "bound": 7713,
      "samp": 7714,
      "vers": 7715,
      "vib": 7716,
      "##rd": 7717,
      "##dles": 7718,
      "##dling": 7719,
      "##everal": 7720,
      "##pace": 7721,
      "##inted": 7722,
      "##ateboarder": 7723,
      "incre": 7724,
      "ank": 7725,
      "##orange": 7726,
      "##opl": 7727,
      "##oola": 7728,
      "lazy": 7729,
      "topthe": 7730,
      "##ader": 7731,
      "##aman": 7732,
      "grate": 7733,
      "##stairs": 7734,
      "kitchenette": 7735,
      "caketwo": 7736,
      "mens": 7737,
      "picturesa": 7738,
      "mouses": 7739,
      "brownie": 7740,
      "scaff": 7741,
      "handmade": 7742,
      "##apen": 7743,
      "sox": 7744,
      "slopetwo": 7745,
      "coral": 7746,
      "sunrise": 7747,
      "tracksthe": 7748,
      "controlling": 7749,
      "planted": 7750,
      "matches": 7751,
      "photographing": 7752,
      "carrotsa": 7753,
      "exper": 7754,
      "stately": 7755,
      "chocol": 7756,
      "urn": 7757,
      "directs": 7758,
      "concer": 7759,
      "packaging": 7760,
      "locations": 7761,
      "feeta": 7762,
      "foila": 7763,
      "##tible": 7764,
      "flaga": 7765,
      "soupa": 7766,
      "highwaya": 7767,
      "hamster": 7768,
      "gardena": 7769,
      "##bbled": 7770,
      "ceilinga": 7771,
      "skiesa": 7772,
      "visor": 7773,
      "##plant": 7774,
      "pinned": 7775,
      "collie": 7776,
      "slopesa": 7777,
      "labels": 7778,
      "nails": 7779,
      "repres": 7780,
      "bento": 7781,
      "condiment": 7782,
      "booths": 7783,
      "tusked": 7784,
      "sidel": 7785,
      "religious": 7786,
      "workspace": 7787,
      "needles": 7788,
      "activity": 7789,
      "repairing": 7790,
      "pudding": 7791,
      "roped": 7792,
      "fixes": 7793,
      "mannequins": 7794,
      "gestures": 7795,
      "details": 7796,
      "wonderful": 7797,
      "cruising": 7798,
      "barricade": 7799,
      "coconut": 7800,
      "crooked": 7801,
      "rooftop": 7802,
      "cannot": 7803,
      "preforming": 7804,
      "##osaur": 7805,
      "clydes": 7806,
      "davidson": 7807,
      "velvet": 7808,
      "chunks": 7809,
      "slalom": 7810,
      "mickey": 7811,
      "exhaust": 7812,
      "bits": 7813,
      "cyl": 7814,
      "dated": 7815,
      "east": 7816,
      "jal": 7817,
      "ner": 7818,
      "oar": 7819,
      "tipped": 7820,
      "##sure": 7821,
      "##hous": 7822,
      "##cer": 7823,
      "##bear": 7824,
      "##ret": 7825,
      "sitt": 7826,
      "##elarge": 7827,
      "##eblack": 7828,
      "tablethis": 7829,
      "lace": 7830,
      "pars": 7831,
      "##adults": 7832,
      "uphill": 7833,
      "##veled": 7834,
      "grid": 7835,
      "##ential": 7836,
      "seash": 7837,
      "cob": 7838,
      "##ieval": 7839,
      "beachpeople": 7840,
      "##shot": 7841,
      "glassware": 7842,
      "score": 7843,
      "handling": 7844,
      "bows": 7845,
      "treesthree": 7846,
      "offers": 7847,
      "couchtwo": 7848,
      "goatee": 7849,
      "unp": 7850,
      "knight": 7851,
      "emo": 7852,
      "##vish": 7853,
      "dinosaur": 7854,
      "airportan": 7855,
      "##dering": 7856,
      "##aki": 7857,
      "purses": 7858,
      "silla": 7859,
      "surfinga": 7860,
      "darka": 7861,
      "##weed": 7862,
      "better": 7863,
      "hairdryer": 7864,
      "triangular": 7865,
      "host": 7866,
      "given": 7867,
      "shakes": 7868,
      "bushels": 7869,
      "bikesa": 7870,
      "wildflowers": 7871,
      "swimmers": 7872,
      "arranging": 7873,
      "curtainsa": 7874,
      "pointy": 7875,
      "##scale": 7876,
      "holdera": 7877,
      "neath": 7878,
      "roofa": 7879,
      "medieval": 7880,
      "masks": 7881,
      "taste": 7882,
      "denim": 7883,
      "sprayed": 7884,
      "aprons": 7885,
      "sneaker": 7886,
      "##ebox": 7887,
      "silhouetted": 7888,
      "repairs": 7889,
      "cockpit": 7890,
      "contempl": 7891,
      "symbols": 7892,
      "convertible": 7893,
      "twigs": 7894,
      "dolly": 7895,
      "luxur": 7896,
      "##cisco": 7897,
      "##works": 7898,
      "francisco": 7899,
      "windmill": 7900,
      "skeleton": 7901,
      "license": 7902,
      "lavender": 7903,
      "prairie": 7904,
      "dental": 7905,
      "eiff": 7906,
      "mm": 7907,
      "occ": 7908,
      "pric": 7909,
      "sen": 7910,
      "tas": 7911,
      "vw": 7912,
      "##rid": 7913,
      "##hers": 7914,
      "##eing": 7915,
      "##nuts": 7916,
      "##crow": 7917,
      "##ique": 7918,
      "##broccoli": 7919,
      "##for": 7920,
      "##fire": 7921,
      "##ints": 7922,
      "##itol": 7923,
      "##atter": 7924,
      "stro": 7925,
      "##ometer": 7926,
      "mantel": 7927,
      "##ards": 7928,
      "##vern": 7929,
      "tablethree": 7930,
      "doily": 7931,
      "lavish": 7932,
      "##ander": 7933,
      "fieldsome": 7934,
      "grano": 7935,
      "roomthere": 7936,
      "##photo": 7937,
      "beagle": 7938,
      "overview": 7939,
      "ballan": 7940,
      "always": 7941,
      "graf": 7942,
      "handler": 7943,
      "switch": 7944,
      "dives": 7945,
      "eachother": 7946,
      "hilltwo": 7947,
      "address": 7948,
      "arches": 7949,
      "racers": 7950,
      "forehand": 7951,
      "racqueta": 7952,
      "halfp": 7953,
      "numbered": 7954,
      "armchair": 7955,
      "hugs": 7956,
      "commuters": 7957,
      "performance": 7958,
      "tablesome": 7959,
      "carriagea": 7960,
      "belowa": 7961,
      "wraps": 7962,
      "churcha": 7963,
      "profile": 7964,
      "baker": 7965,
      "rooster": 7966,
      "##bank": 7967,
      "lawna": 7968,
      "capitol": 7969,
      "misty": 7970,
      "casually": 7971,
      "pavementa": 7972,
      "##planes": 7973,
      "adorn": 7974,
      "surroundings": 7975,
      "celebrate": 7976,
      "banka": 7977,
      "filming": 7978,
      "##undy": 7979,
      "guards": 7980,
      "related": 7981,
      "await": 7982,
      "minutes": 7983,
      "movies": 7984,
      "legos": 7985,
      "parasols": 7986,
      "defensive": 7987,
      "spanning": 7988,
      "socializing": 7989,
      "browsing": 7990,
      "nibbling": 7991,
      "duffel": 7992,
      "searching": 7993,
      "dangerous": 7994,
      "vessel": 7995,
      "blossom": 7996,
      "cheek": 7997,
      "toliet": 7998,
      "burgundy": 7999,
      "normal": 8000,
      "ruler": 8001,
      "volkswag": 8002,
      "sampling": 8003,
      "vibrant": 8004,
      "eiffel": 8005,
      "granola": 8006,
      "dar": 8007,
      "es": 8008,
      "gay": 8009,
      "linger": 8010,
      "mal": 8011,
      "punch": 8012,
      "ray": 8013,
      "rared": 8014,
      "sip": 8015,
      "testing": 8016,
      "tells": 8017,
      "val": 8018,
      "yak": 8019,
      "##of": 8020,
      "##dor": 8021,
      "##nie": 8022,
      "##anna": 8023,
      "anten": 8024,
      "witha": 8025,
      "##rob": 8026,
      "tones": 8027,
      "##ona": 8028,
      "##orium": 8029,
      "manual": 8030,
      "##elt": 8031,
      "##ota": 8032,
      "whom": 8033,
      "buoy": 8034,
      "choo": 8035,
      "doc": 8036,
      "parmes": 8037,
      "upscale": 8038,
      "ripped": 8039,
      "##ulture": 8040,
      "basement": 8041,
      "##phon": 8042,
      "##ptwo": 8043,
      "beams": 8044,
      "##gethe": 8045,
      "##ached": 8046,
      "waking": 8047,
      "childa": 8048,
      "handstand": 8049,
      "covera": 8050,
      "reco": 8051,
      "diet": 8052,
      "treean": 8053,
      "##ifier": 8054,
      "zebraa": 8055,
      "hilltop": 8056,
      "stationed": 8057,
      "hatch": 8058,
      "sunbath": 8059,
      "##ustr": 8060,
      "bark": 8061,
      "starring": 8062,
      "tripod": 8063,
      "penny": 8064,
      "credit": 8065,
      "placemat": 8066,
      "trunka": 8067,
      "quar": 8068,
      "messages": 8069,
      "weed": 8070,
      "ponda": 8071,
      "leasha": 8072,
      "headset": 8073,
      "grows": 8074,
      "petals": 8075,
      "audit": 8076,
      "combined": 8077,
      "ordering": 8078,
      "wildernes": 8079,
      "friendly": 8080,
      "receiving": 8081,
      "detour": 8082,
      "majestic": 8083,
      "ostriches": 8084,
      "facade": 8085,
      "impress": 8086,
      "donkeys": 8087,
      "temple": 8088,
      "hours": 8089,
      "autograph": 8090,
      "gnar": 8091,
      "viol": 8092,
      "mcdonald": 8093,
      "##elephants": 8094,
      "loveseat": 8095,
      "arabic": 8096,
      "university": 8097,
      "dingy": 8098,
      "gigantic": 8099,
      "sprawled": 8100,
      "demolished": 8101,
      "amenities": 8102,
      "hawaiian": 8103,
      "bmw": 8104,
      "concerned": 8105,
      "sidelines": 8106,
      "luxurious": 8107,
      "parmesan": 8108,
      "auditorium": 8109,
      "3d": 8110,
      "cds": 8111,
      "gum": 8112,
      "jac": 8113,
      "lla": 8114,
      "mile": 8115,
      "rom": 8116,
      "wades": 8117,
      "##held": 8118,
      "##vor": 8119,
      "##ys": 8120,
      "##kward": 8121,
      "##gi": 8122,
      "##fri": 8123,
      "##ita": 8124,
      "onward": 8125,
      "##len": 8126,
      "tots": 8127,
      "toll": 8128,
      "isn": 8129,
      "mang": 8130,
      "manic": 8131,
      "##tingu": 8132,
      "whine": 8133,
      "pecking": 8134,
      "womans": 8135,
      "cha": 8136,
      "paris": 8137,
      "toptwo": 8138,
      "girla": 8139,
      "snowthe": 8140,
      "phot": 8141,
      "waterpeople": 8142,
      "motes": 8143,
      "##tles": 8144,
      "concept": 8145,
      "converse": 8146,
      "compon": 8147,
      "disg": 8148,
      "sli": 8149,
      "slat": 8150,
      "windowtwo": 8151,
      "tap": 8152,
      "walltwo": 8153,
      "raz": 8154,
      "spi": 8155,
      "maple": 8156,
      "##agna": 8157,
      "##lesc": 8158,
      "cheer": 8159,
      "guest": 8160,
      "##velop": 8161,
      "##eye": 8162,
      "adding": 8163,
      "dressa": 8164,
      "arid": 8165,
      "##tended": 8166,
      "trackthe": 8167,
      "suitcas": 8168,
      "patches": 8169,
      "homeless": 8170,
      "restaurants": 8171,
      "orig": 8172,
      "planters": 8173,
      "jacketa": 8174,
      "breaded": 8175,
      "cleaner": 8176,
      "feedera": 8177,
      "platforms": 8178,
      "computersa": 8179,
      "flys": 8180,
      "swimsuit": 8181,
      "candlesa": 8182,
      "##enders": 8183,
      "clothesa": 8184,
      "speckled": 8185,
      "restrooma": 8186,
      "clause": 8187,
      "discarded": 8188,
      "stradd": 8189,
      "foregrounda": 8190,
      "medal": 8191,
      "charter": 8192,
      "petted": 8193,
      "awkward": 8194,
      "transported": 8195,
      "cowboys": 8196,
      "##uzzi": 8197,
      "illustr": 8198,
      "mattresses": 8199,
      "pops": 8200,
      "embed": 8201,
      "protect": 8202,
      "obstacles": 8203,
      "linked": 8204,
      "peanuts": 8205,
      "shutters": 8206,
      "festive": 8207,
      "clustered": 8208,
      "notepad": 8209,
      "badm": 8210,
      "alcoholic": 8211,
      "youths": 8212,
      "billboards": 8213,
      "pigs": 8214,
      "member": 8215,
      "outsidethe": 8216,
      "woolly": 8217,
      "oceantwo": 8218,
      "aiming": 8219,
      "announ": 8220,
      "icebox": 8221,
      "exerc": 8222,
      "amazing": 8223,
      "lasagna": 8224,
      "hollywood": 8225,
      "landscapea": 8226,
      "clydesdale": 8227,
      "jacuzzi": 8228,
      "ber": 8229,
      "bris": 8230,
      "cash": 8231,
      "crop": 8232,
      "ditch": 8233,
      "er": 8234,
      "effic": 8235,
      "easter": 8236,
      "hus": 8237,
      "ivy": 8238,
      "lass": 8239,
      "munching": 8240,
      "nude": 8241,
      "ovent": 8242,
      "option": 8243,
      "pound": 8244,
      "prist": 8245,
      "puffy": 8246,
      "puzz": 8247,
      "sed": 8248,
      "sings": 8249,
      "vas": 8250,
      "wea": 8251,
      "##tables": 8252,
      "##kids": 8253,
      "##iea": 8254,
      "##gons": 8255,
      "##inga": 8256,
      "##lev": 8257,
      "theat": 8258,
      "tons": 8259,
      "##asian": 8260,
      "##ouris": 8261,
      "necess": 8262,
      "##ict": 8263,
      "skill": 8264,
      "shred": 8265,
      "ith": 8266,
      "itthree": 8267,
      "fift": 8268,
      "##antly": 8269,
      "ribs": 8270,
      "outlet": 8271,
      "##stop": 8272,
      "waterthree": 8273,
      "buildingthere": 8274,
      "sele": 8275,
      "##zzle": 8276,
      "hero": 8277,
      "##ief": 8278,
      "overfl": 8279,
      "eatery": 8280,
      "wagons": 8281,
      "compo": 8282,
      "alter": 8283,
      "intensely": 8284,
      "scot": 8285,
      "##astwo": 8286,
      "umbrellaan": 8287,
      "guides": 8288,
      "lost": 8289,
      "looms": 8290,
      "racea": 8291,
      "marin": 8292,
      "potty": 8293,
      "breaks": 8294,
      "toysa": 8295,
      "booze": 8296,
      "expla": 8297,
      "statuea": 8298,
      "teacher": 8299,
      "workshop": 8300,
      "##different": 8301,
      "sailor": 8302,
      "globe": 8303,
      "stairwell": 8304,
      "concretea": 8305,
      "winery": 8306,
      "artist": 8307,
      "steaming": 8308,
      "cardinal": 8309,
      "naps": 8310,
      "circles": 8311,
      "fighters": 8312,
      "visiting": 8313,
      "lids": 8314,
      "stocking": 8315,
      "angles": 8316,
      "angels": 8317,
      "celebrates": 8318,
      "##comm": 8319,
      "dumpster": 8320,
      "gazebo": 8321,
      "strolling": 8322,
      "##passeng": 8323,
      "shouldera": 8324,
      "melting": 8325,
      "tater": 8326,
      "lobster": 8327,
      "arrives": 8328,
      "limbs": 8329,
      "fencethe": 8330,
      "bloody": 8331,
      "inspects": 8332,
      "satell": 8333,
      "sheared": 8334,
      "##foil": 8335,
      "domed": 8336,
      "kitchentwo": 8337,
      "pooh": 8338,
      "occupied": 8339,
      "frizbe": 8340,
      "perfectly": 8341,
      "chalkboard": 8342,
      "surfaces": 8343,
      "wildebeest": 8344,
      "proceed": 8345,
      "landscaping": 8346,
      "protruding": 8347,
      "unattended": 8348,
      "technology": 8349,
      "waterskiing": 8350,
      "scaffolding": 8351,
      "parsley": 8352,
      "embedded": 8353,
      "badminton": 8354,
      "exercise": 8355,
      "did": 8356,
      "date": 8357,
      "dread": 8358,
      "edible": 8359,
      "france": 8360,
      "hoo": 8361,
      "jes": 8362,
      "kh": 8363,
      "kil": 8364,
      "keeping": 8365,
      "pina": 8366,
      "song": 8367,
      "sipping": 8368,
      "##emb": 8369,
      "##pro": 8370,
      "##living": 8371,
      "##nting": 8372,
      "##gien": 8373,
      "##ucc": 8374,
      "##male": 8375,
      "##ank": 8376,
      "##esome": 8377,
      "##ism": 8378,
      "##opened": 8379,
      "##raffic": 8380,
      "##ersh": 8381,
      "##igan": 8382,
      "bum": 8383,
      "bubbles": 8384,
      "shield": 8385,
      "##nthe": 8386,
      "holing": 8387,
      "dod": 8388,
      "launching": 8389,
      "beet": 8390,
      "beets": 8391,
      "boxt": 8392,
      "ups": 8393,
      "flour": 8394,
      "##veget": 8395,
      "surg": 8396,
      "skaters": 8397,
      "sequ": 8398,
      "secl": 8399,
      "sup": 8400,
      "liber": 8401,
      "pockets": 8402,
      "parkeda": 8403,
      "##ght": 8404,
      "motorists": 8405,
      "beachthere": 8406,
      "desolate": 8407,
      "slats": 8408,
      "playera": 8409,
      "spilled": 8410,
      "spending": 8411,
      "fired": 8412,
      "offering": 8413,
      "soil": 8414,
      "study": 8415,
      "hygien": 8416,
      "fencean": 8417,
      "moved": 8418,
      "sloped": 8419,
      "slopethe": 8420,
      "unpack": 8421,
      "unident": 8422,
      "##ipher": 8423,
      "acrob": 8424,
      "##essome": 8425,
      "peripher": 8426,
      "higha": 8427,
      "ages": 8428,
      "hound": 8429,
      "allow": 8430,
      "containera": 8431,
      "##cedes": 8432,
      "poll": 8433,
      "battery": 8434,
      "mature": 8435,
      "photography": 8436,
      "##onda": 8437,
      "picket": 8438,
      "seaweed": 8439,
      "##mingly": 8440,
      "leftover": 8441,
      "seemingly": 8442,
      "fansa": 8443,
      "creamy": 8444,
      "dishesa": 8445,
      "##setwo": 8446,
      "##bananas": 8447,
      "weight": 8448,
      "interview": 8449,
      "ornately": 8450,
      "boulder": 8451,
      "legsa": 8452,
      "raisins": 8453,
      "fasta": 8454,
      "focal": 8455,
      "observes": 8456,
      "joy": 8457,
      "tuna": 8458,
      "##urfers": 8459,
      "billowing": 8460,
      "warmly": 8461,
      "ordered": 8462,
      "tinfoil": 8463,
      "describ": 8464,
      "cuis": 8465,
      "util": 8466,
      "infield": 8467,
      "install": 8468,
      "notebooks": 8469,
      "maybe": 8470,
      "collect": 8471,
      "crashed": 8472,
      "crashes": 8473,
      "africa": 8474,
      "seaside": 8475,
      "spacea": 8476,
      "automatic": 8477,
      "tissues": 8478,
      "departing": 8479,
      "exposure": 8480,
      "umbrellathe": 8481,
      "fitted": 8482,
      "cocktail": 8483,
      "tilting": 8484,
      "assembled": 8485,
      "memorabil": 8486,
      "drums": 8487,
      "201": 8488,
      "source": 8489,
      "years": 8490,
      "missed": 8491,
      "aqua": 8492,
      "detailed": 8493,
      "fuel": 8494,
      "blenders": 8495,
      "resemble": 8496,
      "sunda": 8497,
      "placid": 8498,
      "remodeling": 8499,
      "plums": 8500,
      "lantern": 8501,
      "proudly": 8502,
      "receipt": 8503,
      "brussel": 8504,
      "etc": 8505,
      "abundance": 8506,
      "ado": 8507,
      "cider": 8508,
      "cycling": 8509,
      "ec": 8510,
      "ener": 8511,
      "fet": 8512,
      "foo": 8513,
      "kio": 8514,
      "mam": 8515,
      "merry": 8516,
      "moose": 8517,
      "##oke": 8518,
      "##pol": 8519,
      "##aves": 8520,
      "##kiers": 8521,
      "##gran": 8522,
      "##gely": 8523,
      "##uded": 8524,
      "##fish": 8525,
      "##ances": 8526,
      "infront": 8527,
      "##ros": 8528,
      "##asy": 8529,
      "##asion": 8530,
      "##organ": 8531,
      "##rack": 8532,
      "##assorted": 8533,
      "chase": 8534,
      "chases": 8535,
      "streetcar": 8536,
      "bee": 8537,
      "topan": 8538,
      "topless": 8539,
      "someonea": 8540,
      "##andwich": 8541,
      "flats": 8542,
      "caran": 8543,
      "carthe": 8544,
      "based": 8545,
      "blvd": 8546,
      "##ented": 8547,
      "build": 8548,
      "herb": 8549,
      "heron": 8550,
      "overh": 8551,
      "roadan": 8552,
      "dispos": 8553,
      "grains": 8554,
      "handrail": 8555,
      "handheld": 8556,
      "trench": 8557,
      "spl": 8558,
      "spear": 8559,
      "fireworks": 8560,
      "reigns": 8561,
      "countries": 8562,
      "buna": 8563,
      "##eaten": 8564,
      "teh": 8565,
      "platethere": 8566,
      "racketthe": 8567,
      "orangea": 8568,
      "hillthe": 8569,
      "days": 8570,
      "favor": 8571,
      "feild": 8572,
      "restored": 8573,
      "uneaten": 8574,
      "acting": 8575,
      "empt": 8576,
      "leaking": 8577,
      "umbrellaspeople": 8578,
      "soccera": 8579,
      "mono": 8580,
      "jetliners": 8581,
      "appo": 8582,
      "lincol": 8583,
      "disha": 8584,
      "tilesa": 8585,
      "balding": 8586,
      "scenes": 8587,
      "sticky": 8588,
      "shopped": 8589,
      "common": 8590,
      "flames": 8591,
      "trailera": 8592,
      "creature": 8593,
      "picturesque": 8594,
      "wiresa": 8595,
      "geara": 8596,
      "takeout": 8597,
      "curtained": 8598,
      "fisheye": 8599,
      "juggling": 8600,
      "turb": 8601,
      "cracker": 8602,
      "extern": 8603,
      "strung": 8604,
      "antiques": 8605,
      "sidesa": 8606,
      "shipping": 8607,
      "pawing": 8608,
      "##nela": 8609,
      "piercing": 8610,
      "streaming": 8611,
      "coursea": 8612,
      "guitars": 8613,
      "crock": 8614,
      "copper": 8615,
      "prints": 8616,
      "sprays": 8617,
      "collared": 8618,
      "bandanna": 8619,
      "gazes": 8620,
      "serviced": 8621,
      "onlooker": 8622,
      "elbow": 8623,
      "hungry": 8624,
      "gripping": 8625,
      "dispensers": 8626,
      "faucets": 8627,
      "fatig": 8628,
      "nowhere": 8629,
      "windsurfer": 8630,
      "elaborately": 8631,
      "keeps": 8632,
      "heating": 8633,
      "saucers": 8634,
      "antelopes": 8635,
      "cuddled": 8636,
      "cotton": 8637,
      "##horse": 8638,
      "nuzzle": 8639,
      "reveals": 8640,
      "oceanthe": 8641,
      "apparat": 8642,
      "investig": 8643,
      "lipstick": 8644,
      "cakethe": 8645,
      "zoom": 8646,
      "##couple": 8647,
      "gulls": 8648,
      "poorly": 8649,
      "rushing": 8650,
      "congregate": 8651,
      "concentrating": 8652,
      "aeropl": 8653,
      "maintained": 8654,
      "sodas": 8655,
      "southwest": 8656,
      "bomber": 8657,
      "photoshopped": 8658,
      "altitude": 8659,
      "version": 8660,
      "senior": 8661,
      "razor": 8662,
      "husband": 8663,
      "pristine": 8664,
      "##levard": 8665,
      "jesus": 8666,
      "secluded": 8667,
      "liberty": 8668,
      "hygiene": 8669,
      "memorabilia": 8670,
      "favorite": 8671,
      "lincoln": 8672,
      "external": 8673,
      "cities": 8674,
      "dut": 8675,
      "jail": 8676,
      "kore": 8677,
      "ming": 8678,
      "mari": 8679,
      "py": 8680,
      "pome": 8681,
      "pam": 8682,
      "tang": 8683,
      "tiling": 8684,
      "want": 8685,
      "wade": 8686,
      "wife": 8687,
      "##dies": 8688,
      "##hn": 8689,
      "##yon": 8690,
      "##crop": 8691,
      "##ux": 8692,
      "##uggage": 8693,
      "##miling": 8694,
      "##ben": 8695,
      "##bla": 8696,
      "##big": 8697,
      "##ata": 8698,
      "inse": 8699,
      "ans": 8700,
      "stark": 8701,
      "##onge": 8702,
      "plans": 8703,
      "plumb": 8704,
      "chim": 8705,
      "doctor": 8706,
      "streetthree": 8707,
      "piera": 8708,
      "snake": 8709,
      "##kee": 8710,
      "fronts": 8711,
      "blackberry": 8712,
      "airan": 8713,
      "playinga": 8714,
      "greena": 8715,
      "##getwo": 8716,
      "elephantsa": 8717,
      "cale": 8718,
      "##thora": 8719,
      "windowan": 8720,
      "treethe": 8721,
      "wallan": 8722,
      "swamp": 8723,
      "colt": 8724,
      "dips": 8725,
      "backgroundseveral": 8726,
      "drift": 8727,
      "##ubby": 8728,
      "mirrorsa": 8729,
      "babya": 8730,
      "stationtwo": 8731,
      "stationthe": 8732,
      "unopened": 8733,
      "loom": 8734,
      "childrena": 8735,
      "ridge": 8736,
      "walker": 8737,
      "marine": 8738,
      "ago": 8739,
      "riverbank": 8740,
      "rains": 8741,
      "rockstwo": 8742,
      "panels": 8743,
      "batteries": 8744,
      "##weight": 8745,
      "sheering": 8746,
      "extingu": 8747,
      "attachment": 8748,
      "creating": 8749,
      "edgea": 8750,
      "distorted": 8751,
      "##isters": 8752,
      "frid": 8753,
      "rounds": 8754,
      "haya": 8755,
      "pepperon": 8756,
      "crafting": 8757,
      "deserta": 8758,
      "advertises": 8759,
      "minivan": 8760,
      "##uffs": 8761,
      "housesa": 8762,
      "harbora": 8763,
      "##covered": 8764,
      "spotless": 8765,
      "boulevard": 8766,
      "leafs": 8767,
      "papersa": 8768,
      "america": 8769,
      "waiter": 8770,
      "completing": 8771,
      "hearty": 8772,
      "stov": 8773,
      "organic": 8774,
      "organiz": 8775,
      "##mallows": 8776,
      "suspenders": 8777,
      "parake": 8778,
      "cigarettes": 8779,
      "turkeys": 8780,
      "plethora": 8781,
      "wrappers": 8782,
      "strand": 8783,
      "attendant": 8784,
      "possible": 8785,
      "eagerly": 8786,
      "rollerbla": 8787,
      "tattooed": 8788,
      "emerging": 8789,
      "grasslands": 8790,
      "slender": 8791,
      "penguins": 8792,
      "admire": 8793,
      "avocados": 8794,
      "temporary": 8795,
      "therm": 8796,
      "marshmallows": 8797,
      "demonstrating": 8798,
      "kitchenthe": 8799,
      "orchard": 8800,
      "duffle": 8801,
      "gorilla": 8802,
      "goblets": 8803,
      "teammates": 8804,
      "rhinos": 8805,
      "firefighters": 8806,
      "rumpled": 8807,
      "prominent": 8808,
      "jalapen": 8809,
      "##housea": 8810,
      "seashore": 8811,
      "halfpipe": 8812,
      "overflowing": 8813,
      "kiosk": 8814,
      "pomegran": 8815,
      "25": 8816,
      "broom": 8817,
      "dv": 8818,
      "dummy": 8819,
      "gru": 8820,
      "gree": 8821,
      "hey": 8822,
      "ken": 8823,
      "lets": 8824,
      "loll": 8825,
      "nun": 8826,
      "nets": 8827,
      "nunch": 8828,
      "pumps": 8829,
      "sin": 8830,
      "uk": 8831,
      "va": 8832,
      "ves": 8833,
      "wars": 8834,
      "##ov": 8835,
      "##dish": 8836,
      "##wash": 8837,
      "##nal": 8838,
      "##uary": 8839,
      "##zer": 8840,
      "##ero": 8841,
      "##robe": 8842,
      "##asc": 8843,
      "##open": 8844,
      "##rador": 8845,
      "##icing": 8846,
      "pews": 8847,
      "shoot": 8848,
      "##ntwo": 8849,
      "pliers": 8850,
      "chute": 8851,
      "streetseveral": 8852,
      "laz": 8853,
      "flu": 8854,
      "flop": 8855,
      "cartwo": 8856,
      "outcrop": 8857,
      "kitetwo": 8858,
      "airthe": 8859,
      "reda": 8860,
      "bathroomthe": 8861,
      "moto": 8862,
      "motif": 8863,
      "beachthree": 8864,
      "##emale": 8865,
      "benchthe": 8866,
      "tagging": 8867,
      "spice": 8868,
      "spool": 8869,
      "spider": 8870,
      "sponge": 8871,
      "firemen": 8872,
      "phonean": 8873,
      "skylight": 8874,
      "##apera": 8875,
      "togetherthree": 8876,
      "lecture": 8877,
      "luck": 8878,
      "guarding": 8879,
      "guided": 8880,
      "tvs": 8881,
      "attic": 8882,
      "platesome": 8883,
      "strikes": 8884,
      "shoppers": 8885,
      "created": 8886,
      "creme": 8887,
      "pavil": 8888,
      "drawings": 8889,
      "lapel": 8890,
      "piecesa": 8891,
      "eggplant": 8892,
      "schem": 8893,
      "earphones": 8894,
      "backpacka": 8895,
      "jud": 8896,
      "vehiclesa": 8897,
      "businessmen": 8898,
      "loads": 8899,
      "signaling": 8900,
      "accord": 8901,
      "chops": 8902,
      "glide": 8903,
      "himselfa": 8904,
      "neta": 8905,
      "railings": 8906,
      "media": 8907,
      "shares": 8908,
      "##mobile": 8909,
      "stadiuma": 8910,
      "ducklings": 8911,
      "capture": 8912,
      "angled": 8913,
      "arrangements": 8914,
      "labrador": 8915,
      "jogging": 8916,
      "confused": 8917,
      "procession": 8918,
      "avoid": 8919,
      "blindf": 8920,
      "protesting": 8921,
      "rectangle": 8922,
      "bridges": 8923,
      "provides": 8924,
      "nurse": 8925,
      "protesters": 8926,
      "sample": 8927,
      "citiz": 8928,
      "butterflies": 8929,
      "gazelles": 8930,
      "dolph": 8931,
      "##nowboarder": 8932,
      "pacific": 8933,
      "mossy": 8934,
      "purchase": 8935,
      "##happy": 8936,
      "clutching": 8937,
      "knobs": 8938,
      "international": 8939,
      "attacking": 8940,
      "success": 8941,
      "exchanging": 8942,
      "dreary": 8943,
      "pipea": 8944,
      "pleasant": 8945,
      "##hawk": 8946,
      "exec": 8947,
      "mangoes": 8948,
      "theatre": 8949,
      "satellite": 8950,
      "##vegetables": 8951,
      "cuisine": 8952,
      "##organized": 8953,
      "apparatus": 8954,
      "pyram": 8955,
      "chimney": 8956,
      "aj": 8957,
      "ale": 8958,
      "binder": 8959,
      "coo": 8960,
      "crush": 8961,
      "der": 8962,
      "dell": 8963,
      "daff": 8964,
      "ev": 8965,
      "fal": 8966,
      "fou": 8967,
      "fond": 8968,
      "fisher": 8969,
      "hate": 8970,
      "mint": 8971,
      "netting": 8972,
      "ricea": 8973,
      "sking": 8974,
      "vig": 8975,
      "##dar": 8976,
      "##dou": 8977,
      "##pen": 8978,
      "##ci": 8979,
      "##iing": 8980,
      "##game": 8981,
      "##ued": 8982,
      "##balla": 8983,
      "##reet": 8984,
      "##ont": 8985,
      "##onna": 8986,
      "##ckoo": 8987,
      "##oranges": 8988,
      "##laptop": 8989,
      "##iler": 8990,
      "why": 8991,
      "budd": 8992,
      "trade": 8993,
      "##uristic": 8994,
      "shaker": 8995,
      "##assort": 8996,
      "chu": 8997,
      "chunk": 8998,
      "chubby": 8999,
      "lag": 9000,
      "boar": 9001,
      "topsa": 9002,
      "##ams": 9003,
      "caring": 9004,
      "outer": 9005,
      "##igned": 9006,
      "signpost": 9007,
      "##stool": 9008,
      "pizzathe": 9009,
      "backward": 9010,
      "eleven": 9011,
      "overa": 9012,
      "beachan": 9013,
      "cape": 9014,
      "alonea": 9015,
      "tale": 9016,
      "underwater": 9017,
      "swit": 9018,
      "diff": 9019,
      "treesthere": 9020,
      "dries": 9021,
      "passanger": 9022,
      "differently": 9023,
      "cheering": 9024,
      "broke": 9025,
      "brings": 9026,
      "additional": 9027,
      "dressers": 9028,
      "uncom": 9029,
      "envel": 9030,
      "crowding": 9031,
      "loving": 9032,
      "traveler": 9033,
      "march": 9034,
      "tvthe": 9035,
      "##closure": 9036,
      "##isha": 9037,
      "##ishing": 9038,
      "pursea": 9039,
      "multitude": 9040,
      "##liced": 9041,
      "hog": 9042,
      "assisting": 9043,
      "othersa": 9044,
      "##point": 9045,
      "centered": 9046,
      "fox": 9047,
      "designated": 9048,
      "modest": 9049,
      "dramat": 9050,
      "bought": 9051,
      "milka": 9052,
      "terminala": 9053,
      "##modern": 9054,
      "adorns": 9055,
      "formations": 9056,
      "##boys": 9057,
      "checkerboard": 9058,
      "nail": 9059,
      "coacha": 9060,
      "tunnela": 9061,
      "insid": 9062,
      "cliffs": 9063,
      "primit": 9064,
      "interact": 9065,
      "jerseys": 9066,
      "monkeys": 9067,
      "cuckoo": 9068,
      "quilted": 9069,
      "doubled": 9070,
      "kayaking": 9071,
      "flavor": 9072,
      "knifes": 9073,
      "solitary": 9074,
      "vacation": 9075,
      "guns": 9076,
      "privacy": 9077,
      "fixings": 9078,
      "troop": 9079,
      "mercedes": 9080,
      "juicea": 9081,
      "domin": 9082,
      "description": 9083,
      "hedges": 9084,
      "apparently": 9085,
      "flushing": 9086,
      "ordinary": 9087,
      "lava": 9088,
      "crisp": 9089,
      "connecting": 9090,
      "incredible": 9091,
      "prices": 9092,
      "antenna": 9093,
      "violin": 9094,
      "manicured": 9095,
      "flatscreen": 9096,
      "fatigues": 9097,
      "pamph": 9098,
      "dvds": 9099,
      "lazily": 9100,
      "daffod": 9101,
      "##assortment": 9102,
      "primitive": 9103,
      "active": 9104,
      "bol": 9105,
      "bout": 9106,
      "dying": 9107,
      "dyed": 9108,
      "eth": 9109,
      "esp": 9110,
      "evil": 9111,
      "filing": 9112,
      "fills": 9113,
      "gla": 9114,
      "gest": 9115,
      "hump": 9116,
      "hope": 9117,
      "mul": 9118,
      "mich": 9119,
      "nick": 9120,
      "pest": 9121,
      "ruff": 9122,
      "sony": 9123,
      "tear": 9124,
      "tins": 9125,
      "vulture": 9126,
      "zones": 9127,
      "##ola": 9128,
      "##hat": 9129,
      "##kateboarder": 9130,
      "##meat": 9131,
      "##books": 9132,
      "##fer": 9133,
      "##fessional": 9134,
      "##00": 9135,
      "##itter": 9136,
      "##roid": 9137,
      "toasting": 9138,
      "stab": 9139,
      "isle": 9140,
      "mango": 9141,
      "##ilding": 9142,
      "neg": 9143,
      "whale": 9144,
[...]
