[PAD]
[UNK]
[CLS]
[MASK]
[SEP]
!
"
#
$
%
&
'
(
)
*
+
,
-
.
/
0
1
2
3
4
5
6
7
8
9
:
;
=
>
?
@
[
\
]
_
`
a
b
c
d
e
f
g
h
i
j
k
l
m
n
o
p
q
r
s
t
u
v
w
x
y
z
##e
##x
##t
##i
##n
##g
##u
##p
##l
##a
##c
##r
##s
##b
##h
##o
##m
##z
##k
##y
##f
##4
##2
##w
##d
##v
##q
##9
##0
##3
##j
##1
##8
##6
##7
##5
##in
##ing
##it
##er
##an
th
on
##le
##at
of
##ar
the
in
##re
an
##ith
with
##ro
##en
and
##al
##ed
to
st
##om
##es
##ding
##as
##on
##ow
##ck
##et
is
##or
##ir
##ch
##ou
##is
man
##la
##op
##ting
sit
##ra
##all
##el
##oo
##id
##il
ne
##ot
wh
##ers
##ol
##rou
stan
sitting
##ig
##ge
are
##ut
##ic
##wo
##ard
##ab
at
##ea
##king
bu
sk
pe
##ite
##ying
standing
##ople
two
##ide
tra
##eb
people
##ur
##oard
wom
##xt
##able
sh
next
white
##ver
it
##nt
ro
woman
##ass
##nd
pla
##ff
pl
##ile
hol
##lo
table
stre
ch
do
cou
street
la
##her
be
##ome
fro
fi
##ood
bo
that
par
holding
top
##own
grou
sm
##se
##ce
some
##erson
##ack
person
##ate
bat
##arge
##ant
large
##ad
##ri
##am
gir
down
cat
wat
##and
up
pi
fl
##eld
group
##ion
ri
sn
##ru
car
dog
out
##ng
##igh
field
##ve
near
snow
ten
small
wal
##nis
clo
train
##ign
##ke
his
##lack
front
##ul
tennis
park
gr
black
bus
bas
sur
##room
##row
##ee
sign
##ain
##ell
##ree
room
##ure
##st
riding
##ay
##ind
##ple
kit
bl
air
grass
you
plate
red
side
ph
by
##ight
water
young
##ue
##ent
loo
##round
bath
##dy
surf
##ving
##ss
##ph
##board
buil
##one
bed
baseb
building
baseball
##ink
##reen
##air
skat
has
##ds
play
se
com
##mb
##side
while
playing
##pt
walking
skateb
bathroom
su
##zz
##yc
##ther
for
food
her
co
hor
blue
pizz
##ct
##ear
kitch
##age
kitchen
##ycle
skateboard
back
bea
mot
wood
green
li
po
##aff
ele
##irt
giraff
parked
boy
pizza
##gh
other
ski
looking
##ie
motor
##im
##ere
##get
##ture
over
beach
##ity
eat
##ilet
clock
ben
toilet
bear
##tle
##phant
couple
pic
elephant
des
##ach
ca
##ran
girl
ball
##em
road
con
men
##rel
##ild
wa
##th
comp
##ane
wear
picture
##led
there
city
gam
mou
umb
dis
umbrel
motorc
flying
##lass
al
board
wearing
bench
tow
##cks
##ris
sl
player
motorcycle
##ptop
wind
laptop
tru
##ld
##ore
int
three
##veral
##ill
zeb
laying
child
from
comput
##ong
sits
as
##rown
##sh
sand
##ine
wooden
##um
##rough
window
sink
glass
gra
airp
game
##nder
##ter
through
their
##ping
area
op
boat
fris
chair
frisb
brown
around
##ellow
one
eating
##un
yellow
##ks
old
light
stop
sc
several
hand
ta
horse
tre
computer
##ped
bir
##oto
wall
lit
photo
desk
under
de
##ice
giraffe
##ort
##ase
##ast
##ery
cover
ra
ve
cake
open
sp
##ull
close
##way
##est
living
truck
sw
##rt
fire
frisbee
re
##cc
phone
flo
##ross
ban
col
##ses
surfboard
outside
lot
##gg
rea
bow
di
covered
count
bun
umbrella
##acket
trees
each
##ation
cow
##eat
##illed
##ove
##ich
cell
suit
banan
very
beh
behind
##eep
##sing
cl
filled
oran
off
court
many
##pla
##ground
tree
its
sky
##ap
cut
little
bowl
cont
##ching
ab
flow
ap
##ves
##up
ma
show
fen
into
toget
##ead
couch
##ction
together
##ors
##qu
sandw
##if
##iew
sandwich
bi
bunch
airpl
mount
shirt
run
this
##ly
background
dri
so
te
view
##rick
kite
##alk
skis
big
dou
##ag
inside
sheep
mir
stands
mirro
plat
pre
##ts
##les
displa
oce
hot
##ets
stu
##walk
bird
##ub
hy
le
pie
##ffic
ocean
##ry
go
counter
lu
##rant
##ang
hyd
veget
hydrant
traffic
zebra
##ras
mid
swing
##do
pass
##orm
racket
##eddy
##dle
airplane
##other
display
teddy
mirror
floor
vegetable
##ook
ref
wi
##ffer
##oth
orange
##fferent
another
dirt
women
anim
different
sidewalk
##ner
##ies
animal
mountain
stand
##eth
##sa
##iling
##ress
jum
tall
tower
##our
plane
flowers
##etting
##ous
che
##ruit
bab
met
hill
sa
parking
fruit
hit
tracks
horses
bro
along
giraffes
im
br
##era
baby
fence
day
gu
ground
vase
head
mo
##vel
##ket
graz
wave
grassy
##ble
##par
hang
snowboard
being
full
cars
fa
vegetables
##two
zebras
stuff
fe
rest
##ey
##ren
station
slop
ad
##ari
##rying
elephants
middle
##kes
bananas
##ated
##ick
tie
##ven
dress
un
ready
cup
image
##the
en
dr
cam
pro
##ip
##ment
taking
hat
cor
crow
them
##uring
##ator
box
driving
vari
##ggage
bes
stuffed
##ave
signs
cross
crowd
sun
ac
##ning
##oli
##ult
bike
piece
##rol
lo
##iger
##ess
##ade
ar
##rush
long
wor
brocc
above
across
grazing
kn
travel
refr
beside
guy
bot
luggage
skiing
##pe
prepar
broccoli
##ust
refriger
skate
wine
em
four
snowy
cows
kid
key
hanging
##elf
don
door
during
##iting
##cor
tele
refrigerator
holds
slope
bic
##eng
glasses
##ese
wii
color
cle
past
pink
##uts
##ten
##urn
doing
rem
tal
lea
##las
herd
camera
##ted
children
pair
##ries
rac
pole
pap
double
rid
track
keyboard
decor
passeng
oven
##ces
##pty
##ful
##out
corner
bicycle
empty
##vis
bag
ser
going
per
high
cutting
cab
walk
umbrellas
watching
who
cur
mar
pot
looks
control
bar
kites
ita
trick
##vision
jumping
television
bre
smiling
bottle
##form
socc
##cker
talking
pit
ag
soccer
din
posing
suitc
catch
stove
dogs
buildings
airport
vide
traveling
video
tv
boats
swinging
chairs
set
##lee
remot
topped
colorful
att
apple
using
lady
hou
all
getting
##idge
body
##ans
birds
##us
contain
##umb
cabin
pain
pat
plates
mon
night
##ainst
various
animals
##oes
against
fore
##eel
coff
brick
##quet
throw
me
##ps
paper
##arding
jet
app
som
home
item
##ft
meat
watch
book
rail
carrying
him
river
banana
lin
##ced
coffee
pol
cheese
can
ram
##ac
lots
##ian
pull
tray
##ething
slee
bedroom
##urant
something
##clo
resta
##ored
motorcycles
restaurant
he
##ash
##iss
waiting
drink
pitch
##der
or
dish
clou
##ool
row
bears
metal
players
plant
##alf
decker
##oll
##erse
runway
mu
tile
##ak
##clos
skateboarder
outdo
about
racquet
toy
brush
carro
##mp
shower
enclos
res
remote
skier
lights
running
dough
mic
pile
##ases
##ial
slic
house
busy
surfer
##ish
someone
store
face
pur
items
hel
interse
##gra
rain
mouth
like
sil
ramp
lying
##ark
screen
passenger
intersection
dressed
line
##arm
##ive
doughn
toward
##oc
##ty
seat
male
monit
rock
surfing
##gs
bal
gre
half
numb
no
##ather
hands
photogra
pan
am
tub
boo
##raw
batter
shown
ha
slice
preparing
##ones
rides
sciss
made
dark
##ire
##we
##ler
pulling
look
colored
ty
##hic
##cl
gray
way
mat
##ges
surround
sleeping
vehic
silver
jacket
scissors
##te
number
suitcase
cloth
photograph
##uce
she
bridge
tooth
##oarding
##ert
zoo
##ife
microw
enclosure
##ny
##iz
post
bet
##eath
hair
##ating
donuts
kids
##pp
surrounded
##there
##ond
tablea
##ween
forest
##to
between
##ale
showing
##aning
##ched
bread
meal
##phone
##ooking
carrots
##ace
bright
lined
pill
decorated
##ect
few
knife
sal
##iform
uniform
adult
microwave
mult
streeta
walks
buses
##ved
cabinets
boys
##anes
arm
older
scen
blan
furn
cand
##iture
purple
##ron
star
furniture
skiers
hu
##man
bran
ex
stat
dock
branch
##old
##pes
##lic
outdoor
grey
stick
attach
girls
oranges
tri
stri
shop
##cing
mouse
lake
gather
pick
pillow
have
cloudy
tea
waves
choc
fielda
##atoes
eng
displayed
throwing
coming
attached
##olate
incl
comm
fork
##day
fre
monitor
chocolate
##ily
making
onto
leaning
clean
ob
fem
feed
##ings
crossing
helm
inclu
clear
##inking
shelf
##oon
dining
perform
ho
salad
gi
stone
##sp
flower
##irth
elect
birth
painted
##dge
cook
scene
sha
country
cats
drinking
hitting
##ime
birthday
market
basket
seen
lush
fla
work
##sed
rocks
resting
pub
towards
multi
windows
female
##int
##by
##ken
public
meter
fruits
##are
sunny
##astic
ass
##art
lay
beaut
tables
setting
##ents
fries
##ance
##ary
apples
##utter
watera
office
blanket
##di
plastic
walls
donut
##jo
moving
##brush
pen
leaves
beautif
squ
shot
trail
stopped
cre
bush
been
ur
edge
tom
bikes
teeth
##less
part
helmet
enjo
books
platform
path
stack
snowboarder
working
beautiful
pictures
smile
towel
fresh
##ric
sub
##dd
short
toothbrush
##lection
##oot
undern
underneath
ste
bel
trying
not
surfboards
assort
topping
ride
##ety
yard
pa
cart
dist
slices
statue
fri
af
draw
mountains
sing
##ally
##pped
turn
##ug
carri
fam
wild
roll
van
lap
wire
having
wet
skateboarding
pieces
nice
computers
ent
placed
##ling
perched
##people
new
##inal
shows
shore
doughnut
pepp
dire
time
passing
eaten
##ca
mil
gar
catcher
lamp
balla
controller
sty
vehicle
put
appl
ti
##ist
cooking
##bo
sandy
police
dinner
ey
vases
they
neck
##dern
hotel
dry
family
pizzas
conc
applian
##ats
trains
land
##ition
tiled
##thers
modern
nin
##ix
##py
##ines
brushing
types
just
##ches
end
sea
##ame
town
reading
others
chick
##ides
##three
##top
base
##ement
##ely
ninten
trun
nintendo
##bor
pitcher
##iti
engine
benches
##ound
watches
hea
single
case
pret
##ley
beer
kind
##ming
laptops
chicken
mounted
cent
ped
du
gear
graff
take
##ject
variety
boards
##cial
sail
jump
##ized
enjoying
cellphone
tan
curb
##tub
egg
sauce
equ
##tain
tarm
left
bathtub
##wn
guys
wheel
trucks
pretty
flat
rack
##vers
sof
graffiti
tarmac
after
pad
pack
see
phones
hotdo
##ush
performing
ce
toppings
doughnuts
gathered
appliances
bowls
passengers
multiple
tricks
dess
shoes
##ger
plants
##ures
cute
fenced
backgrounda
##road
fly
swim
well
containing
place
arran
feat
glo
pas
##ages
pedest
sch
##stru
candles
tran
curtain
stair
##several
flies
rice
pasture
feeding
fish
team
ear
carriage
fr
break
railroad
##he
equip
frisbe
concre
spoon
##ronic
##ins
dirty
below
win
poin
right
##pack
onion
foot
match
poles
##po
including
distance
##elves
cattle
surface
electronic
##end
school
##head
##its
##place
clutter
center
steel
takes
shaped
##iding
##ini
##light
concrete
among
pul
bottles
##ession
bags
ble
backpack
##intage
sofa
striped
##rash
crowded
##que
##ower
wr
polar
pulled
art
woods
nearby
vintage
wra
fan
cabinet
painting
loc
##me
chur
catching
beds
huge
boxes
##ber
sandwiches
object
trunk
qu
##here
direction
sou
pillows
cream
fridge
##cea
rooma
fireplace
gold
five
alone
church
##idea
planes
feet
prof
ju
mess
skateboards
##rist
##ips
giant
style
drinks
##sc
##illa
equipment
stea
round
##onea
suitcases
sliced
but
served
both
del
##ball
##ural
##ged
sinks
reaching
plays
offic
##ical
putting
where
buildinga
##anding
floating
vehicles
container
fo
##vea
##alm
tour
bushes
##essional
##ycl
bicycles
tomatoes
wed
poses
clothes
##de
atop
smiles
beacha
away
sticking
asian
##eather
##ll
taken
##lin
prepares
lays
dishes
hay
##land
serving
spe
pedestri
professional
##ato
potatoes
##vent
##ti
##ercial
##elling
surfers
staring
##set
stall
stain
##lers
grassa
airplanes
##ious
blo
legs
form
##iness
commercial
bak
##mas
dev
##fast
##owing
##lasses
platea
space
reflection
fash
smo
cement
led
pose
fashion
which
rust
##ons
christ
##cy
let
business
design
breakfast
##rench
##etwo
mother
subway
##iny
##unch
christmas
stacked
##read
foods
rug
har
roada
shorts
farm
lone
roo
##ward
##ular
ump
##cking
flag
##ban
tur
straw
trash
##ract
##ugh
##boarding
appear
same
cooked
french
serve
urinal
load
treesa
gard
dessert
umpire
cluttered
kitten
##urry
seated
soup
##lder
highway
ham
swings
docked
square
games
pool
outf
swimming
hard
sung
garden
boarding
get
sunglasses
ret
##ists
fun
##per
mach
pepper
##bb
outdoors
##ults
overl
hotdog
##ars
##ends
wedding
##struction
couches
low
##ige
bur
blender
##ual
##tom
##kets
##itary
##ils
##ethe
##ock
##let
##ens
##fe
##this
ter
##liner
say
cra
drawn
##ned
##ants
clocks
kneel
controllers
##kea
cli
shad
assortment
ind
drives
kick
prod
fra
ice
doors
restroom
signal
##ape
##br
##oni
ceiling
cla
desktop
flock
rocky
jumps
shelves
adults
eyes
wooded
hillside
sho
does
hold
facing
appro
acc
stainless
##io
military
lad
skies
##red
ba
ext
lawn
ledge
##fore
##ident
fall
free
was
##hou
##nic
tou
##vy
pointing
onions
eats
##made
desert
prop
##kers
before
card
todd
lunch
nap
##go
compet
##artment
cru
event
##vert
gamea
approach
we
chop
##irc
neat
make
clouds
vegg
mod
##na
advert
phonea
cost
eggs
roof
tw
##ump
##ef
##uit
coat
cups
says
advertis
doll
construction
fashioned
circ
##ates
##arrow
stru
snowa
##stwo
beda
assorted
disc
race
##ative
outs
attem
mini
party
inter
arranged
##icks
##des
type
costum
fig
things
spr
landing
pond
snowboarding
boarda
##cture
broken
picnic
trans
floors
decoration
##ading
hors
closed
##phones
stairs
toddler
##vid
monitors
gate
electric
##xing
bottom
overlooking
mix
##some
lett
port
##ering
##cakes
tied
##cting
kneeling
##key
graze
must
narrow
deck
arms
boarder
cage
wash
##self
closeup
chef
pasta
glove
wide
fight
hap
##pet
cakes
mag
##ony
parka
##ia
##az
friends
##ium
##uc
steps
messy
overhead
leash
gl
skating
reads
indo
anti
skya
himself
pots
orn
colors
rider
stra
##ctor
net
plain
bever
sides
##ially
##rop
windowa
sale
fancy
sweat
##da
ket
steam
appears
pr
##uter
ship
chain
suits
walkway
pract
rackets
leather
ties
carpet
##so
smart
transit
veggies
cap
speed
rela
foreground
##ican
good
sunset
bite
pos
carrot
model
trailer
partially
features
##ount
##ns
stor
sport
loaded
walla
mis
##oung
stret
action
##ators
beard
drive
pastries
still
mush
##ker
urban
paw
pepperoni
teen
shou
mushroom
held
push
palm
pants
what
pee
courta
##ired
frisbeea
##ooter
toast
clothing
antique
##ib
towels
##uff
wrapped
##very
machine
war
toilets
photos
refle
position
##aster
scooter
doorway
hole
beneath
cas
vis
##ope
##oman
lies
winter
##ence
shade
racing
commuter
tomato
propell
pea
##ne
grill
pastry
baked
gets
power
saus
kinds
outfit
##ise
##ives
makes
##ina
railing
houses
dra
pier
giving
structure
sprink
sy
contains
bull
flip
treea
supp
class
apartment
heads
harbor
used
decorative
fighter
device
##co
blurry
##ring
##nish
petting
island
sheet
wets
lid
sill
spea
fur
grow
##ighting
blond
##laz
self
##cket
peppers
includes
pedestrians
##ork
smoke
sort
sized
##gull
##sting
toys
##tens
##four
kitchena
rests
comf
areaa
siz
chips
##sthe
spot
garage
##nding
##ggy
leading
outsidea
bou
med
##yard
bathrooma
##tered
mud
opened
containers
waters
mound
foll
pres
seagull
prepared
lettuce
##be
mit
use
vanity
##ier
candle
je
vest
aira
bac
nood
stunt
leaf
papers
streets
produce
##bs
##house
shar
upside
laptopa
scul
##many
##idential
lift
writing
hall
bunches
milk
bacon
utens
waits
umbrellaa
rural
beans
mug
indi
##gon
flight
ripe
shopping
turned
pave
strawber
sculpt
tiny
dep
hood
amer
pavement
brightly
##pping
##kin
skateboarda
##itten
cond
alongside
residential
hats
happy
groom
rear
##alle
fencea
##ray
##yclist
climb
pans
meters
log
paddle
frosting
fooda
daya
cal
lamb
patio
##bage
stream
lem
##ield
##ital
topa
personal
sheets
urinals
##erial
soda
rainy
touching
##ange
##gging
nose
remotes
smaller
mirrora
block
##gre
branches
##eds
laid
cub
ducks
ketch
##iv
##ining
cour
sem
sailing
hilla
itself
kicking
riders
term
persons
displaying
wetsuit
butter
loading
##med
lines
ketchup
##pl
##ette
built
deep
##act
snowboards
oppo
leg
six
##bile
tent
practic
juice
mustard
pup
enclosed
officer
ladies
terminal
only
beige
tracksa
american
ow
##mo
##ows
sliding
platter
sausage
ador
costume
deska
##pting
##ird
oceana
directions
glaz
##lies
here
##aper
noodles
##cra
sinka
purse
approaching
##ature
trays
balan
mas
cakea
eye
pipe
goes
dresser
pickup
flags
barn
mushrooms
##ms
##wing
bencha
rais
##gged
throws
elder
uses
leans
fried
##ster
uniforms
decorations
wait
racketa
individ
parade
collection
semi
##ible
togethera
gas
ornate
laugh
pin
cons
hangs
paint
posted
##yclists
sweater
written
deli
freez
propeller
mitt
most
indoor
##ior
char
liqu
bride
pulls
elderly
crosswalk
attempting
growing
sim
##iff
rolling
beverage
stad
sailbo
utensils
pour
##ral
runs
floora
fake
tank
individual
wavea
guit
ol
these
tong
##omot
lam
##craft
stadium
handa
##ully
neatly
spread
passes
jets
##gan
greens
pizzaa
spect
##erry
##els
##rounding
flor
baskets
surrounding
comple
micro
gent
if
##als
##cted
locomot
relaxing
supplies
life
goats
##scape
formation
cara
bending
curled
##ser
potted
fast
transp
##fl
##erts
tax
course
pet
signa
handle
patter
missing
##ton
##ues
##ked
roses
how
##bi
roadway
por
siting
stationa
paved
##boy
hear
tool
snack
##site
sto
airliner
packed
sold
sticks
aircraft
shirtless
shoe
locomotive
bell
crou
##ness
##seum
##ended
falling
##uffy
motion
checker
museum
duck
gentle
dim
capt
rows
sports
cele
ang
##cked
separ
booksh
performs
##cake
practicing
glazed
guitar
celebr
##case
without
wagon
chees
haired
aw
##inish
##rance
arrange
##hill
toss
##allow
##ices
tail
coll
piled
sculpture
##nel
section
grounda
toothbrushes
floral
##bow
dead
##ware
tops
adj
fir
trol
##umer
talks
jeans
lamps
cycle
hum
##ath
electronics
arrangement
##og
shallow
spectators
soft
wheels
frame
cro
rope
also
cupboard
telephone
ingre
ingredi
steep
##sted
fing
##woman
bucket
flown
balls
garbage
pedestrian
##cts
##estwo
##essor
delic
cop
foc
toaster
stool
covering
rub
##com
selling
##iers
##eback
bank
homemade
selfie
opposite
paras
images
cool
##asing
mus
##bur
##erries
slopes
return
##bed
##ered
sniff
slopea
jetliner
wires
curtains
cupcakes
travels
patch
exh
freezer
gro
numer
##line
##ctive
toileta
##abit
pitching
hotdogs
da
buff
##usk
horseback
aut
skateboarders
hits
remo
##allen
tongue
icing
tu
counters
muff
fallen
fluffy
cones
hous
us
aslee
marble
objects
competition
pushing
sprinkles
tab
peoplea
shirts
headphones
##ertain
newsp
strawberries
puppy
asleep
stuck
habit
##ooks
skirt
motorbi
##umin
corn
blankets
ingredients
##ta
pictured
workers
mixed
visible
lab
na
string
snowboarders
faces
neon
downhill
doga
stoplight
organ
kitea
##ways
##ooked
exp
tiea
washing
checkered
chin
stud
mirrors
##lit
chaira
tiles
gathering
rolls
mop
balloon
whole
golden
climbing
frosted
rep
shoulder
tast
##wood
##amic
wears
blonde
habitat
bent
reaches
far
buildingsa
featuring
wing
entrance
citya
furnish
coach
##aged
moves
officers
transport
lond
range
##oned
hills
stickers
obser
magn
london
even
cargo
tracka
landscape
pouring
au
hers
bul
carries
##ental
napkin
shiny
someones
chil
covers
##ila
##os
##ough
shadow
olives
stee
holder
great
first
jar
##ending
plan
batting
condim
##time
cookies
##ountain
laughing
delicious
loung
name
pige
##orter
blowing
liquid
jo
tun
##van
sidewalka
potato
bare
rainbow
ahead
hambur
figur
exhib
##ied
ins
##asea
conf
thema
prin
cr
fountain
##mall
arch
enjoy
beef
bata
desserts
thin
checking
cleaning
miniature
blow
gravel
opening
indic
lighting
fishing
cardboard
interior
trav
shape
steeple
##car
##ka
ona
shru
grilled
##ured
goat
saf
mobile
basketball
##ded
weather
##lage
##ently
sug
alley
##aked
turning
advertisement
teenag
##rial
bunk
rusty
cust
den
proc
booth
bit
##rot
cowboy
cameraa
crust
trolley
dot
tire
vol
##ited
##alla
plaid
##anta
displays
entertain
microphone
bookshelf
sad
coucha
size
muddy
tabby
dow
catches
pickle
located
clay
focus
##men
##ethere
carts
flooring
accessor
herself
cran
##urf
spin
leag
fold
lar
rad
##olored
countertop
##spital
rusted
indust
depic
travelling
cere
odd
feeder
hospital
jock
##iet
forward
##thy
unmade
exhibit
bri
cer
downt
dump
lane
mead
backs
controls
story
industrial
sec
spray
multic
magaz
eith
every
nic
##nect
##was
stir
##eting
lif
scar
balc
hallway
collar
chest
attire
gloves
sharing
either
##ging
thrown
##iled
brushes
helping
matt
frisbees
taxi
tools
ceramic
meadow
neigh
posed
comforter
##most
custom
##ano
onl
stage
##stem
libr
system
condiments
sugar
jockey
av
calm
main
driver
series
groc
newspaper
library
aerial
##uzz
grapes
surfboarda
uni
words
ill
##lish
##fully
moutha
padd
following
league
bill
biting
calf
##black
stares
accessories
##washer
fil
iron
own
othera
freshly
seems
connect
dishwasher
cliff
nicely
neighbor
more
santa
##hood
##attered
peel
chasing
watering
susp
almost
seats
designed
twin
band
gaz
##wh
para
sleeps
pancakes
heading
steak
foil
mostly
multicolored
serv
picking
audi
chili
##sth
matching
baking
mattress
nat
##asting
mans
grand
apron
railway
tasty
jumb
##ail
##stri
hugging
chinese
onlook
##grou
tennisa
bouquet
seagulls
balcony
cush
dig
wings
##work
amongst
warm
comb
aband
canop
gentleman
pow
neighborhood
cushion
el
##zen
##ility
marina
statues
funny
burger
advertising
sidea
##esting
motorcyclea
foreign
straight
finish
##oun
##allic
arrow
countryside
teams
lemon
larger
##mer
ribb
##stand
convers
sniffing
father
##isting
cuts
leaving
hima
order
buffet
housea
hamburger
cig
pri
tractor
##ried
prepare
heavy
bakery
abandoned
thick
beg
intera
metallic
typing
baggage
paws
tin
##tor
##aste
countera
owner
jumbo
cigar
dust
vend
##ters
chewing
sunlight
trunks
heart
fed
fixt
##ggles
chopped
natural
id
sets
surfac
resort
attempt
horsea
##group
##ront
##olf
##ute
horns
trucka
formal
driveway
dimly
organized
cases
dusk
jers
tries
##amp
disp
worker
move
busses
##ption
winds
cold
framed
circular
mask
entertainment
folded
pop
pony
##gress
##ightly
##quets
poster
downtown
jersey
mass
rose
candy
hung
castle
motorbike
mom
strol
bik
turkey
connected
emb
tim
##bble
shining
computera
prote
helmets
dryer
bearded
bra
unus
propped
polea
devices
produ
##ival
magnets
bay
son
fieldtwo
progress
boots
hose
##ud
##und
##pass
instru
level
sailboat
##ama
read
toothp
onlookers
ring
##front
traina
busa
motorcyclist
guard
besides
hiding
tus
##chair
bund
upon
##eman
obst
should
lounging
fab
ple
##ung
backyard
quiet
tossing
evening
tunnel
canopy
##sea
##young
##alley
cafe
##coming
wit
tablet
flood
point
desc
bowla
males
savan
cupcake
ovena
amount
step
adorable
porch
scarf
golf
roam
piano
##stre
kitty
racquets
storage
reflected
present
obstac
##pers
##pher
##mes
##zy
lighthouse
contents
raised
illumin
furry
sid
##large
thumb
licking
monkey
wilder
audience
lang
oper
lota
separate
grocery
powder
rel
##vated
bya
beara
##ift
bikers
##vely
tva
rails
strip
hardwood
langu
parrot
skiis
rec
saying
bars
##istic
chefs
spinach
gri
stran
scattered
tag
mountaina
grazes
squat
dispens
savanna
lear
sla
##ees
##za
##rain
barrel
warning
##ened
##ord
##anda
collage
crosses
airporta
rivera
friend
smoking
circle
fabric
word
works
##usting
heal
freight
shaking
ears
lambs
balancing
unique
mel
ori
than
##ngle
blind
runwaya
football
jungle
awa
finger
music
cu
fair
link
##use
itthe
rampa
stretching
comfort
simple
bikini
ge
pean
##ments
peeking
nam
polic
lemons
##ounge
talk
##oe
ant
need
played
##illing
goggles
fauc
thems
belt
sizes
delivery
safety
fans
##view
storm
shut
parach
##sthere
really
##ethree
silverware
drawers
leafy
hi
hom
ath
cookie
peeled
moped
suspended
flowersa
cupboards
volley
##xed
fixing
lighta
furnished
ribbon
themselves
lounge
##rib
daytime
unc
ladder
figure
hip
ke
ut
prot
keyboarda
nighta
##ooters
fighting
pine
skin
surfs
rece
##ipped
pickles
magazine
fest
nuts
villa
thing
##owed
bats
snea
carsa
courtyard
shorel
complete
muffin
inf
towering
screens
indoors
classroom
cereal
##gir
##atwo
clocka
reg
clust
logs
haul
##ught
##orting
cellphones
lean
tourists
surfacea
inst
gran
##ument
scooters
goal
pairs
quil
cigarette
too
plaza
closet
blu
stops
soap
sau
headed
foggy
consisting
process
strange
##ells
doub
vegetation
camer
barri
photographs
army
sticker
rustic
##bbing
healthy
panda
##aking
##where
##ination
##eap
##ebo
grin
##oney
project
knit
trim
points
speakers
numerous
crane
obstacle
##rat
##ze
##omeone
motorcyclists
slightly
buns
##lash
tricka
canoe
microwa
beverages
pigeons
det
tat
comes
tusks
berries
eu
##lines
##hol
stock
shri
upa
bedsp
picturea
meeting
noteb
wrapp
fat
valley
##af
##ifl
##anger
heada
lob
shops
peace
charact
students
shoreline
bedspread
act
bin
dan
puts
##gie
shel
arri
positioned
softball
balloons
observing
toothpaste
wading
swe
pedestal
oriental
kept
cone
dem
pump
bathing
eleg
skyline
maj
crossed
slicing
layer
approaches
paddling
wilderness
goo
##val
stem
##raying
##ulifl
airlines
waterway
conve
slow
catchers
##ashed
##cloth
material
##toon
exc
direct
conversation
shrimp
fry
grabbing
silhou
exam
forks
beak
reach
fully
reflecting
vendor
attempts
dispenser
lis
may
wand
will
any
##icle
caulifl
colle
leaping
pens
##wards
illuminated
faucet
granite
elegant
fol
min
wre
arena
waving
boxa
monument
drawing
classic
teenager
service
peanut
kis
trough
sideways
desks
caught
##unk
numbers
button
##ucumb
repair
village
cucumb
tight
ware
##person
##ole
##vest
##icop
coast
lighted
patterned
crash
##right
themed
knives
helicop
mall
pud
ru
trop
##ined
##phonea
raft
spa
diam
skisa
leads
married
sailboats
cheesy
flooded
cans
had
kay
str
itan
groups
herding
cobble
afric
designs
snacks
cauliflower
##pon
clos
blur
split
mov
heard
note
owl
second
euro
diamond
greenery
factor
much
bald
interesting
unusual
skater
##ific
dried
boogie
portra
strapped
tropical
drying
ostri
tasting
seas
recor
umbrellasa
nightstand
freeway
bad
roman
##my
##erence
within
roast
backa
conso
stopping
deer
spac
##aging
print
goods
individuals
helicopter
##cast
##ities
##labor
atten
tablecloth
poss
overpass
splash
##angular
unf
keys
terrain
stovea
celebrating
massive
roaming
##eapple
convey
now
##pid
##hed
stable
upright
cartoon
histor
baseballa
limb
tags
english
##boat
shades
costumes
daugh
fixtures
doubles
factory
cel
##dition
spraying
cellular
wiia
canal
turns
spoons
relax
transportation
windsurf
europe
hal
tents
airbor
compan
fenc
hydranta
garnish
ornam
human
autom
utility
##ider
##ots
buggy
recl
piles
indicating
handing
mi
##aring
##apan
text
fac
photographer
tuba
gives
pineapple
bor
##vi
##oored
##ably
boarders
baga
polka
##close
soldiers
figurine
language
quilt
console
bis
come
cree
love
##met
##ky
tabletwo
basin
elevated
rect
vegetablesa
brid
unlo
doora
cornera
waya
depot
pattern
adjusting
notebook
eight
eag
hooked
japan
tiss
##oping
whit
stance
dest
tape
knee
zooa
weird
brief
thumbs
grinding
portrait
ren
waff
##bag
backd
dec
depar
float
##ations
mac
tex
brit
bananasa
winding
speaking
sharp
ident
learning
airborne
mashed
##gu
compartment
alco
bagel
cloud
cleaned
extended
conference
crib
elabor
keep
naked
##ode
##rome
site
blood
seven
wake
wicker
hangar
world
include
butt
savannah
grown
##ls
##stone
##sticks
watertwo
##shirt
oppon
boata
drivers
canad
posts
flav
alcohol
frying
tar
babies
rowing
pathway
drawer
geese
kissing
backdrop
pug
ris
##mon
##eter
##ico
streettwo
bean
snu
carry
phon
overcast
glassa
headboard
prov
panel
happ
##plane
begin
festival
daughter
##ditional
##ma
third
##alt
##vering
cathed
youth
metro
amid
winea
teenage
toasted
##sthree
squatting
hauling
listen
cathedral
nur
##mit
##ater
worn
message
farmers
crack
circus
chained
wrapper
rot
##tru
##den
##idy
##andel
##eeled
such
##ills
photographed
billboard
digital
blueb
cast
##ws
lie
deser
asph
##ational
logo
broccolia
curve
seating
signals
extra
figurines
depicting
uncooked
jars
shap
china
downa
knif
jackets
trio
sails
products
british
ot
pig
sol
##uits
##bing
##hand
##kins
towing
gravy
scenic
enter
customers
stroller
sneakers
heat
##too
##gers
stom
##ised
shines
carous
skysc
bikea
knees
roller
package
special
retur
practice
medium
##ners
pears
##ables
rob
placing
##arious
barbed
suitcasea
attract
windowsill
artistic
kettle
adorned
shuttle
closely
conveyor
skyscra
returning
hind
##tra
chrome
imp
barbe
aged
commode
competing
printer
##white
major
african
stomach
ger
vasea
thre
ones
towers
grab
press
marked
meats
bridgea
backpacks
tourist
strawberry
carousel
pay
selection
force
arounda
donkey
stripes
cluster
lobby
directly
deserted
asphalt
call
cooks
foli
##life
##itch
##ately
anch
##ution
ittwo
places
##acks
##elly
pocket
handsa
stationary
camp
kitesa
rocking
expo
##deled
cruise
inspe
powdered
tattoo
sweet
gy
sat
were
##tie
##ops
when
skil
super
cola
togethertwo
sandwicha
check
potter
subur
entering
calico
soldier
crates
foliage
gour
##ient
##father
##ains
boardwalk
macar
sauc
emer
curious
help
newly
##pod
electrical
stretched
ostrich
mixt
opponent
eas
rop
wo
thru
##owers
##otic
frozen
suv
podi
umbrell
lightsa
midair
dressing
meas
memb
enclosurea
stepping
staircase
fog
stalls
cubicle
crouching
shoulders
puddle
european
mixture
dash
mes
nest
tiger
vac
yog
##ively
care
intently
##ummy
scrat
tube
wheelchair
paintings
chopsticks
balances
stools
archite
radio
names
snugg
shapes
podium
ferry
gun
##ula
streetlight
##amb
slide
##ccup
dip
runner
checks
envi
loaf
keyboards
maroon
planter
storea
dual
extre
dusty
warehouse
listening
rings
tee
##gen
##rong
plains
chandel
##aded
suite
raw
##ests
cellphonea
towera
unit
array
bicyclist
sleep
##ronment
partly
racks
angle
muffins
antel
infant
leaned
rectangular
texting
environment
lower
##een
mane
##iday
##eball
##amas
pies
disk
divid
lego
refrigerators
glassesa
bookcase
feeds
portion
spotted
caption
rubbing
tuxed
express
operating
policeman
parachute
barrier
macaroni
dug
gall
##five
##various
tort
##ooth
necks
shear
tablethe
##cept
##rup
grasstwo
coke
caf
chairsa
starting
rocksa
shots
paj
wildlife
artwork
harness
indian
claim
syrup
##flowers
grandfather
cudd
try
##tim
##cue
##food
##athe
cherry
sum
tagged
spat
floats
apart
showera
outfits
craft
touch
parasol
priv
excited
blurred
spacious
border
map
ox
inform
peering
grassland
firetru
dipping
serves
curved
televisiona
somethinga
raina
uniformed
competit
speeding
stretches
sprinkled
##gn
##ales
##rent
##lain
needs
walled
elephanta
lodge
restauranta
cabinetsa
brancha
sofas
quick
##someone
flipping
remodeled
silhouette
cobblestone
elaborate
skillet
##amboo
bamboo
ed
hut
si
san
##fts
##urt
##loy
dozen
signage
younger
menu
hitter
snowboarda
unri
refrigeratora
fingers
crate
shrubs
skinny
demon
tidy
##field
##orn
ships
plu
plush
capped
traya
drinka
stacks
shrubb
athlet
pajamas
york
##cars
##ino
##icip
streetthe
lakea
##celain
bowling
mountainous
wavesa
engaged
entree
letter
figures
stunts
parasa
movie
gourmet
aven
rab
##con
##suit
##bu
traditional
holiday
alarm
biker
tech
bicyclists
diner
clearing
carriages
washer
glowing
##inished
pigeon
tissue
identical
dam
fit
jeep
jelly
##pris
##ose
##mar
though
##oose
##utes
parts
##str
skiier
mousea
##shi
viewed
bigger
##ethis
cupa
booka
porcelain
rubber
teenagers
awaiting
japanese
shrubbery
heel
rol
rout
rough
##green
##por
##obile
stump
##ora
##icap
rode
somewhere
cata
grind
woodsa
gaming
treat
mail
united
barren
stores
start
cooling
unfinished
ottom
suburban
spatula
iced
king
mem
##tched
##ara
infl
motel
handicap
real
lining
pitched
penc
notes
##box
foam
farmer
spots
blinds
dancing
possib
done
fer
file
moored
pane
peng
pork
tying
##nes
##ana
##onal
fix
roads
roadside
##umn
treats
opena
banner
cutter
engines
separated
navy
hiking
automobile
gym
possibly
junk
lead
sle
tro
##pan
##ckets
##etti
cock
windsh
scra
swung
bunny
clown
viewing
faced
facea
ovens
##izon
stripped
appliance
chickens
equipped
weeds
plent
##street
celery
bisc
mural
##ether
upward
signsa
waterf
towed
handbag
wallp
opens
emp
balance
haw
##eathers
teaching
distan
garlic
outsid
bulls
silly
lifting
hipster
protest
reno
crackers
attractive
rabb
pengu
bid
que
##off
tor
##semb
fieldthe
##ssome
sushi
horizon
othertwo
compact
scru
displaya
locked
screena
local
##uzzy
eagle
windshield
ave
bla
cot
letting
mer
rh
sam
##uss
##inea
##aseball
tram
itthere
##rie
bends
##eseveral
breaking
attent
mean
forested
tiered
pads
blocks
outfield
powered
hoodie
cubs
happily
aff
dun
fle
fut
lon
pant
til
##noon
##ua
##pad
##aks
##cat
##bird
##fo
whipped
champ
horned
lime
stopa
def
dirta
hata
remotea
steer
afternoon
retrie
falls
letters
bullet
else
unloading
yogurt
chandelier
tuxedo
pir
pil
wool
##yed
##alks
wheeled
peas
doz
grouped
outstre
playground
scale
treestwo
maker
adm
ridding
breast
pitchers
crest
teetha
yarda
blocking
decked
crouched
interacting
windsurfing
company
buttons
ottoman
cit
drop
fuzzy
money
##ually
##rit
situ
areas
surpris
poised
##ache
alumin
slides
handles
baref
##acent
squar
juic
delta
##vention
stained
visit
called
adjacent
relish
##iw
##wear
##law
##andal
##ulated
spar
##dless
luggagea
watched
##ocad
females
bloom
gliding
##ivity
butterf
humming
aluminum
feathers
jam
##atable
##ically
rim
coles
coats
toiletries
caution
##thing
driven
preten
hudd
stripe
forka
shaggy
belong
pointed
sausages
followed
avocad
pottery
firetruck
unripe
avenue
plenty
outstretched
coleslaw
oil
page
tem
vic
vandal
##iner
##inger
shed
pipes
carn
ballthe
wallsa
papera
perches
dinning
news
directing
flatbed
##post
grizz
kayak
halves
depart
provide
german
bru
cass
dom
sled
ul
##yond
##asp
##chet
beyond
outa
skates
poking
beachtwo
convention
assemb
sanda
diving
contem
sheepa
cabbage
setup
##izing
distant
necktie
wrap
mixing
adjust
bricks
folding
dugout
parasailing
memor
##book
ther
##ener
##child
manne
##ilar
bump
grasses
bedding
asc
aspar
windowsa
sprou
sleek
holes
flowered
stew
bushesa
dolls
sweatshirt
similar
insidea
saddle
peeling
times
stocked
character
wandering
dru
pets
##ien
##mat
##vily
##alled
##cher
robe
waterm
club
socks
animala
hilly
theme
##ulti
coffe
itemsa
pillar
steering
crouches
embra
comfortable
quickly
rabbit
mannequ
bb
ipod
pel
tug
vast
##ude
##aw
##hor
##fruit
smooth
hera
photoa
span
swan
swans
mountainsa
hanger
ramps
matcha
cards
cucumbers
strings
measuring
members
plugged
inflatable
waterfall
wallpaper
bidet
dozens
ever
kiw
pou
und
##gy
##ern
##ense
mantle
flash
nearly
plated
broad
cord
leave
marsh
bananaa
exit
heavily
location
##berries
symb
raising
complet
bites
gazel
melted
anchored
antelope
champag
situated
vandalized
asparag
overs
could
##ions
carved
fronta
sewing
##tled
##anging
leaps
##erseveral
storefront
trip
marketa
squash
kneels
chopping
portable
speaker
consum
cops
furnishings
slab
rolled
employ
19
cyclist
dad
esc
nuzz
zone
state
share
fields
airline
backwards
##emen
altered
backgroundtwo
social
guests
unable
corral
suna
current
appet
layered
lands
bleach
liquor
cooler
finished
interactive
private
demonstr
sparse
asparagus
20
dro
hun
pon
tul
tether
won
##ella
thats
smelling
roomtwo
lung
midst
##park
helps
smiley
carrier
styled
discuss
cycles
croiss
descri
knitted
knifea
threw
heels
barefoot
casser
bbq
symbol
crown
rise
sour
##ection
##hua
##lete
##ics
ital
training
sex
kitchent
cages
##estri
legged
##olli
shaded
price
sculptures
numerals
motorbikes
washington
mopeds
grizzly
amb
cyclists
pal
rasp
##band
##multi
##du
incoming
##ening
stating
##iring
ske
persona
##amese
tending
airfield
herbs
coca
wax
grape
soaked
curba
##sthis
##giraff
dashboard
information
route
champagne
dorm
filling
oval
year
##ex
##eled
##lera
##col
##yl
##ury
horn
bend
studi
watcha
polo
shake
flaming
takeoff
crumb
pushed
boun
buffal
tucked
combination
protective
slowly
college
spagh
surprised
completely
casserole
hed
mor
poo
##vd
##vet
##ester
##iced
rapid
broc
##ipping
travelers
mex
meatball
cheesecake
posters
strike
blanketa
touches
medical
celebration
labeled
beginning
##gency
##porary
huddled
studio
iphone
noth
oly
ran
sig
##iving
##can
##bath
those
paralle
busines
basil
caged
taped
spire
reve
biplane
soaring
hydrants
dresses
cords
colorfully
perf
rams
##ished
seata
stare
monitora
shelfa
squir
##dded
mixer
dragon
crochet
creek
destination
maneu
nothing
olymp
best
cable
ges
lat
nut
yar
##using
upper
waterthe
conver
fruita
brand
serious
perch
canoes
landed
accom
veggie
smartphone
comfortably
microwavea
blueberries
queen
pirate
spaghetti
brow
hour
non
rou
##sk
##baseball
##mot
instruction
##ouf
shre
##sters
rele
camouf
shaving
leavesa
patha
singing
shoesa
accents
casea
angry
parasail
lifts
presentation
##girl
installed
waffles
emergency
scratching
rodeo
watermel
miss
vert
##izz
oncoming
##ased
##ett
##igating
##eboard
streetan
limit
##orted
##angle
meals
clearly
crew
featured
cabinetry
##ocked
stretch
draped
opposing
printed
sauces
characters
briefcase
saucer
lonely
bleachers
parallel
gesture
fin
ome
occup
tanger
yet
##oise
##zeb
##aling
skull
##emet
sporting
oceant
camping
rocka
booksa
machines
cram
twig
mustache
carpeted
##what
instruments
barrels
tulips
buffalo
cemet
deb
fill
give
##pie
##mely
tablean
change
wallet
raila
appar
mountainside
standa
preparation
watchinga
marking
cloudless
mugs
pana
states
entry
##boats
artific
quite
directional
makeup
nav
##ebody
shelving
relaxes
##timate
penguin
ultimate
yarn
aqu
mill
nes
##small
##ki
##atea
invest
##eties
##eling
##ids
##olit
rod
gametwo
bron
varieties
curly
smilinga
##ishes
greeting
darkened
picked
friz
ends
frames
consists
musical
gazing
begins
bundle
athlete
volleyball
regular
stems
materials
historic
canadian
barbecue
siamese
damaged
##children
tethered
##multiple
perfect
hur
honey
my
ni
oct
rand
sight
##ney
##vil
tablethere
parent
motorized
deserts
slip
moon
nighttime
pitcha
obama
lapa
official
burning
steamed
bookshelves
bulld
fixture
deta
wrest
season
extremely
summer
distancea
shredded
artificial
aim
got
hook
icy
nine
telling
##atory
neckla
nearbya
south
choppy
taxis
enjoys
paddles
cameras
arriving
exposed
carnival
dol
fu
oak
sanding
tick
strewn
trainer
coin
cozy
lip
sco
flowing
lux
refer
walka
polit
foresta
towna
wheeler
##lights
blend
extends
glides
chains
follows
presents
stirring
policemen
butterfly
department
sprouts
coffeea
signt
bins
gad
kicks
##ela
##pia
##bl
##chan
somewhat
wateran
skiiers
roadtwo
##shop
gradu
trek
abo
camper
arched
skatepark
curvy
controllera
bottlea
intersectiona
hund
docka
##rict
doesn
awning
tires
projector
microwaves
crashing
tarp
easy
vacant
victor
italian
ambul
morning
mexican
businesses
accompan
watermelon
pale
##nam
##cot
##zard
##vation
mana
##ersa
peers
##pled
airways
##dog
##othered
jumped
metrop
decorating
pita
somebody
hello
scissorsa
exiting
pena
accident
balanced
olive
student
planea
everything
jockeys
sided
homes
homea
cucumber
tortilla
evergreen
rounding
omelet
filed
lion
##pot
##cre
##cut
##res
today
strong
beat
batters
##aint
##ples
limes
wav
spices
airplan
animalsa
mechan
furniturea
striking
platforma
submer
carton
earth
early
##berry
turqu
overlooks
medic
president
utensil
sniffs
dotted
countertops
everyone
historical
nursing
architecture
competitive
attention
wonder
debris
nestled
random
gadget
less
rese
rather
wig
web
##bee
##rest
ann
##ory
buckets
parents
smothered
##stal
windy
graph
offa
shirta
horsesa
themtwo
racer
napkins
propellers
vests
condu
belly
removed
warming
flavored
rising
rotten
cafeter
hummingbird
avocado
##olitan
turquoise
resemb
cry
gated
ic
sells
woo
west
yach
##gle
##hree
##hich
##oy
stones
##oms
##lapid
plaque
flush
backhand
cong
grabs
underwear
flore
contra
##ified
backgroundan
kiteboarding
pregn
##ipe
doughnuta
equestri
##liners
shady
pours
safari
paneled
escal
brocolli
cemetery
submerged
cafeteria
##lapidated
##cows
##hus
##wise
##dant
##lets
##eda
##ament
flan
sandwhich
backgroundthe
lovely
know
servea
liner
bedrooma
noses
particip
jumpa
lounges
depicts
slaw
##guy
skyscrapers
mesh
cuddling
raspberries
referee
10
blaz
craw
wines
##now
##gly
##ai
##cis
##cul
##brown
##bread
##dit
then
buying
shoo
blows
mote
giraffea
alert
##rispy
##unching
trey
sword
metera
ridden
bricked
meet
orch
stars
burnt
clad
##efully
gentlemen
facility
expression
kiwi
gazelle
sexy
##estern
pregnant
dance
found
late
lanes
mad
tide
##looking
##dated
##reds
##rofo
stalk
##ister
buy
skills
trailing
rip
##rus
##station
your
##airy
scre
skyan
mirrored
bicyclea
bagels
resid
scissor
shopa
district
milking
wrapping
fridgea
kittens
crafts
compete
cruis
speeds
drain
pupp
dais
label
indicates
radi
digging
splashing
garnished
rises
snuggling
bumper
embracing
appetiz
ambulance
metropolitan
est
faded
kiss
leng
milling
pac
wel
##glasses
##uses
##cock
##od
##wor
ofa
##alog
womana
chalk
##ades
picks
carving
busted
basea
seed
fences
passed
knick
paperwork
boot
toppingsa
lapse
wireless
lampa
eyed
swims
retro
retail
##ensive
cloudsa
pushes
support
wetsuits
jew
magazines
waffle
canada
wok
techn
camouflage
cin
dairy
ga
hid
lens
pers
unt
vending
##ele
##tage
##pa
##oid
##zing
##rots
##urity
sepia
firepla
dilapidated
anothera
guiding
knocked
patron
except
commun
styl
##ready
machin
##bbles
cracked
autumn
lifted
shelter
skyscraper
ropes
torn
medicine
##rofoam
length
gener
mc
mama
tip
##uting
##ake
inv
##ilight
##ilies
areatwo
##vered
tabletop
cherries
buss
already
intric
##rought
traffica
##arian
crowds
sunflowers
remains
pati
platesa
typ
shorea
styrofoam
pasturea
function
washroom
condition
blocked
raises
transporting
cheesea
auto
processor
security
instrument
pumpkin
examining
attending
fencetwo
amidst
inspecting
athletic
lettering
admiring
visitors
pretending
grapefruit
bronze
hundreds
crystal
escalator
ginger
##come
##kn
##irds
##idger
##erst
shell
plow
chat
docks
beers
grouping
dogsa
fieldan
fieldthere
fieldthree
rooms
backed
livest
cact
##ements
roadthe
teal
daylight
moss
##ketwo
boxing
sunsh
paste
caboose
barely
bottled
deckered
purch
mouths
exotic
triple
partial
seafood
twilight
spring
bells
archway
oddly
squares
squirrel
olympic
##zebras
octop
patrons
livestock
lite
var
##pic
##ddle
##rola
tof
stored
chip
##anted
roomthe
##mbled
otherwise
grain
eatinga
##unches
handed
spir
diag
##apers
decorate
walked
marker
barb
patrol
linens
posta
hovering
enthus
duff
phonesa
formally
gamesa
claw
holders
napping
mascot
captured
returns
job
everywhere
arrows
vendors
bundled
goose
roasted
reclining
tilted
tangerines
equestrian
ais
cd
cane
gown
jug
rv
rig
sound
##lings
##cess
##min
##walks
##reme
##ould
neut
##ebe
chi
frog
snap
grassthe
##ycling
overg
cak
littered
contest
platters
crowda
##pective
##urned
barric
televisions
hairy
meala
starbu
hovers
noodle
calcul
sectional
stoplights
cerem
owners
timea
ornament
divided
grinds
citrus
adjusts
smoothie
necklace
accompanied
##namon
radiator
cinnamon
typical
neutral
dome
find
fist
gone
gates
jack
vent
##gate
thread
##atic
##enting
##rous
streetthere
flips
basic
kits
sear
seeds
foodtwo
alp
spark
clip
wiping
knacks
panor
shepher
tier
##ixed
packages
appearing
burrit
##plate
taxiing
##strip
goalie
rugs
hawk
contemporary
ascending
##piece
bulldog
puppies
cant
dalm
would
##aila
##cycle
##cient
##dled
analog
##raut
##ote
whis
laund
beca
##adult
grassan
bedtwo
sund
beached
sandals
treetwo
litter
biking
##ormous
enormous
height
amuse
breada
incline
seem
stairway
trashcan
extending
advertisements
partya
washed
reflects
peacock
calves
recre
examines
record
robot
pilot
belongings
mannequin
describe
ranch
##motor
hidden
##idgerator
aisle
starbucks
ceremony
because
dang
dvd
gn
pc
ses
tired
##turned
##his
##itude
##lent
ina
##rail
##olog
waling
waterfront
##entwo
surfboarding
cole
##ctors
live
benchtwo
taco
spars
cowa
courttwo
platetwo
markers
monster
planta
hazy
scenery
candies
lamppost
tanker
packaged
cabineta
businessman
hamm
hammer
shadows
ledgea
##uffed
handleb
##little
radishes
availa
conversing
product
presented
named
creepy
galloping
troph
hedge
cramped
tofu
enthusi
amusement
danger
eff
fran
fine
might
wrist
zo
##port
##cou
##dress
##ared
##arella
ancient
stay
stere
##omb
##icea
roy
parl
airstrip
licks
windm
lugg
##icking
linen
##graph
exer
shaved
friesa
##dible
vanilla
appliancesa
foal
accent
reflective
##coat
hooded
climbs
numeral
removing
spinning
readies
pumpkins
recording
recliner
##closeup
heater
pencils
scrub
futon
##horses
bouncing
conductor
octopus
shepherd
sesame
sparsely
available
hooks
mur
master
native
trot
vi
vane
waste
western
##bus
##bably
##ha
inj
tourn
toned
##oween
##ckey
##isher
##ided
##ica
atv
bunt
chan
downward
buildingan
##zzarella
handled
raquet
##ago
standard
mozzarella
marching
applesa
linea
drinksa
raining
pillars
basketa
workstation
donuta
subst
wired
eatena
concert
burner
burners
eventa
##ucch
salea
peeks
peach
dragging
halloween
practices
charging
captivity
trolly
##athers
dots
fedora
stormy
barriers
destro
architect
sleigh
biscuit
renovated
dropping
##ettes
tournament
