[PAD]
[UNK]
[CLS]
[MASK]
[SEP]
!
"
#
$
%
&
'
(
)
*
+
,
-
.
/
0
1
2
3
4
5
6
7
8
9
:
;
=
>
?
@
[
\
]
_
`
a
b
c
d
e
f
g
h
i
j
k
l
m
n
o
p
q
r
s
t
u
v
w
x
y
z
##e
##d
##s
##t
##w
##o
##l
##p
##n
##r
##c
##h
##m
##a
##i
##g
##z
##y
##u
##b
##v
##x
##k
##f
##j
##5
##0
##q
##1
##6
##9
##3
##8
##7
##2
##4
##in
##ing
##it
##er
##an
th
on
##le
##at
of
##ar
the
in
##re
an
##ith
with
##ro
##en
and
##al
##ed
to
st
##om
##es
##ding
##as
##on
##ow
##ck
##et
is
##or
##ir
##ch
##ou
##is
man
##la
##op
##ting
sit
##ra
##all
##el
##oo
##id
##il
ne
##ot
wh
##ers
##ol
##rou
stan
sitting
##ig
##ge
are
##ut
##ic
##wo
##ard
##ab
at
##ea
##king
bu
sk
pe
##ite
##ying
standing
##ople
two
##ide
tra
##eb
people
##ur
##oard
wom
##xt
##able
sh
next
white
##ver
it
##nt
ro
woman
##ass
##nd
pla
##ff
pl
##ile
hol
##lo
table
stre
ch
do
cou
street
la
##her
be
##ome
fro
fi
##ood
bo
that
par
holding
top
##own
grou
sm
##se
##ce
some
##erson
##ack
person
##ate
bat
##arge
##ant
large
##ad
##ri
##am
gir
down
cat
wat
##and
up
pi
fl
##eld
group
##ion
ri
sn
##ru
car
dog
out
##ng
##igh
field
##ve
near
snow
ten
small
wal
##nis
clo
train
##ign
##ke
his
##lack
front
##ul
tennis
park
gr
black
bus
bas
sur
##room
##row
##ee
sign
##ain
##ell
##ree
room
##ure
##st
riding
##ay
##ind
##ple
kit
bl
air
grass
you
plate
red
side
ph
by
##ight
water
young
##ue
##ent
loo
##round
bath
##dy
surf
##ving
##ss
##ph
##board
buil
##one
bed
baseb
building
baseball
##ink
##reen
##air
skat
has
##ds
play
se
com
##mb
##side
while
playing
##pt
walking
skateb
bathroom
su
##zz
##yc
##ther
for
food
her
co
hor
blue
pizz
##ct
##ear
kitch
##age
kitchen
##ycle
skateboard
back
bea
mot
wood
green
li
po
##aff
ele
##irt
giraff
parked
boy
pizza
##gh
other
ski
looking
##ie
motor
##im
##ere
##get
##ture
over
beach
##ity
eat
##ilet
clock
ben
toilet
bear
##tle
##phant
couple
pic
elephant
des
##ach
ca
##ran
girl
ball
##em
road
con
men
##rel
##ild
wa
##th
comp
##ane
wear
picture
##led
there
city
gam
mou
umb
dis
umbrel
motorc
flying
##lass
al
board
wearing
bench
tow
##cks
##ris
sl
player
motorcycle
##ptop
wind
laptop
tru
##ld
##ore
int
three
##veral
##ill
zeb
laying
child
from
comput
##ong
sits
as
##rown
##sh
sand
##ine
wooden
##um
##rough
window
sink
glass
gra
airp
game
##nder
##ter
through
their
##ping
area
op
boat
fris
chair
frisb
brown
around
##ellow
one
eating
##un
yellow
##ks
old
light
stop
sc
several
hand
ta
horse
tre
computer
##ped
bir
##oto
wall
lit
photo
desk
under
de
##ice
giraffe
##ort
##ase
##ast
##ery
cover
ra
ve
cake
open
sp
##ull
close
##way
##est
living
truck
sw
##rt
fire
frisbee
re
##cc
phone
flo
##ross
ban
col
##ses
surfboard
outside
lot
##gg
rea
bow
di
covered
count
bun
umbrella
##acket
trees
each
##ation
cow
##eat
##illed
##ove
##ich
cell
suit
banan
very
beh
behind
##eep
##sing
cl
filled
oran
off
court
many
##pla
##ground
tree
its
sky
##ap
cut
little
bowl
cont
##ching
ab
flow
ap
##ves
##up
ma
show
fen
into
toget
##ead
couch
##ction
together
##ors
##qu
sandw
##if
##iew
sandwich
bi
bunch
airpl
mount
shirt
run
this
##ly
background
dri
so
te
view
##rick
kite
##alk
skis
big
dou
##ag
inside
sheep
mir
stands
mirro
plat
pre
##ts
##les
displa
oce
hot
##ets
stu
##walk
bird
##ub
hy
le
pie
##ffic
ocean
##ry
go
counter
lu
##rant
##ang
hyd
veget
hydrant
traffic
zebra
##ras
mid
swing
##do
pass
##orm
racket
##eddy
##dle
airplane
##other
display
teddy
mirror
floor
vegetable
##ook
ref
wi
##ffer
##oth
orange
##fferent
another
dirt
women
anim
different
sidewalk
##ner
##ies
animal
mountain
stand
##eth
##sa
##iling
##ress
jum
tall
tower
##our
plane
flowers
##etting
##ous
che
##ruit
bab
met
hill
sa
parking
fruit
hit
tracks
horses
bro
along
giraffes
im
br
##era
baby
fence
day
gu
ground
vase
head
mo
##vel
##ket
graz
wave
grassy
##ble
##par
hang
snowboard
being
full
cars
fa
vegetables
##two
zebras
stuff
fe
rest
##ey
##ren
station
slop
ad
##ari
##rying
elephants
middle
##kes
bananas
##ated
##ick
tie
##ven
dress
un
ready
cup
image
##the
en
dr
cam
pro
##ip
##ment
taking
hat
cor
crow
them
##uring
##ator
box
driving
vari
##ggage
bes
stuffed
##ave
signs
cross
crowd
sun
ac
##ning
##oli
##ult
bike
piece
##rol
lo
##iger
##ess
##ade
ar
##rush
long
wor
brocc
above
across
grazing
kn
travel
refr
beside
guy
bot
luggage
skiing
##pe
prepar
broccoli
##ust
refriger
skate
wine
em
four
snowy
cows
kid
key
hanging
##elf
don
door
during
##iting
##cor
tele
refrigerator
holds
slope
bic
##eng
glasses
##ese
wii
color
cle
past
pink
##uts
##ten
##urn
doing
rem
tal
lea
##las
herd
camera
##ted
children
pair
##ries
rac
pole
pap
double
rid
track
keyboard
decor
passeng
oven
##ces
##pty
##ful
##out
corner
bicycle
empty
##vis
bag
ser
going
per
high
cutting
cab
walk
umbrellas
watching
who
cur
mar
pot
looks
control
bar
kites
ita
trick
##vision
jumping
television
bre
smiling
bottle
##form
socc
##cker
talking
pit
ag
soccer
din
posing
suitc
catch
stove
dogs
buildings
airport
vide
traveling
video
tv
boats
swinging
chairs
set
##lee
remot
topped
colorful
att
apple
using
lady
hou
all
getting
##idge
body
##ans
birds
##us
contain
##umb
cabin
pain
pat
plates
mon
night
##ainst
various
animals
##oes
against
fore
##eel
coff
brick
##quet
throw
me
##ps
paper
##arding
jet
app
som
home
item
##ft
meat
watch
book
rail
carrying
him
river
banana
lin
##ced
coffee
pol
cheese
can
ram
##ac
lots
##ian
pull
tray
##ething
slee
bedroom
##urant
something
##clo
resta
##ored
motorcycles
restaurant
he
##ash
##iss
waiting
drink
pitch
##der
or
dish
clou
##ool
row
bears
metal
players
plant
##alf
decker
##oll
##erse
runway
mu
tile
##ak
##clos
skateboarder
outdo
about
racquet
toy
brush
carro
##mp
shower
enclos
res
remote
skier
lights
running
dough
mic
pile
##ases
##ial
slic
house
busy
surfer
##ish
someone
store
face
pur
items
hel
interse
##gra
rain
mouth
like
sil
ramp
lying
##ark
screen
passenger
intersection
dressed
line
##arm
##ive
doughn
toward
##oc
##ty
seat
male
monit
rock
surfing
##gs
bal
gre
half
numb
no
##ather
hands
photogra
pan
am
tub
boo
##raw
batter
shown
ha
slice
preparing
##ones
rides
sciss
made
dark
##ire
##we
##ler
pulling
look
colored
ty
##hic
##cl
gray
way
mat
##ges
surround
sleeping
vehic
silver
jacket
scissors
##te
number
suitcase
cloth
photograph
##uce
she
bridge
tooth
##oarding
##ert
zoo
##ife
microw
enclosure
##ny
##iz
post
bet
##eath
hair
##ating
donuts
kids
##pp
surrounded
##there
##ond
tablea
##ween
forest
##to
between
##ale
showing
##aning
##ched
bread
meal
##phone
##ooking
carrots
##ace
bright
lined
pill
decorated
##ect
few
knife
sal
##iform
uniform
adult
microwave
mult
streeta
walks
buses
##ved
cabinets
boys
##anes
arm
older
scen
blan
furn
cand
##iture
purple
##ron
star
furniture
skiers
hu
##man
bran
ex
stat
dock
branch
##old
##pes
##lic
outdoor
grey
stick
attach
girls
oranges
tri
stri
shop
##cing
mouse
lake
gather
pick
pillow
have
cloudy
tea
waves
choc
fielda
##atoes
eng
displayed
throwing
coming
attached
##olate
incl
comm
fork
##day
fre
monitor
chocolate
##ily
making
onto
leaning
clean
ob
fem
feed
##ings
crossing
helm
inclu
clear
##inking
shelf
##oon
dining
perform
ho
salad
gi
stone
##sp
flower
##irth
elect
birth
painted
##dge
cook
scene
sha
country
cats
drinking
hitting
##ime
birthday
market
basket
seen
lush
fla
work
##sed
rocks
resting
pub
towards
multi
windows
female
##int
##by
##ken
public
meter
fruits
##are
sunny
##astic
ass
##art
lay
beaut
tables
setting
##ents
fries
##ance
##ary
apples
##utter
watera
office
blanket
##di
plastic
walls
donut
##jo
moving
##brush
pen
leaves
beautif
squ
shot
trail
stopped
cre
bush
been
ur
edge
tom
bikes
teeth
##less
part
helmet
enjo
books
platform
path
stack
snowboarder
working
beautiful
pictures
smile
towel
fresh
##ric
sub
##dd
short
toothbrush
##lection
##oot
undern
underneath
ste
bel
trying
not
surfboards
assort
topping
ride
##ety
yard
pa
cart
dist
slices
statue
fri
af
draw
mountains
sing
##ally
##pped
turn
##ug
carri
fam
wild
roll
van
lap
wire
having
wet
skateboarding
pieces
nice
computers
ent
placed
##ling
perched
##people
new
##inal
shows
shore
doughnut
pepp
dire
time
passing
eaten
##ca
mil
gar
catcher
lamp
balla
controller
sty
vehicle
put
appl
ti
##ist
cooking
##bo
sandy
police
dinner
ey
vases
they
neck
##dern
hotel
dry
family
pizzas
conc
applian
##ats
trains
land
##ition
tiled
##thers
modern
nin
##ix
##py
##ines
brushing
types
just
##ches
end
sea
##ame
town
reading
others
chick
##ides
##three
##top
base
##ement
##ely
ninten
trun
nintendo
##bor
pitcher
##iti
engine
benches
##ound
watches
hea
single
case
pret
##ley
beer
kind
##ming
laptops
chicken
mounted
cent
ped
du
gear
graff
take
##ject
variety
boards
##cial
sail
jump
##ized
enjoying
cellphone
tan
curb
##tub
egg
sauce
equ
##tain
tarm
left
bathtub
##wn
guys
wheel
trucks
pretty
flat
rack
##vers
sof
graffiti
tarmac
after
pad
pack
see
phones
hotdo
##ush
performing
ce
toppings
doughnuts
gathered
appliances
bowls
passengers
multiple
tricks
dess
shoes
##ger
plants
##ures
cute
fenced
backgrounda
##road
fly
swim
well
containing
place
arran
feat
glo
pas
##ages
pedest
sch
##stru
candles
tran
curtain
stair
##several
flies
rice
pasture
feeding
fish
team
ear
carriage
fr
break
railroad
##he
equip
frisbe
concre
spoon
##ronic
##ins
dirty
below
win
poin
right
##pack
onion
foot
match
poles
##po
including
distance
##elves
cattle
surface
electronic
##end
school
##head
##its
##place
clutter
center
steel
takes
shaped
##iding
##ini
##light
concrete
among
pul
bottles
##ession
bags
ble
backpack
##intage
sofa
striped
##rash
crowded
##que
##ower
wr
polar
pulled
art
woods
nearby
vintage
wra
fan
cabinet
painting
loc
##me
chur
catching
beds
huge
boxes
##ber
sandwiches
object
trunk
qu
##here
direction
sou
pillows
cream
fridge
##cea
rooma
fireplace
gold
five
alone
church
##idea
planes
feet
prof
ju
mess
skateboards
##rist
##ips
giant
style
drinks
##sc
##illa
equipment
stea
round
##onea
suitcases
sliced
but
served
both
del
##ball
##ural
##ged
sinks
reaching
plays
offic
##ical
putting
where
buildinga
##anding
floating
vehicles
container
fo
##vea
##alm
tour
bushes
##essional
##ycl
bicycles
tomatoes
wed
poses
clothes
##de
atop
smiles
beacha
away
sticking
asian
##eather
##ll
taken
##lin
prepares
lays
dishes
hay
##land
serving
spe
pedestri
professional
##ato
potatoes
##vent
##ti
##ercial
##elling
surfers
staring
##set
stall
stain
##lers
grassa
airplanes
##ious
blo
legs
form
##iness
commercial
bak
##mas
dev
##fast
##owing
##lasses
platea
space
reflection
fash
smo
cement
led
pose
fashion
which
rust
##ons
christ
##cy
let
business
design
breakfast
##rench
##etwo
mother
subway
##iny
##unch
christmas
stacked
##read
foods
rug
har
roada
shorts
farm
lone
roo
##ward
##ular
ump
##cking
flag
##ban
tur
straw
trash
##ract
##ugh
##boarding
appear
same
cooked
french
serve
urinal
load
treesa
gard
dessert
umpire
cluttered
kitten
##urry
seated
soup
##lder
highway
ham
swings
docked
square
games
pool
outf
swimming
hard
sung
garden
boarding
get
sunglasses
ret
##ists
fun
##per
mach
pepper
##bb
outdoors
##ults
overl
hotdog
##ars
##ends
wedding
##struction
couches
low
##ige
bur
blender
##ual
##tom
##kets
##itary
##ils
##ethe
##ock
##let
##ens
##fe
##this
ter
##liner
say
cra
drawn
##ned
##ants
clocks
kneel
controllers
##kea
cli
shad
assortment
ind
drives
kick
prod
fra
ice
doors
restroom
signal
##ape
##br
##oni
ceiling
cla
desktop
flock
rocky
jumps
shelves
adults
eyes
wooded
hillside
sho
does
hold
facing
appro
acc
stainless
##io
military
lad
skies
##red
ba
ext
lawn
ledge
##fore
##ident
fall
free
was
##hou
##nic
tou
##vy
pointing
onions
eats
##made
desert
prop
##kers
before
card
todd
lunch
nap
##go
compet
##artment
cru
event
##vert
gamea
approach
we
chop
##irc
neat
make
clouds
vegg
mod
##na
advert
phonea
cost
eggs
roof
tw
##ump
##ef
##uit
coat
cups
says
advertis
doll
construction
fashioned
circ
##ates
##arrow
stru
snowa
##stwo
beda
assorted
disc
race
##ative
outs
attem
mini
party
inter
arranged
##des
##icks
type
costum
fig
things
spr
landing
pond
snowboarding
boarda
##cture
broken
picnic
trans
floors
decoration
##ading
hors
closed
##phones
stairs
toddler
##vid
monitors
gate
electric
##xing
bottom
overlooking
mix
##some
lett
port
##ering
##cakes
tied
##cting
kneeling
##key
graze
must
narrow
deck
arms
boarder
cage
wash
##self
closeup
chef
pasta
glove
wide
fight
hap
##pet
cakes
mag
##ony
parka
##az
##ia
friends
##ium
##uc
steps
messy
overhead
leash
gl
skating
reads
indo
anti
skya
himself
pots
orn
colors
rider
stra
##ctor
net
plain
bever
sides
##ially
##rop
windowa
sale
fancy
sweat
##da
ket
steam
appears
pr
##uter
ship
chain
suits
walkway
pract
rackets
leather
ties
carpet
##so
smart
transit
veggies
cap
speed
rela
foreground
##ican
good
sunset
bite
pos
carrot
model
trailer
partially
features
##ount
##ns
stor
sport
loaded
walla
mis
##oung
stret
action
##ators
beard
drive
pastries
still
mush
##ker
urban
paw
pepperoni
teen
shou
mushroom
held
push
palm
pants
what
pee
courta
##ired
frisbeea
##ooter
toast
clothing
antique
##ib
towels
##uff
wrapped
##very
machine
war
toilets
photos
refle
position
##aster
scooter
doorway
hole
beneath
cas
vis
##ope
##oman
lies
winter
##ence
shade
racing
commuter
tomato
propell
pea
##ne
grill
pastry
baked
gets
power
saus
kinds
outfit
##ise
##ives
makes
##ina
railing
houses
dra
pier
giving
structure
sprink
sy
contains
bull
flip
treea
supp
class
apartment
heads
harbor
used
decorative
fighter
device
##co
blurry
##ring
##nish
petting
island
sheet
wets
lid
sill
spea
fur
grow
##ighting
blond
##laz
self
##cket
peppers
includes
pedestrians
##ork
smoke
sort
sized
##sting
##gull
toys
##tens
##four
kitchena
rests
comf
areaa
siz
chips
##sthe
spot
garage
##nding
##ggy
leading
outsidea
bou
med
##yard
bathrooma
##tered
mud
opened
containers
waters
mound
foll
pres
seagull
prepared
lettuce
##be
mit
use
vanity
##ier
candle
je
vest
aira
bac
nood
stunt
leaf
papers
streets
produce
##bs
##house
shar
upside
laptopa
scul
##many
##idential
lift
writing
hall
bunches
milk
bacon
utens
waits
umbrellaa
rural
beans
mug
indi
##gon
flight
ripe
shopping
turned
pave
strawber
sculpt
tiny
dep
hood
amer
pavement
brightly
##pping
##kin
skateboarda
##itten
cond
alongside
residential
hats
happy
groom
rear
##alle
fencea
##ray
##yclist
climb
pans
meters
log
paddle
frosting
fooda
daya
cal
lamb
patio
##bage
stream
lem
##ield
##ital
topa
personal
sheets
urinals
##erial
soda
rainy
touching
##ange
##gging
nose
remotes
smaller
mirrora
block
##gre
branches
##eds
laid
cub
ducks
ketch
##iv
##ining
cour
sem
sailing
hilla
itself
kicking
riders
term
persons
displaying
wetsuit
butter
loading
##med
lines
ketchup
##pl
##ette
built
deep
##act
snowboards
oppo
leg
six
##bile
tent
practic
juice
mustard
pup
enclosed
officer
ladies
terminal
only
beige
tracksa
american
ow
##mo
##ows
sliding
platter
sausage
ador
costume
deska
##pting
##ird
oceana
directions
glaz
##lies
here
##aper
noodles
##cra
sinka
purse
approaching
##ature
trays
balan
mas
cakea
eye
pipe
goes
dresser
pickup
flags
barn
mushrooms
##wing
##ms
bencha
rais
##gged
throws
elder
uses
leans
fried
##ster
uniforms
decorations
wait
racketa
individ
parade
collection
semi
##ible
togethera
gas
ornate
laugh
pin
cons
hangs
paint
posted
##yclists
sweater
written
deli
freez
propeller
mitt
most
indoor
##ior
char
liqu
bride
pulls
elderly
crosswalk
attempting
growing
sim
##iff
rolling
beverage
stad
sailbo
utensils
pour
##ral
runs
floora
fake
tank
individual
wavea
guit
ol
these
tong
##omot
lam
##craft
stadium
handa
##ully
neatly
spread
passes
jets
##gan
greens
pizzaa
spect
##erry
##els
##rounding
flor
baskets
surrounding
comple
micro
gent
if
##als
##cted
locomot
relaxing
supplies
life
goats
##scape
formation
cara
bending
curled
##ser
potted
fast
transp
##fl
##erts
tax
course
pet
signa
handle
patter
missing
##ton
##ues
##ked
roses
how
##bi
roadway
por
siting
stationa
paved
##boy
hear
tool
snack
##site
sto
airliner
packed
sold
sticks
aircraft
shirtless
shoe
locomotive
bell
crou
##ness
##seum
##ended
falling
##uffy
motion
checker
museum
duck
gentle
dim
capt
rows
sports
cele
ang
##cked
separ
booksh
performs
##cake
practicing
glazed
guitar
celebr
##case
without
wagon
chees
haired
aw
##inish
##rance
arrange
##hill
toss
##allow
##ices
tail
coll
piled
sculpture
##nel
section
grounda
toothbrushes
floral
##bow
dead
##ware
tops
adj
fir
trol
##umer
talks
jeans
lamps
cycle
hum
##ath
electronics
arrangement
##og
shallow
spectators
soft
wheels
frame
cro
rope
also
cupboard
telephone
ingre
ingredi
steep
##sted
fing
##woman
bucket
flown
balls
garbage
pedestrian
##cts
##estwo
##essor
delic
cop
foc
toaster
stool
covering
rub
##com
selling
##iers
##eback
bank
homemade
selfie
opposite
paras
images
cool
##asing
mus
##bur
##erries
slopes
return
##bed
##ered
sniff
slopea
jetliner
wires
curtains
cupcakes
travels
patch
exh
freezer
gro
numer
##line
##ctive
toileta
##abit
pitching
hotdogs
da
buff
##usk
horseback
aut
skateboarders
hits
remo
##allen
tongue
icing
tu
counters
muff
fallen
fluffy
cones
hous
us
aslee
marble
objects
competition
pushing
sprinkles
tab
peoplea
shirts
headphones
##ertain
newsp
strawberries
puppy
asleep
stuck
habit
##ooks
skirt
motorbi
##umin
corn
blankets
ingredients
##ta
pictured
workers
mixed
visible
lab
na
string
snowboarders
faces
neon
downhill
doga
stoplight
organ
kitea
##ways
##ooked
exp
tiea
washing
checkered
chin
stud
mirrors
##lit
chaira
tiles
gathering
rolls
mop
balloon
whole
golden
climbing
frosted
rep
shoulder
tast
##wood
##amic
wears
blonde
habitat
bent
reaches
far
buildingsa
featuring
wing
entrance
citya
furnish
coach
##aged
moves
officers
transport
lond
range
##oned
hills
stickers
obser
magn
london
even
cargo
tracka
landscape
pouring
au
hers
bul
carries
##ental
napkin
shiny
someones
chil
covers
##os
##ila
##ough
shadow
olives
stee
holder
great
first
jar
##ending
plan
batting
condim
##time
cookies
##ountain
laughing
delicious
loung
name
pige
##orter
blowing
liquid
jo
tun
##van
sidewalka
potato
bare
rainbow
ahead
hambur
figur
exhib
##ied
ins
##asea
conf
thema
prin
cr
fountain
##mall
arch
enjoy
beef
bata
desserts
thin
checking
cleaning
miniature
blow
gravel
opening
indic
lighting
fishing
cardboard
interior
trav
shape
steeple
##car
##ka
ona
shru
grilled
##ured
goat
saf
mobile
basketball
##ded
weather
##lage
##ently
sug
alley
##aked
turning
advertisement
teenag
##rial
bunk
rusty
cust
den
proc
booth
bit
##rot
cowboy
cameraa
crust
trolley
dot
tire
vol
##ited
##alla
plaid
##anta
displays
entertain
microphone
bookshelf
sad
coucha
size
muddy
tabby
dow
catches
pickle
located
clay
focus
##men
##ethere
carts
flooring
accessor
herself
cran
##urf
spin
leag
fold
lar
rad
##olored
countertop
##spital
rusted
indust
depic
travelling
cere
odd
feeder
hospital
jock
##iet
forward
##thy
unmade
exhibit
bri
cer
downt
dump
lane
mead
backs
controls
story
industrial
sec
spray
multic
magaz
eith
every
nic
##was
##nect
stir
##eting
lif
scar
balc
hallway
collar
chest
attire
gloves
sharing
either
##ging
thrown
##iled
brushes
helping
matt
frisbees
taxi
tools
ceramic
meadow
neigh
posed
comforter
##most
custom
##ano
onl
stage
##stem
libr
system
condiments
sugar
jockey
av
calm
main
driver
series
groc
newspaper
library
aerial
##uzz
grapes
surfboarda
uni
words
ill
##lish
##fully
moutha
padd
following
league
bill
biting
calf
##black
stares
accessories
##washer
fil
iron
own
othera
freshly
seems
connect
dishwasher
cliff
nicely
neighbor
more
santa
##hood
##attered
peel
chasing
watering
susp
almost
seats
designed
twin
band
gaz
##wh
para
sleeps
pancakes
heading
steak
foil
mostly
multicolored
serv
picking
audi
chili
##sth
matching
baking
mattress
nat
##asting
mans
grand
apron
railway
tasty
jumb
##ail
##stri
hugging
chinese
onlook
##grou
tennisa
bouquet
seagulls
balcony
cush
dig
wings
##work
amongst
warm
comb
aband
canop
gentleman
pow
neighborhood
cushion
el
##zen
##ility
marina
statues
funny
burger
advertising
sidea
##esting
motorcyclea
foreign
straight
finish
##oun
##allic
arrow
countryside
teams
lemon
larger
##mer
ribb
##stand
convers
sniffing
father
##isting
cuts
leaving
hima
order
buffet
housea
hamburger
cig
pri
tractor
##ried
prepare
heavy
bakery
abandoned
thick
beg
intera
metallic
typing
baggage
paws
tin
##tor
##aste
countera
owner
jumbo
cigar
dust
vend
##ters
chewing
sunlight
trunks
heart
fed
fixt
##ggles
chopped
natural
id
sets
surfac
resort
attempt
horsea
##group
##ront
##olf
##ute
horns
trucka
formal
driveway
dimly
organized
cases
dusk
jers
tries
##amp
disp
worker
move
busses
##ption
winds
cold
framed
circular
mask
entertainment
folded
pop
pony
##gress
##ightly
##quets
poster
downtown
jersey
mass
rose
candy
hung
castle
motorbike
mom
strol
bik
turkey
connected
emb
tim
##bble
shining
computera
prote
helmets
dryer
bearded
bra
unus
propped
polea
devices
produ
##ival
magnets
bay
son
fieldtwo
progress
boots
hose
##pass
##ud
##und
instru
level
sailboat
##ama
read
toothp
onlookers
ring
##front
traina
busa
motorcyclist
guard
besides
hiding
tus
##chair
bund
upon
##eman
obst
should
lounging
fab
ple
##ung
backyard
quiet
tossing
evening
tunnel
canopy
##sea
##young
##alley
cafe
##coming
wit
tablet
flood
point
desc
bowla
males
savan
cupcake
ovena
amount
step
adorable
porch
scarf
golf
roam
piano
##stre
kitty
racquets
storage
reflected
present
obstac
##pers
##pher
##mes
##zy
lighthouse
contents
raised
illumin
furry
sid
##large
thumb
licking
monkey
wilder
audience
lang
oper
lota
separate
grocery
powder
rel
##vated
bya
beara
##ift
bikers
##vely
tva
rails
strip
hardwood
langu
parrot
skiis
rec
saying
bars
##istic
chefs
spinach
gri
stran
scattered
tag
mountaina
grazes
squat
dispens
savanna
lear
sla
##ees
##za
##rain
barrel
warning
##ened
##ord
##anda
collage
crosses
airporta
rivera
friend
smoking
circle
fabric
word
works
##usting
heal
freight
shaking
ears
lambs
balancing
unique
mel
ori
than
##ngle
blind
runwaya
football
jungle
awa
finger
music
cu
fair
link
##use
itthe
rampa
stretching
comfort
simple
bikini
ge
pean
##ments
peeking
nam
polic
lemons
##ounge
talk
##oe
ant
need
played
##illing
goggles
fauc
thems
belt
sizes
delivery
safety
fans
##view
storm
shut
parach
##sthere
really
##ethree
silverware
drawers
leafy
hi
hom
ath
cookie
peeled
moped
suspended
flowersa
cupboards
volley
##xed
fixing
lighta
furnished
ribbon
themselves
lounge
##rib
daytime
unc
ladder
figure
hip
ke
ut
prot
keyboarda
nighta
##ooters
fighting
pine
skin
surfs
rece
##ipped
pickles
magazine
fest
nuts
villa
thing
##owed
bats
snea
carsa
courtyard
shorel
complete
muffin
inf
towering
screens
indoors
classroom
cereal
##gir
##atwo
clocka
reg
clust
logs
haul
##ught
##orting
cellphones
lean
tourists
surfacea
inst
gran
##ument
scooters
goal
pairs
quil
cigarette
too
plaza
closet
blu
stops
soap
sau
headed
foggy
consisting
process
strange
##ells
doub
vegetation
camer
barri
photographs
army
sticker
rustic
##bbing
healthy
panda
##where
##aking
##ination
##eap
##ebo
grin
##oney
project
knit
trim
points
speakers
numerous
crane
obstacle
##rat
##ze
##omeone
motorcyclists
slightly
buns
##lash
tricka
canoe
microwa
beverages
pigeons
det
tat
comes
tusks
berries
eu
##lines
##hol
stock
shri
upa
bedsp
picturea
meeting
noteb
wrapp
fat
valley
##af
##ifl
##anger
heada
lob
shops
peace
charact
students
shoreline
bedspread
act
bin
dan
puts
##gie
shel
arri
positioned
softball
balloons
observing
toothpaste
wading
swe
pedestal
oriental
kept
cone
dem
pump
bathing
eleg
skyline
maj
crossed
slicing
layer
approaches
paddling
wilderness
goo
##val
stem
##raying
##ulifl
airlines
waterway
conve
slow
catchers
##ashed
##cloth
material
##toon
exc
direct
conversation
shrimp
fry
grabbing
silhou
exam
forks
beak
reach
fully
reflecting
vendor
attempts
dispenser
lis
may
wand
will
any
##icle
caulifl
colle
leaping
pens
##wards
illuminated
faucet
granite
elegant
fol
min
wre
arena
waving
boxa
monument
drawing
classic
teenager
service
peanut
kis
trough
sideways
desks
caught
##unk
numbers
button
##ucumb
repair
village
cucumb
tight
ware
##ole
##person
##vest
##icop
coast
lighted
patterned
crash
##right
themed
knives
helicop
mall
pud
ru
trop
##ined
##phonea
raft
spa
diam
skisa
leads
married
sailboats
cheesy
flooded
cans
had
kay
str
itan
groups
herding
cobble
afric
designs
snacks
cauliflower
##pon
clos
blur
split
mov
heard
note
owl
second
euro
diamond
greenery
factor
much
bald
interesting
unusual
skater
##ific
dried
boogie
portra
strapped
tropical
drying
ostri
tasting
seas
recor
umbrellasa
nightstand
freeway
bad
roman
##my
##erence
within
roast
backa
conso
stopping
deer
spac
##aging
print
goods
individuals
helicopter
##cast
##ities
##labor
atten
tablecloth
poss
overpass
splash
##angular
unf
keys
terrain
stovea
celebrating
massive
roaming
##eapple
convey
now
##pid
##hed
stable
upright
cartoon
histor
baseballa
limb
tags
english
##boat
shades
costumes
daugh
fixtures
doubles
factory
cel
##dition
spraying
cellular
wiia
canal
turns
spoons
relax
transportation
windsurf
europe
hal
tents
airbor
compan
fenc
hydranta
garnish
ornam
human
autom
utility
##ider
##ots
buggy
recl
piles
indicating
handing
mi
##aring
##apan
text
fac
photographer
tuba
gives
pineapple
bor
##vi
##oored
##ably
boarders
baga
polka
##close
soldiers
figurine
language
quilt
console
bis
come
cree
love
##met
##ky
tabletwo
basin
elevated
rect
vegetablesa
brid
unlo
doora
cornera
waya
depot
pattern
adjusting
notebook
eight
eag
hooked
japan
tiss
##oping
whit
stance
dest
tape
knee
zooa
weird
brief
thumbs
grinding
portrait
ren
waff
##bag
backd
dec
depar
float
##ations
mac
tex
brit
bananasa
winding
speaking
sharp
ident
learning
airborne
mashed
##gu
compartment
alco
bagel
cloud
cleaned
extended
conference
crib
elabor
keep
naked
##ode
##rome
site
blood
seven
wake
wicker
hangar
world
include
butt
savannah
grown
##ls
##stone
##sticks
watertwo
##shirt
oppon
boata
drivers
canad
posts
flav
alcohol
frying
tar
babies
rowing
pathway
drawer
geese
kissing
backdrop
pug
ris
##mon
##eter
##ico
streettwo
bean
snu
carry
phon
overcast
glassa
headboard
prov
panel
happ
##plane
begin
festival
daughter
##ditional
##ma
third
##alt
##vering
cathed
youth
metro
amid
winea
teenage
toasted
##sthree
squatting
hauling
listen
cathedral
nur
##mit
##ater
worn
message
farmers
crack
circus
chained
wrapper
rot
##den
##tru
##idy
##andel
##eeled
such
##ills
photographed
billboard
digital
blueb
cast
##ws
lie
deser
asph
##ational
logo
broccolia
curve
seating
signals
extra
figurines
depicting
uncooked
jars
shap
china
downa
knif
jackets
trio
sails
products
british
ot
pig
sol
##hand
##uits
##bing
##kins
towing
gravy
scenic
enter
customers
stroller
sneakers
heat
##too
##gers
stom
##ised
shines
carous
skysc
bikea
knees
roller
package
special
retur
practice
medium
##ners
pears
##ables
rob
placing
##arious
barbed
suitcasea
attract
windowsill
artistic
kettle
adorned
shuttle
closely
conveyor
skyscra
returning
hind
##tra
chrome
imp
barbe
aged
commode
competing
printer
##white
major
african
stomach
ger
vasea
thre
ones
towers
grab
press
marked
meats
bridgea
backpacks
tourist
strawberry
carousel
pay
selection
force
arounda
donkey
stripes
cluster
lobby
directly
deserted
asphalt
call
cooks
foli
##life
##itch
##ately
anch
##ution
ittwo
places
##acks
##elly
pocket
handsa
stationary
camp
kitesa
rocking
expo
##deled
cruise
inspe
powdered
tattoo
sweet
gy
sat
were
##tie
##ops
when
skil
super
cola
togethertwo
sandwicha
check
potter
subur
entering
calico
soldier
crates
foliage
gour
##ient
##father
##ains
boardwalk
macar
sauc
emer
curious
help
newly
##pod
electrical
stretched
ostrich
mixt
opponent
eas
rop
wo
thru
##owers
##otic
frozen
suv
podi
umbrell
lightsa
midair
dressing
meas
memb
enclosurea
stepping
staircase
fog
stalls
cubicle
crouching
shoulders
puddle
european
mixture
dash
mes
nest
tiger
vac
yog
##ively
care
intently
##ummy
scrat
tube
wheelchair
paintings
chopsticks
balances
stools
archite
radio
names
snugg
shapes
podium
ferry
gun
##ula
streetlight
##amb
slide
##ccup
dip
runner
checks
envi
loaf
keyboards
maroon
planter
storea
dual
extre
dusty
warehouse
listening
rings
tee
##gen
##rong
plains
chandel
##aded
suite
raw
##ests
cellphonea
towera
unit
array
bicyclist
sleep
##ronment
partly
racks
angle
muffins
antel
infant
leaned
rectangular
texting
environment
lower
##een
mane
##iday
##eball
##amas
pies
disk
divid
lego
refrigerators
glassesa
bookcase
feeds
portion
spotted
caption
rubbing
tuxed
express
operating
policeman
parachute
barrier
macaroni
dug
gall
##various
##five
tort
##ooth
necks
shear
tablethe
##cept
##rup
grasstwo
coke
caf
chairsa
starting
rocksa
shots
paj
wildlife
artwork
harness
indian
claim
syrup
##flowers
grandfather
cudd
try
##tim
##cue
##food
##athe
cherry
sum
tagged
spat
floats
apart
showera
outfits
craft
touch
parasol
priv
excited
blurred
spacious
border
map
ox
inform
peering
grassland
firetru
dipping
serves
curved
televisiona
somethinga
raina
uniformed
competit
speeding
stretches
sprinkled
##ales
##gn
##rent
##lain
needs
walled
elephanta
lodge
restauranta
cabinetsa
brancha
sofas
quick
##someone
flipping
remodeled
silhouette
cobblestone
elaborate
skillet
##amboo
bamboo
ed
hut
si
san
##fts
##urt
##loy
dozen
signage
younger
menu
hitter
snowboarda
unri
refrigeratora
fingers
crate
shrubs
skinny
demon
tidy
##field
##orn
ships
plu
plush
capped
traya
drinka
stacks
shrubb
athlet
pajamas
york
##cars
##ino
##icip
streetthe
lakea
##celain
bowling
mountainous
wavesa
engaged
entree
letter
figures
stunts
parasa
movie
gourmet
aven
rab
##suit
##con
##bu
traditional
holiday
alarm
biker
tech
bicyclists
diner
clearing
carriages
washer
glowing
##inished
pigeon
tissue
identical
dam
fit
jeep
jelly
##ose
##pris
##mar
though
##oose
##utes
parts
##str
skiier
mousea
##shi
viewed
bigger
##ethis
cupa
booka
porcelain
rubber
teenagers
awaiting
japanese
shrubbery
heel
rol
rout
rough
##obile
##por
##green
stump
##ora
##icap
rode
somewhere
cata
grind
woodsa
gaming
treat
mail
united
barren
stores
start
cooling
unfinished
ottom
suburban
spatula
iced
king
mem
##tched
##ara
infl
motel
handicap
real
lining
pitched
penc
notes
##box
foam
farmer
spots
blinds
dancing
possib
done
fer
file
moored
pane
peng
pork
tying
##nes
##ana
##onal
fix
roads
roadside
##umn
treats
opena
banner
cutter
engines
separated
navy
hiking
automobile
gym
possibly
junk
lead
sle
tro
##pan
##ckets
##etti
cock
windsh
scra
swung
bunny
clown
viewing
faced
facea
ovens
##izon
stripped
appliance
chickens
equipped
weeds
plent
##street
celery
bisc
mural
##ether
upward
signsa
waterf
towed
handbag
wallp
opens
emp
balance
haw
##eathers
teaching
distan
garlic
outsid
bulls
silly
lifting
hipster
protest
reno
crackers
attractive
rabb
pengu
bid
que
##off
tor
##semb
fieldthe
##ssome
sushi
horizon
othertwo
compact
scru
displaya
locked
screena
local
##uzzy
eagle
windshield
ave
bla
cot
letting
mer
rh
sam
##uss
##inea
##aseball
tram
itthere
##rie
bends
##eseveral
breaking
attent
mean
forested
tiered
pads
blocks
outfield
powered
hoodie
cubs
happily
aff
dun
fle
fut
lon
pant
til
##pad
##noon
##cat
##aks
##ua
##bird
##fo
whipped
champ
horned
lime
stopa
def
dirta
hata
remotea
steer
afternoon
retrie
falls
letters
bullet
else
unloading
yogurt
chandelier
tuxedo
pir
pil
wool
##yed
##alks
wheeled
peas
doz
grouped
outstre
playground
scale
treestwo
maker
adm
ridding
breast
pitchers
crest
teetha
yarda
blocking
decked
crouched
interacting
windsurfing
company
buttons
ottoman
cit
drop
fuzzy
money
##rit
##ually
situ
areas
surpris
poised
##ache
alumin
slides
handles
baref
##acent
squar
juic
delta
##vention
stained
visit
called
adjacent
relish
##wear
##iw
##law
##andal
##ulated
spar
##dless
luggagea
watched
##ocad
females
bloom
gliding
##ivity
butterf
humming
aluminum
feathers
jam
##atable
##ically
rim
coles
coats
toiletries
caution
##thing
driven
preten
hudd
stripe
forka
shaggy
belong
pointed
sausages
followed
avocad
pottery
firetruck
unripe
avenue
plenty
outstretched
coleslaw
oil
page
tem
vic
vandal
##iner
##inger
shed
pipes
carn
ballthe
wallsa
papera
perches
dinning
news
directing
flatbed
##post
grizz
kayak
halves
depart
provide
german
bru
cass
dom
sled
ul
##yond
##asp
##chet
beyond
outa
skates
poking
beachtwo
convention
assemb
sanda
diving
contem
sheepa
cabbage
setup
##izing
distant
necktie
wrap
mixing
adjust
bricks
folding
dugout
parasailing
memor
##book
ther
##ener
##child
manne
##ilar
bump
grasses
bedding
asc
aspar
windowsa
sprou
sleek
holes
flowered
stew
bushesa
dolls
sweatshirt
similar
insidea
saddle
peeling
times
stocked
character
wandering
dru
pets
##mat
##ien
##vily
##alled
##cher
robe
waterm
club
socks
animala
hilly
theme
##ulti
coffe
itemsa
pillar
steering
crouches
embra
comfortable
quickly
rabbit
mannequ
bb
ipod
pel
tug
vast
##ha
##hor
##ude
##fruit
smooth
hera
photoa
span
swan
swans
mountainsa
hanger
ramps
matcha
cards
cucumbers
strings
measuring
members
plugged
inflatable
waterfall
wallpaper
bidet
dozens
ever
kiw
pou
und
##gy
##ern
##ense
mantle
flash
nearly
plated
broad
cord
leave
marsh
bananaa
exit
heavily
location
##berries
symb
raising
complet
bites
gazel
melted
anchored
antelope
champag
situated
vandalized
asparag
overs
could
##ions
carved
fronta
sewing
##tled
##anging
leaps
##erseveral
storefront
trip
marketa
squash
kneels
chopping
portable
speaker
consum
cops
furnishings
slab
rolled
employ
19
cyclist
dad
esc
nuzz
zone
state
share
fields
airline
backwards
##emen
altered
backgroundtwo
social
guests
unable
corral
suna
current
appet
layered
lands
bleach
liquor
cooler
finished
interactive
private
demonstr
sparse
asparagus
20
dro
hun
pon
tul
tether
won
##ella
thats
smelling
roomtwo
lung
midst
##park
helps
smiley
carrier
styled
discuss
cycles
croiss
descri
knitted
knifea
threw
heels
barefoot
casser
bbq
symbol
crown
rise
sour
##ection
##hua
##lete
##ics
ital
training
sex
kitchent
cages
##estri
legged
##olli
shaded
price
sculptures
numerals
motorbikes
washington
mopeds
grizzly
amb
cyclists
pal
rasp
##du
##multi
##band
incoming
##ening
stating
##iring
ske
persona
##amese
tending
airfield
herbs
coca
wax
grape
soaked
curba
##sthis
##giraff
dashboard
information
route
champagne
dorm
filling
oval
year
##ex
##eled
##lera
##col
##yl
##ury
horn
bend
studi
watcha
polo
shake
flaming
takeoff
crumb
pushed
boun
buffal
tucked
combination
protective
slowly
college
spagh
surprised
completely
casserole
hed
mor
poo
##vd
##vet
##ester
##iced
rapid
broc
##ipping
travelers
mex
meatball
cheesecake
posters
strike
blanketa
touches
medical
celebration
labeled
beginning
##gency
##porary
huddled
studio
iphone
noth
oly
ran
sig
##can
##iving
##bath
those
paralle
busines
basil
caged
taped
spire
reve
biplane
soaring
hydrants
dresses
cords
colorfully
perf
rams
##ished
seata
stare
monitora
shelfa
squir
##dded
mixer
dragon
crochet
creek
destination
maneu
nothing
olymp
best
cable
ges
lat
nut
yar
##using
upper
waterthe
conver
fruita
brand
serious
perch
canoes
landed
accom
veggie
smartphone
comfortably
microwavea
blueberries
queen
pirate
spaghetti
brow
hour
non
rou
##sk
##mot
##baseball
instruction
##ouf
shre
##sters
rele
camouf
shaving
leavesa
patha
singing
shoesa
accents
casea
angry
parasail
lifts
presentation
##girl
installed
waffles
emergency
scratching
rodeo
watermel
miss
vert
##izz
oncoming
##ased
##ett
##igating
##eboard
streetan
limit
##orted
##angle
meals
clearly
crew
featured
cabinetry
##ocked
stretch
draped
opposing
printed
sauces
characters
briefcase
saucer
lonely
bleachers
parallel
gesture
fin
ome
occup
tanger
yet
##oise
##zeb
##aling
skull
##emet
sporting
oceant
camping
rocka
booksa
machines
cram
twig
mustache
carpeted
##what
instruments
barrels
tulips
buffalo
cemet
deb
fill
give
##pie
##mely
tablean
change
wallet
raila
appar
mountainside
standa
preparation
watchinga
marking
cloudless
mugs
pana
states
entry
##boats
artific
quite
directional
makeup
nav
##ebody
shelving
relaxes
##timate
penguin
ultimate
yarn
aqu
mill
nes
##small
##ki
##atea
invest
##eties
##eling
##ids
##olit
rod
gametwo
bron
varieties
curly
smilinga
##ishes
greeting
darkened
picked
friz
ends
frames
consists
musical
gazing
begins
bundle
athlete
volleyball
regular
stems
materials
historic
canadian
barbecue
siamese
damaged
##children
tethered
##multiple
perfect
hur
honey
my
ni
oct
rand
sight
##ney
##vil
tablethere
parent
motorized
deserts
slip
moon
nighttime
pitcha
obama
lapa
official
burning
steamed
bookshelves
bulld
fixture
deta
wrest
season
extremely
summer
distancea
shredded
artificial
aim
got
hook
icy
nine
telling
##atory
neckla
nearbya
south
choppy
taxis
enjoys
paddles
cameras
arriving
exposed
carnival
dol
fu
oak
sanding
tick
strewn
trainer
coin
cozy
lip
sco
flowing
lux
refer
walka
polit
foresta
towna
wheeler
##lights
blend
extends
glides
chains
follows
presents
stirring
policemen
butterfly
department
sprouts
coffeea
signt
bins
gad
kicks
##ela
##wning
##pia
##bl
##chan
somewhat
wateran
skiiers
roadtwo
##shop
gradu
trek
abo
camper
arched
skatepark
curvy
controllera
bottlea
intersectiona
hund
docka
##rict
doesn
awning
tires
projector
microwaves
crashing
tarp
easy
vacant
victor
italian
ambul
morning
mexican
businesses
accompan
watermelon
pale
##nam
##cot
##zard
##vation
mana
##ersa
peers
##pled
airways
##dog
##othered
jumped
metrop
decorating
pita
somebody
hello
scissorsa
exiting
pena
accident
balanced
olive
student
planea
everything
jockeys
sided
homes
homea
cucumber
tortilla
evergreen
rounding
omelet
filed
lion
##pot
##cre
##cut
##res
today
strong
beat
batters
##aint
##ples
limes
wav
spices
airplan
animalsa
mechan
furniturea
striking
platforma
submer
carton
earth
early
##berry
turqu
overlooks
medic
president
utensil
sniffs
dotted
countertops
everyone
historical
nursing
architecture
competitive
attention
wonder
debris
nestled
random
gadget
less
rese
rather
wig
web
##bee
##rest
ann
##ory
buckets
parents
smothered
##stal
windy
graph
offa
shirta
horsesa
themtwo
racer
napkins
propellers
vests
condu
belly
removed
warming
flavored
rising
rotten
cafeter
hummingbird
avocado
##olitan
turquoise
resemb
cry
gated
ic
sells
woo
west
yach
##oy
##hree
##hich
##gle
stones
##oms
##lapid
plaque
flush
backhand
cong
grabs
underwear
flore
contra
##ified
backgroundan
kiteboarding
pregn
##ipe
doughnuta
equestri
##liners
shady
pours
safari
paneled
escal
brocolli
cemetery
submerged
cafeteria
##lapidated
##dant
##wise
##cows
##hus
##lets
##eda
##ament
flan
sandwhich
backgroundthe
lovely
know
servea
liner
bedrooma
noses
particip
jumpa
lounges
depicts
slaw
##guy
skyscrapers
cuddling
raspberries
referee
10
blaz
craw
wines
##dit
##now
##cis
##cul
##ai
##gly
##brown
##bread
then
buying
shoo
blows
mote
giraffea
alert
##rispy
##unching
trey
sword
metera
ridden
bricked
meet
orch
stars
burnt
clad
##efully
gentlemen
facility
mesh
expression
kiwi
gazelle
sexy
##estern
pregnant
dance
found
late
lanes
mad
tide
##dated
##looking
##reds
##rofo
stalk
##ister
buy
skills
trailing
rip
##rus
##station
your
##airy
scre
skyan
mirrored
bicyclea
bagels
resid
scissor
shopa
district
milking
wrapping
fridgea
kittens
crafts
compete
cruis
speeds
drain
pupp
dais
label
indicates
radi
digging
splashing
garnished
rises
snuggling
bumper
embracing
appetiz
ambulance
metropolitan
est
faded
ga
kiss
leng
milling
pac
wel
##wor
##od
##cock
##glasses
##uses
ofa
##alog
sta
womana
chalk
##ades
picks
carving
busted
basea
seed
fences
passed
knick
paperwork
boot
toppingsa
lapse
wireless
lampa
eyed
swims
retro
retail
##ensive
cloudsa
pushes
support
wetsuits
jew
magazines
waffle
canada
wok
techn
camouflage
cin
dairy
hid
lens
pers
unt
vending
##ele
##tage
##oid
##pa
##zing
##rots
##urity
sepia
firepla
dilapidated
anothera
guiding
knocked
patron
except
commun
styl
##ready
machin
##bbles
cracked
autumn
lifted
shelter
skyscraper
ropes
torn
medicine
##rofoam
length
gener
mc
mama
tip
##uting
inv
##ilight
##ilies
areatwo
##vered
tabletop
cherries
buss
already
intric
##rought
traffica
##arian
crowds
sunflowers
remains
pati
platesa
typ
shorea
styrofoam
pasturea
function
washroom
condition
blocked
raises
transporting
cheesea
auto
processor
security
instrument
pumpkin
examining
attending
fencetwo
amidst
inspecting
athletic
lettering
admiring
visitors
pretending
grapefruit
bronze
hundreds
crystal
escalator
ginger
##come
##kn
##irds
##idger
##erst
shell
plow
chat
docks
beers
grouping
dogsa
fieldan
fieldthere
fieldthree
rooms
backed
livest
cact
##ements
roadthe
teal
daylight
moss
##ketwo
boxing
sunsh
paste
caboose
barely
bottled
deckered
purch
mouths
exotic
triple
partial
seafood
twilight
spring
bells
archway
oddly
squares
squirrel
olympic
##zebras
octop
patrons
livestock
lite
var
##ddle
##pic
##rola
tof
stored
chip
##anted
roomthe
##mbled
otherwise
grain
eatinga
##unches
handed
spir
diag
##apers
decorate
walked
marker
barb
patrol
linens
posta
hovering
enthus
duff
phonesa
formally
gamesa
claw
holders
napping
mascot
captured
returns
job
everywhere
arrows
vendors
bundled
goose
roasted
reclining
tilted
tangerines
equestrian
ais
cd
cane
gown
jug
rv
rig
sound
##walks
##lings
##cess
##min
##reme
##ould
neut
##ebe
chi
frog
snap
grassthe
##ycling
overg
cak
littered
contest
platters
crowda
##pective
##urned
barric
televisions
hairy
meala
starbu
hovers
noodle
calcul
sectional
stoplights
cerem
owners
timea
ornament
divided
grinds
citrus
adjusts
smoothie
necklace
accompanied
##namon
radiator
cinnamon
typical
neutral
dome
find
fist
gone
gates
jack
vent
##gate
thread
##atic
##enting
##rous
streetthere
flips
basic
kits
sear
seeds
foodtwo
alp
spark
clip
wiping
knacks
panor
shepher
tier
##ixed
packages
appearing
burrit
##plate
taxiing
##strip
goalie
rugs
hawk
contemporary
ascending
##piece
bulldog
puppies
cant
dalm
would
##dled
##cycle
##cient
##aila
analog
##raut
##ote
whis
laund
beca
##adult
grassan
bedtwo
sund
beached
sandals
treetwo
litter
biking
##ormous
enormous
height
amuse
breada
incline
seem
stairway
trashcan
extending
advertisements
partya
washed
reflects
peacock
calves
recre
examines
record
robot
pilot
belongings
mannequin
describe
ranch
##motor
hidden
##idgerator
aisle
starbucks
ceremony
because
dang
dvd
gn
pc
ses
tired
ya
##turned
##his
##itude
##lent
ina
##rail
##olog
waling
waterfront
##entwo
surfboarding
cole
##ctors
live
benchtwo
taco
spars
cowa
courttwo
platetwo
markers
monster
planta
hazy
scenery
candies
lamppost
tanker
packaged
cabineta
businessman
hamm
hammer
shadows
ledgea
##uffed
handleb
##little
radishes
availa
conversing
product
presented
named
creepy
galloping
troph
hedge
cramped
tofu
enthusi
amusement
danger
eff
fran
fine
might
wrist
zo
##dress
##port
##cou
##ared
##arella
ancient
stay
stere
##omb
##icea
roy
parl
airstrip
licks
windm
lugg
##icking
linen
##graph
exer
shaved
friesa
##dible
vanilla
appliancesa
foal
accent
reflective
##coat
hooded
climbs
numeral
removing
spinning
readies
pumpkins
recording
recliner
##closeup
heater
pencils
scrub
futon
##horses
bouncing
conductor
octopus
shepherd
sesame
sparsely
available
hooks
mur
master
native
trot
vi
vane
waste
western
##bus
##bably
inj
tourn
toned
##oween
##ckey
##isher
##ided
##ica
atv
bunt
chan
downward
buildingan
##zzarella
handled
raquet
##ago
standard
mozzarella
marching
applesa
linea
drinksa
raining
pillars
basketa
workstation
donuta
subst
wired
eatena
concert
burner
burners
eventa
##ucch
salea
peeks
peach
dragging
halloween
practices
charging
captivity
trolly
##athers
dots
fedora
stormy
barriers
destro
architect
sleigh
biscuit
renovated
dropping
##ettes
tournament
gor
gull
gang
vans
yummy
zucch
##pit
##hold
##uea
##fting
##50
##opes
traila
plac
plung
personnel
snowtwo
snowsuit
##eech
##inder
sidecar
sidewalks
surfa
buildingtwo
poor
windowthe
##ested
colum
courts
flowery
##ques
bib
chews
loft
refridgerator
##tennis
barber
bottlesa
patri
breads
salon
huddle
pillowa
donutsa
casual
drapes
grooming
delivering
complex
grove
remod
focused
bandana
finishing
moment
spaces
beanie
solar
handicapped
biscuits
hunched
ponies
flamingos
machinery
overgrown
laundry
stereo
dum
gift
mp
mice
rush
ven
##gin
##back
##verse
##fight
##itwo
##anse
think
##omy
##eta
##ram
##roud
bug
pear
shine
plum
parrots
##antic
upwards
baseman
##eeping
cocon
wooda
clockt
congre
waist
underground
speech
reins
fencing
views
vegetarian
guide
mosa
middlea
came
probably
ord
plantains
##gram
salt
salmon
hug
engaging
busha
wildebe
garb
stylish
necka
racka
##structed
turtle
peak
peaches
film
populated
descending
languages
reception
compartments
import
pressing
oxen
pencil
unders
currently
instructions
##izza
slippers
abovea
crawling
alpine
zucchini
idle
krispy
nature
rat
vess
##ties
##nch
##cases
##hap
##bic
##erior
tot
##alls
lav
##seat
carefully
gras
buildingthe
##pthe
balltwo
##aneous
cityscape
interst
grave
##estic
clut
goble
stuffing
sunlit
kno
household
amaz
haira
haircut
pillowsa
hoop
concent
frisbeetwo
wedge
bloss
crab
warns
stoves
expanse
hamburgers
dense
activ
goof
athletes
##market
affixed
memorial
poured
trekking
florets
residence
daisies
mcd
patiently
##picture
royal
mp3
mosaic
berry
husk
las
nast
sell
ugly
vir
vine
##son
##hift
##ake
##erk
##eries
theater
##esa
##orful
buried
##igns
foraging
caps
##these
boardsa
slanted
veg
banquet
showroom
broccol
herded
##used
meata
plantsa
amtra
strips
flowering
marketplace
trails
carried
tricksa
stairsa
teamm
eara
terri
struct
glow
positions
makeshift
tossed
weathered
filthy
levels
awaits
needle
whitea
fleet
consumption
##giraffes
vertical
political
airplanea
cactus
calculator
important
concentr
mcdonal
nasty
11
aer
barge
nor
ver
##well
##unt
##birds
##itting
##omen
##eline
tablesa
chee
snowing
##ston
waterthere
pokes
elev
tails
treesan
##iche
##agie
swinga
racketsa
camel
proper
skiinga
ways
hoagie
settings
toothbrusha
packing
spoona
quart
spewing
##bbling
outdoorsa
twent
peaking
median
charger
##flower
croo
depicted
cushions
saucea
trimmed
peacefully
bridle
supermarket
rhin
blooming
pelican
broadway
croissant
crocheted
markings
ticket
jewel
##elephant
fireplacea
stylized
patriotic
amtrak
fell
goth
kreme
lant
proud
tusk
wil
wrong
##war
##wich
##water
##long
##pizza
##ience
##yellow
##inary
##inging
##anas
##ala
tone
##ablish
bud
bubble
shack
shells
itthis
placea
hash
coaster
diaper
treesthe
##ifts
goers
headlights
added
enough
proce
highchair
applea
housing
##athere
cloths
clothed
england
obsc
hockey
beautifully
squats
doughnutsa
wheelie
passengersa
spec
rooft
access
grilling
deliver
captive
cheeses
sections
shrub
combing
instead
stockings
ornaments
ornamental
snuggled
ferris
rhino
retriever
##eboarder
##blue
yacht
congrat
establish
sunshine
destroyed
clocktower
12
ast
aboard
cris
cables
rally
##over
##aget
onea
##icans
cho
chic
chill
streetpeople
motorboat
overturned
eata
boardthe
##lders
lightly
firefight
behinda
##play
drizz
teens
safe
headband
cann
sleepy
##aker
brusha
halfway
zootwo
wilda
central
laden
exterior
intern
glider
speaks
##tail
studying
replic
minim
flavors
extreme
horizont
employees
nuzzling
landsca
poola
gadgets
wooly
intricate
architectural
interstate
husky
aust
era
rink
##women
##pair
##lect
tol
staff
##omas
##ckled
##isted
peps
##ebur
changing
law
beera
snowman
parks
signing
##stick
coated
beachthe
asia
browns
wallthe
swift
fireman
contin
contact
##dock
wiitwo
taller
brass
##arium
##pect
server
mark
barna
attack
canv
salsa
teapot
worked
layed
seeing
claus
misc
mounda
mitts
##athree
musc
plank
cranes
maintain
groceries
fedex
unused
instructor
recei
took
wander
macbook
blueberry
woven
blades
lunging
contraption
shooting
burrito
substance
underside
activities
structures
pepsi
diced
hides
nook
oat
ping
pood
root
wrought
##occup
##lots
##ham
##mers
thomas
##atian
inn
##rocc
stages
wheat
##amel
waterseveral
parktwo
ford
lips
wak
boarded
laptopsa
##sheep
swiss
diffic
itsome
skythe
viewer
preform
animated
loves
##tenance
leap
marks
controlled
forehead
##acy
docking
bushel
helmeted
pauses
styles
vehiclea
seaa
##born
tarmaca
gloomy
polesa
##meal
quaint
##scap
leashes
colorsa
garagea
groomed
eyeglasses
hearts
tosses
expired
receive
##guard
tattoos
curiously
umbrellatwo
affection
pantry
assembly
drum
##huahua
welcome
chihuahua
dalmatian
recreational
murky
channel
congratul
##occupied
difficult
18
certain
rd
rum
tit
tell
yield
##tea
##osa
##orous
##ians
##kia
##fth
##ites
##erly
##reading
stalks
##asa
##elve
buds
tableseveral
parad
grilla
foodthe
herds
backseat
toilette
conne
wavy
frisby
##asts
spreading
column
##ggling
suita
controla
able
##iforn
backgroundthere
viewa
kiteboard
##anges
unoccupied
proj
races
bagsa
seta
sleeve
rowboat
toya
greet
novel
##ize
orangesa
beauty
trailers
carta
famous
packs
glovea
burg
##ension
modified
floorsa
strap
casting
sorts
californ
streamers
sheetsa
observe
customer
maintenance
sauerk
paneling
##colorful
meatballs
aquarium
appetizers
hammock
columns
virgin
elevator
gothic
replica
california
bone
gatea
gathers
national
pra
packet
rund
sigh
##tel
##nut
##ga
##glass
##bea
##inating
##opard
boiled
caramel
bust
towela
##rise
motorcyclesa
##umps
throughout
cowsa
cly
platethe
prey
leopard
standup
checked
broth
unb
lock
knot
bara
rescue
nokia
triangle
salads
paying
entire
newborn
landa
pretz
paddock
feature
curtaina
arts
officea
burgers
crazy
doorsa
cagea
models
misses
boulders
mason
spreads
lifeguard
angel
cheesebur
recently
fairly
protru
region
fryer
##traffic
scrambled
blade
employee
demonstration
skew
rapids
##bathroom
investigating
graphic
community
dangling
plunger
twenty
##roccoli
rundown
dy
norm
pong
tack
tric
usa
wid
##sung
##nas
##hot
##itti
whip
outdated
##stract
bedthe
playfully
backside
beam
couples
constructed
boating
brownies
##ortwo
swir
unkn
whose
pota
clotha
blank
starts
layers
settinga
steal
bathtuba
flatbread
rounded
butcher
ruga
ceilings
shelvesa
follow
preser
india
newspapers
magnet
idly
bundt
operated
learn
kayaks
bordered
mailbox
foamy
merch
samsung
dunkin
bruss
spanish
lunges
maneuver
wrestling
graduation
mechanical
blazer
perspective
spiral
handlebars
trotting
injured
goofy
minimal
austral
miscell
poodle
sauerkraut
unknown
50
ara
award
crying
ere
gifts
iro
pu
rul
tr
vines
zip
##dry
##dale
##cup
##iel
inner
##resh
##etted
##ouse
##olding
peer
shark
itseveral
holly
launch
bases
##aining
rooman
blown
airliners
##boarder
playful
combo
walkinga
succ
forrest
foodsa
lizard
overalls
ash
lighter
banners
surfboardsa
skytwo
abstract
showa
togetherthe
##ifying
sod
least
daytwo
groundtwo
unat
program
cabs
diners
cana
pitches
exch
squee
bushy
partition
dude
rugby
machinea
##ensely
bake
costumed
carpeta
watersa
presenting
leafless
rearview
david
univers
ribbons
stepsa
arrive
wreath
phonethe
divider
shears
##marine
juicer
oversized
discussing
palace
skelet
converted
seasoning
southw
scoop
luxury
technolog
trophy
terrier
north
jewelry
establishment
canvas
ironing
30
age
bon
bitten
ding
dre
et
fellow
lan
lic
tips
tightly
##lift
##city
##ene
ton
##oring
##igious
##uters
##icles
##icular
##arded
##abil
peels
coupe
fixed
boston
batch
##ami
pip
parkthe
##airs
coal
pizzatwo
beads
bearsa
cave
gamethe
banks
abund
##venile
enc
boxed
fours
brushed
panting
pancake
##inton
submarine
families
landscap
curbside
feather
##iously
harley
terra
shoea
sunseta
propellor
glaze
laughs
tongs
microphones
coaches
alleyway
##urfer
brace
pleas
anticip
peaceful
folks
seasoned
nightstands
companion
pineapples
robes
##itchen
streetlights
cottage
##haw
croissants
releasing
navig
frizbee
flanked
chatting
##motorcycle
quarters
projection
cheeseburger
miscellaneous
##dryer
bom
gig
gummy
ipad
tshirt
vel
zomb
##wed
##wag
##yle
##uck
##kitchen
##lem
peoples
roasting
chun
charm
laps
##atee
floored
rivers
fieldseveral
##enthe
loose
bedside
seal
seper
skateboardthe
conven
almon
slal
intense
sinkthe
scall
photoshop
deal
spraw
livingroom
soars
hitched
promin
curls
allowed
monk
##olded
freely
salada
century
##pos
centerpiece
quiche
overlook
toddlers
twelve
dollar
discs
patterns
stovet
celebratory
melon
parachutes
knitting
sweets
demol
bison
phonetwo
barbeque
shearing
cafea
edges
automobiles
pilots
pelicans
revealing
navigating
participating
gau
invol
panoramic
effect
chicago
horizontal
swiftly
oatmeal
tricycle
almonds
galley
jun
last
mick
pins
sure
via
wants
##creen
##ho
##ike
##atively
stalla
##outs
##raction
laven
frowning
bored
battle
outhouse
cos
beaks
motoc
bearing
alt
laptopthe
boatsa
##iful
sheeps
birda
mirrorthe
wiim
sales
facial
union
sunflower
attraction
patient
canned
runwayan
raincoat
amen
looked
mats
surrounds
enclosuretwo
exe
watchesa
centera
sailors
tanks
##posed
sofaa
juvenile
wedges
burned
shovel
sprinkle
flipped
waterski
jean
exha
buliding
childs
indicate
volks
saddled
popular
stroll
bundles
recipe
thingsa
attend
messing
hawai
outsidetwo
renovation
drops
discussion
##giraffe
crumbs
hurdle
victorian
varying
diagonal
yawning
parlor
prair
stovetop
bm
bound
samp
vers
vib
##everal
##dles
##dling
##pace
##rd
##inted
##ateboarder
incre
ank
##orange
##opl
##oola
lazy
topthe
##ader
##aman
grate
##stairs
kitchenette
caketwo
mens
picturesa
mouses
brownie
scaff
handmade
##apen
sox
slopetwo
coral
sunrise
tracksthe
controlling
planted
matches
photographing
carrotsa
exper
stately
chocol
urn
directs
concer
packaging
locations
feeta
foila
##tible
flaga
soupa
highwaya
hamster
gardena
##bbled
ceilinga
skiesa
visor
##plant
pinned
collie
slopesa
labels
nails
repres
bento
condiment
booths
tusked
sidel
religious
workspace
needles
activity
repairing
pudding
roped
fixes
mannequins
gestures
details
wonderful
cruising
barricade
coconut
crooked
rooftop
cannot
preforming
##osaur
clydes
davidson
velvet
chunks
slalom
mickey
exhaust
bits
cyl
dated
east
jal
ner
oar
tipped
##sure
##cer
##hous
##bear
##ret
sitt
##elarge
##eblack
tablethis
lace
pars
##adults
uphill
##veled
grid
##ential
seash
cob
##ieval
beachpeople
##shot
glassware
score
handling
bows
treesthree
offers
couchtwo
goatee
unp
knight
emo
##vish
dinosaur
airportan
##dering
##aki
purses
silla
surfinga
darka
##weed
better
hairdryer
triangular
host
given
shakes
bushels
bikesa
wildflowers
swimmers
arranging
curtainsa
pointy
##scale
holdera
neath
roofa
medieval
masks
taste
denim
sprayed
aprons
sneaker
##ebox
silhouetted
repairs
cockpit
contempl
symbols
convertible
twigs
dolly
luxur
##cisco
##works
francisco
windmill
skeleton
license
lavender
prairie
dental
eiff
mm
occ
pric
sen
tas
vw
##eing
##nuts
##rid
##crow
##hers
##ique
##broccoli
##for
##fire
##ints
##itol
##atter
stro
##ometer
mantel
##ards
##vern
tablethree
doily
lavish
##ander
fieldsome
grano
roomthere
##photo
beagle
overview
ballan
always
graf
handler
switch
dives
eachother
hilltwo
address
arches
racers
forehand
racqueta
halfp
numbered
armchair
hugs
commuters
performance
tablesome
carriagea
belowa
wraps
churcha
profile
baker
rooster
##bank
lawna
capitol
misty
casually
pavementa
##planes
adorn
surroundings
celebrate
banka
filming
##undy
guards
related
await
minutes
movies
legos
parasols
defensive
spanning
socializing
browsing
nibbling
duffel
searching
dangerous
vessel
blossom
cheek
toliet
burgundy
normal
ruler
volkswag
sampling
vibrant
eiffel
granola
dar
es
gay
linger
mal
punch
ray
rared
sip
testing
tells
val
yak
##dor
##of
##nie
##anna
anten
witha
##rob
tones
##ona
##orium
manual
##elt
##ota
whom
buoy
choo
doc
parmes
upscale
ripped
##ulture
basement
##phon
##ptwo
beams
##gethe
##ached
waking
childa
handstand
covera
reco
diet
treean
##ifier
zebraa
hilltop
stationed
hatch
sunbath
##ustr
bark
starring
tripod
penny
credit
placemat
trunka
quar
messages
weed
ponda
leasha
headset
grows
petals
audit
combined
ordering
wildernes
friendly
receiving
detour
majestic
ostriches
facade
impress
donkeys
temple
hours
autograph
gnar
viol
mcdonald
##elephants
loveseat
arabic
university
dingy
gigantic
sprawled
demolished
amenities
hawaiian
bmw
concerned
sidelines
luxurious
parmesan
auditorium
3d
cds
gum
jac
lla
mile
rom
wades
##held
##gi
##ys
##vor
##kward
##fri
##ita
onward
##len
tots
toll
isn
mang
manic
##tingu
whine
pecking
womans
cha
paris
toptwo
girla
snowthe
phot
waterpeople
motes
##tles
concept
converse
compon
disg
sli
slat
windowtwo
tap
walltwo
raz
spi
maple
##agna
##lesc
cheer
guest
##velop
##eye
adding
dressa
arid
##tended
trackthe
suitcas
patches
homeless
restaurants
orig
planters
jacketa
breaded
cleaner
feedera
platforms
computersa
flys
swimsuit
candlesa
##enders
clothesa
speckled
restrooma
clause
discarded
stradd
foregrounda
medal
charter
petted
awkward
transported
cowboys
##uzzi
illustr
mattresses
pops
embed
protect
obstacles
linked
peanuts
shutters
festive
clustered
notepad
badm
alcoholic
youths
billboards
pigs
member
outsidethe
woolly
oceantwo
aiming
announ
icebox
exerc
amazing
lasagna
hollywood
landscapea
clydesdale
jacuzzi
ber
bris
cash
crop
ditch
er
effic
easter
hus
ivy
lass
munching
nude
ovent
option
pound
prist
puffy
puzz
sed
sings
vas
wea
##tables
##iea
##gons
##kids
##inga
##lev
theat
tons
##asian
##ouris
necess
##ict
skill
shred
ith
itthree
fift
##antly
ribs
outlet
##stop
waterthree
buildingthere
sele
##zzle
hero
##ief
overfl
eatery
wagons
compo
alter
intensely
scot
##astwo
umbrellaan
guides
lost
looms
racea
marin
potty
breaks
toysa
booze
expla
statuea
teacher
workshop
##different
sailor
globe
stairwell
concretea
winery
artist
steaming
cardinal
naps
circles
fighters
visiting
lids
stocking
angles
angels
celebrates
##comm
dumpster
gazebo
strolling
##passeng
shouldera
melting
tater
lobster
arrives
limbs
fencethe
bloody
inspects
satell
sheared
##foil
domed
kitchentwo
pooh
occupied
frizbe
perfectly
chalkboard
surfaces
wildebeest
proceed
landscaping
protruding
unattended
technology
waterskiing
scaffolding
parsley
embedded
badminton
exercise
did
date
dread
edible
france
hoo
jes
kh
kil
keeping
pina
song
sipping
##emb
##living
##pro
##nting
##male
##gien
##ucc
##ank
##esome
##ism
##opened
##raffic
##ersh
##igan
bum
bubbles
shield
##nthe
holing
dod
launching
beet
beets
boxt
ups
flour
##veget
surg
skaters
sequ
secl
sup
liber
pockets
parkeda
##ght
motorists
beachthere
desolate
slats
playera
spilled
spending
fired
offering
soil
study
hygien
fencean
moved
sloped
slopethe
unpack
unident
##ipher
acrob
##essome
peripher
higha
ages
hound
allow
containera
##cedes
poll
battery
mature
photography
##onda
picket
seaweed
##mingly
leftover
seemingly
fansa
creamy
dishesa
##setwo
##bananas
weight
interview
ornately
boulder
legsa
raisins
fasta
focal
observes
joy
tuna
##urfers
billowing
warmly
ordered
tinfoil
describ
cuis
util
infield
install
notebooks
maybe
collect
crashed
crashes
africa
seaside
spacea
automatic
tissues
departing
exposure
umbrellathe
fitted
cocktail
tilting
assembled
memorabil
drums
201
source
years
missed
aqua
detailed
fuel
blenders
resemble
sunda
placid
remodeling
plums
lantern
proudly
receipt
brussel
etc
abundance
ado
cider
cycling
ec
ener
fet
foo
kio
mam
merry
moose
##oke
##pol
##aves
##gran
##gely
##uded
##kiers
##fish
##ances
infront
##ros
##asy
##asion
##organ
##rack
##assorted
chase
chases
streetcar
bee
topan
topless
someonea
##andwich
flats
caran
carthe
based
blvd
##ented
build
herb
heron
overh
roadan
dispos
grains
handrail
handheld
trench
spl
spear
fireworks
reigns
countries
buna
##eaten
teh
platethere
racketthe
orangea
hillthe
days
favor
feild
restored
uneaten
acting
empt
leaking
umbrellaspeople
soccera
mono
jetliners
appo
lincol
disha
tilesa
balding
scenes
sticky
shopped
common
flames
trailera
creature
picturesque
wiresa
geara
takeout
curtained
fisheye
juggling
turb
cracker
extern
strung
antiques
sidesa
shipping
pawing
##nela
piercing
streaming
coursea
guitars
crock
copper
prints
sprays
collared
bandanna
gazes
serviced
onlooker
elbow
hungry
gripping
dispensers
faucets
fatig
nowhere
windsurfer
elaborately
keeps
heating
saucers
antelopes
cuddled
cotton
##horse
nuzzle
reveals
oceanthe
apparat
investig
lipstick
cakethe
zoom
##couple
gulls
poorly
rushing
congregate
concentrating
aeropl
maintained
sodas
southwest
bomber
photoshopped
altitude
version
senior
razor
husband
pristine
##levard
jesus
secluded
liberty
hygiene
memorabilia
favorite
lincoln
external
cities
dut
jail
kore
ming
mari
py
pome
pam
tang
tiling
want
wade
wife
##dies
##crop
##hn
##miling
##yon
##ux
##uggage
##ben
##bla
##big
##ata
inse
ans
stark
##onge
plans
plumb
chim
doctor
streetthree
piera
snake
##kee
fronts
blackberry
airan
playinga
greena
##getwo
elephantsa
cale
##thora
windowan
treethe
wallan
swamp
colt
dips
backgroundseveral
drift
##ubby
mirrorsa
babya
stationtwo
stationthe
unopened
loom
childrena
ridge
walker
marine
ago
riverbank
rains
rockstwo
panels
batteries
##weight
sheering
extingu
attachment
creating
edgea
distorted
##isters
frid
rounds
haya
pepperon
crafting
deserta
advertises
minivan
##uffs
housesa
harbora
##covered
spotless
boulevard
leafs
papersa
america
waiter
completing
hearty
stov
organic
organiz
##mallows
suspenders
parake
cigarettes
turkeys
plethora
wrappers
strand
attendant
possible
eagerly
rollerbla
tattooed
emerging
grasslands
slender
penguins
admire
avocados
temporary
therm
marshmallows
demonstrating
kitchenthe
orchard
duffle
gorilla
goblets
teammates
rhinos
firefighters
rumpled
prominent
jalapen
##housea
seashore
halfpipe
overflowing
kiosk
pomegran
25
broom
dv
dummy
gru
gree
hey
ken
lets
loll
nun
nets
nunch
pumps
sin
uk
va
ves
wars
##dish
##wash
##ov
##nal
##zer
##uary
##ero
##robe
##asc
##open
##rador
##icing
pews
shoot
##ntwo
pliers
chute
streetseveral
laz
flu
flop
cartwo
outcrop
kitetwo
airthe
reda
bathroomthe
moto
motif
beachthree
##emale
benchthe
tagging
spice
spool
spider
sponge
firemen
phonean
skylight
##apera
togetherthree
lecture
luck
guarding
guided
tvs
attic
platesome
strikes
shoppers
created
creme
pavil
drawings
lapel
piecesa
eggplant
schem
earphones
backpacka
jud
vehiclesa
businessmen
loads
signaling
accord
chops
glide
himselfa
neta
railings
media
shares
##mobile
stadiuma
ducklings
capture
angled
arrangements
labrador
jogging
confused
procession
avoid
blindf
protesting
rectangle
bridges
provides
nurse
protesters
sample
citiz
butterflies
gazelles
dolph
##nowboarder
pacific
mossy
purchase
##happy
clutching
knobs
international
attacking
success
exchanging
dreary
pipea
pleasant
##hawk
exec
mangoes
theatre
satellite
##vegetables
cuisine
##organized
apparatus
pyram
chimney
aj
ale
binder
coo
crush
der
dell
daff
ev
fal
fou
fond
fisher
hate
mint
netting
ricea
sking
vig
##dar
##dou
##pen
##ci
##iing
##game
##ued
##balla
##reet
##ont
##onna
##ckoo
##oranges
##laptop
##iler
why
budd
trade
##uristic
shaker
##assort
chu
chunk
chubby
lag
boar
topsa
##ams
caring
outer
##igned
signpost
##stool
pizzathe
backward
eleven
overa
beachan
cape
alonea
tale
underwater
swit
diff
treesthere
dries
passanger
differently
cheering
broke
brings
additional
dressers
uncom
envel
crowding
loving
traveler
march
tvthe
##closure
##isha
##ishing
pursea
multitude
##liced
hog
assisting
othersa
##point
centered
fox
designated
modest
dramat
bought
milka
terminala
##modern
adorns
formations
##boys
checkerboard
nail
coacha
tunnela
insid
cliffs
primit
interact
jerseys
monkeys
cuckoo
quilted
doubled
kayaking
flavor
knifes
solitary
vacation
guns
privacy
fixings
troop
mercedes
juicea
domin
description
hedges
apparently
flushing
ordinary
lava
crisp
connecting
incredible
prices
antenna
violin
manicured
flatscreen
fatigues
pamph
dvds
lazily
daffod
##assortment
primitive
active
bol
bout
dying
dyed
eth
esp
evil
filing
fills
gla
gest
hump
hope
mul
mich
nick
pest
ruff
sony
tear
tins
vulture
zones
##ola
##hat
##meat
##books
##kateboarder
##fer
##fessional
##00
##itter
##roid
toasting
stab
isle
mango
##ilding
neg
whale
##geous
##about
bugg
bucking
itpeople
plug
plaster
streetthis
streetsome
lakes
frol
fifth
##aming
upcoming
upstairs
rich
snowmobile
basins
signed
grassthere
grassthree
reddish
baseballs
##mber
bathrooms
sugg
foodst
coins
##ctuary
skateboardsa
lim
likes
##irts
skia
ballsa
intent
wallthere
deskthe
##cco
colon
lottwo
county
offsp
showc
##door
saw
dayan
daythe
stationan
sloping
uncovered
corre
longboard
grazinga
wineglass
remove
trackstwo
decora
perhap
highly
curl
mart
barred
bookcases
rocket
hairbrush
uniforma
statute
teach
hoses
cooker
pause
benchesa
gears
trucksa
winning
wrink
article
boxesa
judge
##scent
##lined
reflections
farma
turf
blendera
eyesa
twisted
interested
washes
straps
speedboat
peek
holea
flighta
cubes
rubble
##comp
dawn
explo
magnifying
princess
##urfing
calmly
filth
filmed
finishes
lemonade
thicket
emblem
embank
sidetwo
sidethe
melons
needed
parachut
uncut
clusters
projected
deter
tights
coastal
reclines
eighteen
nurses
casts
pressed
easel
cuddles
sanctuary
damage
gymnas
distanc
futuristic
appetizing
vertically
victory
pacifier
enthusiastic
congreg
goblet
wilted
obscured
motocross
occasion
sliver
options
appointed
aeroplane
korean
extinguisher
pepperonis
thermometer
pavilion
scheme
##double
daffodils
gesturing
perhaps
gymnasium
00
55
aid
aside
civ
fasc
gap
gutter
gho
hips
honda
lou
ore
oll
oars
pom
sons
test
went
wrench
##del
##wr
##oles
##pard
##pri
##cove
##uf
##xim
##fle
##fresh
##female
##eria
ink
##omet
##onuts
##owl
##isk
manner
##elled
atl
peopletwo
##verted
plus
plowing
##loaded
##amole
updated
snoo
snowst
tend
##rows
##urely
##ste
blouse
buildingsthe
forty
pizzeria
skiies
beachsome
elephantan
capp
roadthree
##that
citythe
motorcyle
alcove
benchan
slight
##illas
##show
scout
desktwo
rafts
cakean
spilling
##estion
swam
surfboarder
lotion
react
reacts
cellphon
clips
courtthe
cutout
contr
togetheran
runa
sock
passage
flooran
dirtbi
imple
bringing
groundan
adds
unin
corrid
loaves
fourth
remaining
perching
marb
airportthe
paints
patty
polished
canes
canyon
##acamole
reser
##splash
assist
squad
create
cookinga
dinnera
jumper
padded
footp
artis
equipmenta
servings
hotdoga
clapping
bales
glue
tiesa
carrota
peaks
sodaa
branchesa
cube
##plates
tenta
spectator
captures
rubs
##tails
bulb
confined
entertaining
filtered
powd
straightening
protecting
indoorsa
hauls
mayo
mayonna
russ
records
unload
unloaded
whites
target
campus
inspect
ropea
harnessed
competitor
thought
retrieving
kiwis
flashing
pallet
latest
signthe
wavethe
resembles
appetizer
untidy
exercis
remodel
venue
teammate
drizzled
paradea
zombie
convenience
wiimote
chocolates
grafitti
darth
lingerie
quarter
components
lasso
##professional
calend
floppy
lagoon
pesto
colonial
offspring
embankment
ghost
mayonnaise
350
bass
bale
cul
cgi
dj
iw
iv
mut
oats
pace
vader
wan
##train
##tuffed
##pm
##pend
##nette
##heep
##hole
##mpled
##aign
##aced
##zed
##yer
##uing
##uum
##ba
##vintage
##eros
thirt
once
##rees
ana
##chment
##lady
##ida
areathe
##aby
peop
standinga
shr
role
ply
doctors
lazing
parchment
smir
smashed
##cement
batman
girra
upthe
flick
flops
dogthe
snowsh
closer
grated
grins
surve
airshow
phill
youngster
bathed
##ssomeone
seg
herea
coord
lick
##imate
mounting
disemb
disorganized
alb
alas
alien
boardstwo
trump
##ship
scrol
underpass
##aseveral
coverings
sweeping
floortwo
div
suited
dripping
hotela
god
wih
##resso
chew
fruitsa
brother
gush
guacamole
groundthe
moder
mohawk
adv
unpa
cordless
arc
##corn
barking
breed
talkinga
allig
montage
rowboats
intersecting
halfa
tubes
armed
##rona
exact
forklift
flame
helmeta
##rical
newer
engineer
fisha
winnie
artic
creama
roundabout
devicea
turban
couchesa
lowers
shadea
lunchbox
##going
chopper
dollhouse
glaring
carpeting
stork
reflect
railinga
structurea
supply
sheeta
lifta
loga
ketchupa
pinstri
handlea
crouch
humorous
crops
tuck
countersa
##wooden
bulding
steeples
scarves
audio
canopies
resorta
protection
protected
brake
squatted
hipsters
microwav
wreck
arenaa
badge
textured
rendering
decent
decals
keeper
phonestwo
heated
measure
lowered
portions
gallery
samples
brunette
embrace
pouch
1950
spires
destinations
maneuvers
nike
sightse
##ville
officials
scooping
yachts
ripened
generated
chipsa
luggages
lavatory
vegtables
verdant
congratulations
titled
novelty
pretzel
dye
width
magnetic
australia
ankle
disgusting
straddling
selecting
khaki
describing
tangled
pyramid
espresso
civil
snowstorm
iwth
unpaved
13
due
ewe
gon
hon
hig
jour
mim
mist
ny
our
slo
sack
sick
session
virt
ward
##ecker
##wer
##rings
##card
##mal
##mea
##mond
##uette
##kites
##fted
##ito
onthe
inser
##enc
##ena
##alou
toe
##etrack
##oph
##iders
travers
tractors
shift
chess
chicks
choose
streetsa
begging
boom
boiling
parag
batthe
giraf
##ands
uphol
doggy
fieldpeople
snows
##reeze
##sty
##store
##stones
sidean
bedan
playa
##pthere
suck
sucking
backsplash
##ims
overweight
roadthere
picturethe
disney
boardtwo
motorcycletwo
grace
scary
handtwo
handful
handlers
handwr
develop
spo
floss
flowera
##ifi
bunched
backgroundsome
birdhouse
leis
hydro
teddybear
wiith
sidewalkthe
mountaintwo
hillsa
hita
bring
grounds
##kethere
feel
feast
add
advent
advan
unw
unhappy
crossroad
losing
pastel
herder
ridea
decorates
##formed
contained
patties
appre
railsa
##acing
sleeves
##issors
purpo
screened
panini
tubs
##alent
arma
armsa
sticka
teacup
##spired
penn
steers
slicesa
vana
lampsa
pedal
earrings
polaroid
artich
smokes
controllersa
cakesa
sweaters
stories
wares
drab
draft
drags
speak
watersome
mounds
calz
fastened
cupboardsa
ingredient
sprinklesa
nailed
joint
brim
surfacetwo
quietly
health
geisha
cameraman
elegantly
wrecked
coastline
##kyo
texas
rotting
specialty
yoga
environmenta
summit
excitedly
competitors
sanit
ferns
dune
overstuffed
squirting
olympics
crammed
apparel
blended
omelette
conditioner
panorama
cantalou
gorgeous
orders
grasping
broccolith
rhinoc
accessible
##player
internet
pretzels
gauges
cosmet
contemplating
illustration
eastern
energy
plumbing
rollerblading
greek
vigorous
ethnic
frolicking
##computer
implements
corridor
flickr
paragl
35
agg
breeze
dach
dwar
fru
fits
font
iris
kim
kale
len
lions
lilies
nasa
od
pand
pages
punk
pentwo
siding
sib
tart
tattered
worm
##eer
##san
##table
##tons
##luggage
##rily
##hib
##gest
##yd
##ya
##ju
##4th
##erns
##ansa
ange
##ald
toes
touring
tokyo
##chain
##ises
manip
manuf
never
nect
##older
##utton
skying
shin
sher
itlarge
##asse
chow
charge
chap
ladle
##herd
smear
##andise
picker
rifle
##vehic
walnuts
tennistwo
platean
watery
buildingstwo
sees
cobbled
skim
beachs
beachseveral
toiletthe
citytwo
alot
alike
aligned
slim
##she
sands
sinksa
glassed
lightthe
scan
scape
dew
sweep
##rtwo
requ
surfboardtwo
surfboardthe
surfboardstwo
dial
cellar
clas
clipping
##apples
bowlsa
content
##upper
bikin
runners
backgroundthree
soaking
prep
govern
wipes
anime
sidewalktwo
##ressed
##parking
rested
stations
dressera
unke
camo
##ulted
##pected
coloring
racetrack
perpend
monor
jetway
##clock
muzzle
##akers
brushy
##mpy
mouththe
silo
greasy
battered
hazard
sheer
sheered
shepard
hula
engra
performer
penned
creative
particular
##dders
duct
righta
trunkan
ques
quant
directionsa
##scri
devil
smokea
harry
cookeda
boardinga
##bright
monitorsa
lettu
glare
strainer
capital
teenaged
doorwaya
apartments
apartmenta
##nished
lida
further
peppersa
spota
shared
streama
simul
captain
separating
guitara
##bowl
competitiona
expensive
furnishing
observed
joke
sugary
cranberry
hallwaya
chests
glovesa
sugared
neighborhooda
priest
tinted
dusted
embroid
timer
skiisa
grips
orioles
fairy
geomet
hikers
hiker
bluea
grinning
trimming
actively
examine
anything
kisses
badly
conveyer
stables
bridal
decal
solo
artistically
lowering
dividers
firetrucks
files
scrap
torso
longh
pretends
bricksa
##matched
dropped
hunting
flamingo
maneuvering
release
finely
fudge
politic
signtwo
luggaget
accented
dumping
##warea
firefighter
##fthansa
merchandise
trink
zipper
##motorcycles
attendants
volkswagon
llama
slatted
bristles
puzzle
shredding
##uccino
sequence
##police
disposable
mario
insect
jalapenos
lollip
lucky
accordion
fondant
buggies
showcasing
cappuccino
russian
sightseeing
higher
appreci
cantaloupe
dwarf
kimon
angeles
nectar
##upperware
bikinis
perpendicular
6th
ari
amp
damp
ful
gel
gross
gps
hide
ir
ii
jacks
ko
mate
pris
rare
tupperware
unis
viet
##tan
##oire
##net
##night
##rig
##cers
##cap
##mother
##gr
##bre
##bas
##vine
##inting
##inter
##inated
##any
tho
inverted
##ror
##encea
##altered
stood
stam
##onies
##ison
##utting
##abo
ate
atm
shit
shee
itman
plowed
tablepeople
chased
laketwo
bodies
##seven
floo
snout
fieldfour
tends
fronted
airtwo
bystand
batha
baseballthe
bathroomtwo
kitchenan
backan
##imals
picturetwo
gameb
motorcyl
flyinga
boardthere
slot
##shund
sinkan
areaan
boattwo
yellowa
treethere
undergoing
vein
spons
swor
colander
dies
differ
clump
showcase
soon
pred
lufthansa
passport
anothertwo
chev
tracksan
broch
adjo
prohib
los
loop
keychain
telephones
##tender
childrens
highlight
curving
breath
videogame
allowing
birdsa
nightthe
forefront
paperback
bookstore
mule
tilea
armor
engage
performed
urns
underneatha
belie
wildly
hotels
sealed
seaplane
wheeling
graffitia
flyers
onionsa
wedged
awaya
potatoesa
harb
harnes
hardware
##fection
claws
interest
closeda
porta
decka
plaina
veggiesa
wintera
wintery
milksh
buttered
microphonea
sectioned
humans
cupboarda
##bedroom
daily
conesa
usb
stringa
expert
john
confetti
flooringa
ceremon
mainly
bills
filter
balconya
cushioned
orderly
drivewaya
movement
popcorn
braces
##amaha
##emany
please
witting
hike
skinned
##girls
cameratwo
camerathe
shelve
google
silhouettes
##ification
attended
impro
vacuum
tuxedos
##timea
##araunt
dunes
##cattle
defaced
squarea
juicy
belonging
therea
marshy
raspberry
bounces
reveal
nutr
##skiers
occupy
tangerine
##zebra
bulldo
seasonings
gotten
utensilsa
shoots
orchids
inviting
windmills
graveyard
lanterns
species
continental
muscles
muscular
connection
##beaut
skewers
erected
terrace
seperate
junction
bulidinga
represent
wildernessa
chaise
marinara
explaining
unpacked
acrobatic
eclect
overhang
##bench
nunchuck
ajar
crushed
doubledecker
determ
swampy
contrast
marbled
artisan
alaska
alligator
girafee
rhinoceros
aggress
dachshund
pandas
government
monorail
geometric
jackson
40
74
brought
cay
crick
egre
feta
gild
hop
heeled
kang
mild
mast
slack
sorting
vio
valent
wis
wti
wolf
yo
yan
yamaha
##eon
##six
##writ
##overs
##pened
##cif
##cans
##cooked
##home
##mpt
##batter
##kirts
##jet
##0s
##inside
##inity
thinking
thai
ontwo
often
##ares
##aroo
inclosure
inspired
##ality
stil
##orry
##laged
##eboarding
peoplepeople
shutter
shorter
shorn
##iles
##locks
##loaf
chipped
##herea
frothy
thatched
##ateur
##ads
fieldbaseball
nears
walnut
closing
trained
surboard
##inders
waterman
loos
##inks
sever
comical
bathrooman
bead
skii
beachmany
ballthere
mena
cityan
laptopan
chairthe
scant
scare
treet
computerthe
liter
spla
spare
spins
sparrow
truckan
truckthe
fireh
bann
outsidean
umbrellapeople
climate
courtthere
courttennis
skythere
plateb
stucco
birdc
##othere
floorthe
refresh
flowerstwo
hillan
hitch
grounded
mos
hanged
stuffa
restaraunt
sloppy
tiean
units
enfor
promot
wineglasses
emitting
hangings
bicycling
clement
cleans
remain
perio
walkers
curry
marg
markets
potsa
kitespeople
sett
cabina
meatloaf
rowa
respected
handsome
pansa
amateur
tubthe
battera
hairless
armoire
expl
trium
mousepad
teaches
cookware
flapping
cresting
paths
paid
draws
turnips
wildtwo
enters
garment
garland
pizzasa
towns
##itious
gloved
teama
question
giants
butting
roosters
straws
territ
appropri
luncheon
roofed
twir
outskirts
typewrit
horsestwo
bottoma
friendsa
overheada
leashed
relaxed
clothinga
##coal
growth
candlea
##allets
streams
linesa
lega
##stered
freeze
charcoal
florida
stoop
copy
tux
housethe
skirts
naval
expans
planks
exhibition
confusing
indicator
volunt
balconies
stagea
systema
cliffa
marinaa
recess
fabrics
musician
register
##eboat
dancers
folder
minor
ruins
rugged
halter
halved
nurs
solid
selections
campaign
easily
umbrellastwo
tortillas
unripened
fitting
clowns
attentively
outfielder
flea
retrieve
pretend
belongs
temper
bruised
##iency
storefronts
parasailers
entryway
rodent
aims
aimed
##cream
lesson
resembling
carvings
conditions
snapshot
cakethree
tacos
##busy
vessels
totally
knob
blossoms
concentrates
mcdonalds
choices
packets
unbutton
preserve
anticipation
navigates
dealersh
spiky
efficiency
skillfully
scott
##passengers
frizbeea
dodgers
surgical
sundae
switching
dramatic
enthusiastically
squadron
calendar
wanting
virtual
upholstered
hydrogen
manufact
quesad
prison
diesel
gilded
kangaroo
wtih
period
appropriate
dealership
15
24
3rd
ads
bold
cud
crispy
dandel
huts
jul
mash
malla
oo
ok
rue
sister
tand
user
vit
wro
yelling
yaks
ze
##donuts
##wild
##wined
##pse
##ply
##cle
##casea
##aired
##iate
##usa
##baby
##kier
##fa
thee
##edic
toiled
ster
stony
stoola
isol
##lam
whir
##olor
areathere
buid
traff
peoplethe
shamp
shocked
##nthere
##ffy
chang
laces
##hernal
bees
frown
parap
##seen
piers
rims
snowthere
trainers
##ulous
bustwo
##eela
##ainted
##sten
kitethe
waterthis
watermany
##enthere
##phan
##airplanes
coco
mothers
otherthree
lookinga
overly
cauc
causing
ballsome
##empty
menus
gamestwo
moust
dism
intrig
##ongous
##uments
sinktwo
boatthe
chairan
chairlift
aroundtwo
lightsthe
handthe
deskan
rag
spout
spelled
firea
banister
reader
dipped
bunting
cowgirl
courtan
skythree
telesc
sheepdog
mirrortwo
plater
oceans
##dola
mountaintop
broo
imac
daythere
##parka
feasting
crows
themthe
##igerator
longer
doorthe
##enger
bartender
videos
allows
bodysuit
##usion
rampthe
##dered
muda
toyota
respective
seatsa
darkness
mata
##izable
postcard
##toons
hunt
##lices
attaching
oblong
performers
shading
plastica
squid
partner
towelsa
pail
pausing
wirea
entran
entrees
leftovers
padding
swimmer
blending
write
quality
jugs
tours
fashionable
subwaya
harvest
farmland
turbu
gardening
##houses
luncha
crucif
glows
walkwaya
goodies
mismatched
comfy
waterside
muga
itselfa
simply
tanka
gently
##flip
missinga
museuma
humongous
focusing
returned
patchwork
auth
newspapera
habitata
hillsidea
coversa
join
joined
custard
saddles
depict
exhibita
downthe
suspension
prior
prize
ponytail
toothpicks
ringa
descends
amounts
illuminate
strangely
detail
actual
stemmed
exciting
wanders
willi
anyone
collecting
recorder
tableclotha
splashes
opponents
snuggles
presses
anchor
satch
holidays
technic
roadsidea
scruffy
attentive
future
pontoon
seriously
camouflaged
parasailer
skulls
##blurry
evergreens
congested
barricades
sparkling
heights
gnome
trophies
coconuts
wildebeests
proceeds
landscaped
##pectators
wakeboarding
affectionate
australian
erect
anticipating
navigate
scallops
involved
unpeeled
knights
autographs
##friends
tapest
sedan
necessities
peripherals
interviewed
mingle
##keeper
motorola
citizens
dolphin
derby
congregating
snoozing
dirtbike
peopel
snowshoes
articulated
gondola
handwritten
##ifiable
vigorously
smeared
embroidered
unison
thorough
ceremonial
eclectic
slacks
enforcement
territory
typewriter
nursery
temperature
paraphernal
turbulent
66
aa
alo
aru
bord
ci
cad
cents
dusting
ess
escape
egy
gen
hen
hoping
mowed
pm
pes
pum
puff
ry
rin
rusting
trou
tig
wth
##dul
##tow
##tch
##wa
##wat
##wall
##lot
##pink
##ni
##cow
##hop
##half
##hound
##mil
##gles
##zes
##ura
##uous
##face
##inate
##itating
##ancea
onan
##atures
inscri
##repair
withe
##rolet
##che
##cha
##isley
##ello
##ili
##olly
aren
##icious
shakers
rods
##ndra
##ffle
lak
frolic
smell
##antage
##ripe
fliers
##elderly
carstwo
dogtwo
doggie
snowan
trainthe
##ays
redhead
bytwo
youngsters
##boards
buildingthree
comic
sumo
forth
corona
horsetwo
backing
backtwo
greenish
poop
giraffee
boya
##ghan
otherthe
##iment
overloaded
clockan
clocksa
bearthe
confection
gamethere
gamethree
disrepair
ally
boardan
boardman
slush
compute
windowed
windowthere
chairtwo
scri
science
treed
##pedestri
underbrush
defl
veil
fires
phonewoman
bangs
colla
colgate
bowtie
diapers
clipped
offered
itsmall
bowlthe
contras
##uplic
maid
togethers
couchthe
togetherthere
lumber
##othe
dirttwo
womena
daythree
headdress
##parent
faux
unic
unseen
cupsa
campers
proces
props
proxim
corned
themthere
sunken
accept
locker
keyboardthe
baguette
serene
mare
potential
monks
nighttwo
means
canisters
drinkstwo
slicer
mates
##toilet
armrest
greyhound
assoc
pendul
squinting
creation
subject
##ddles
paul
paisley
distin
tiara
##body
neckties
dryera
enda
wheelb
pada
packa
frisbeethe
bleed
writes
artif
articles
paintinga
directiona
messed
messily
butts
delight
bushesan
professionals
mothera
desserta
umpirea
crabs
extension
propping
crumpled
twisting
coata
struggling
landinga
transparent
peeping
peaco
outfitted
supporting
containersa
##grey
plattera
waitress
delivered
crosswalka
taxider
toolsa
angrily
##umerous
delicate
tundra
winged
bulbs
shadowy
alleya
stirred
avo
librarya
elf
popping
strolls
protector
producing
instructing
descend
frienda
thanks
links
uncle
arrived
cobblestones
unfur
fencethree
automated
born
deciding
identification
##gula
barbec
calls
calling
campground
satin
chandeliers
##gnizable
rolla
stumpa
scramb
empire
visitor
blooms
domestic
thermo
flashlight
nuzzles
socialize
kitchenthere
orchid
ripen
staying
supports
communic
intricately
daylighta
enthusiasts
parli
property
chilli
innoc
widow
merchant
squeezed
zombies
tasks
document
sunbathers
impressive
##friend
awkwardly
unidentifiable
adolesc
footed
vaulted
outcropping
falcon
trooper
pamphlets
ruffled
vultures
parachutea
ollie
powdery
exercising
ivory
album
gushing
leisurely
adventure
shinning
unkempt
trinkets
kimono
bystanders
chevrolet
milkshake
nutritious
##beautiful
747
egret
stilts
tandem
vitam
wrote
buidling
shampoo
changed
caucasian
satchel
paraphernalia
aloft
egypt
contrasting
proximity
pendulum
peacocks
cult
dear
dren
fid
gat
gee
gna
hes
hil
ka
ker
kill
kraut
kabo
ml
munch
munches
nud
os
pate
pyl
pallets
ric
sash
saint
tumb
tint
viny
veter
wee
wran
wint
##dough
##teddy
##wire
##lon
##pool
##pots
##pitch
##rints
##cr
##cel
##cially
##hl
##mark
##ah
##ulent
##bot
##bell
##vo
##ittle
thigh
##lephant
inches
tote
stit
stur
stun
stamp
##onally
##irs
##chie
mani
##rapped
##ellent
##ilant
whims
##abby
atri
atmo
buck
traveled
##abled
shattered
##vera
plot
streak
dove
coup
ladders
become
bob
topthere
topper
##ception
##river
catering
upan
upset
piea
fling
fieldmany
##kees
frontthe
tennisthe
gril
grating
grits
blacktop
busthe
roompeople
##stle
##stic
airthere
bythe
##ssmall
combs
##thern
forming
foodthree
pod
##affe
overhand
beachman
conv
umber
umbrellass
alf
alto
almond
benchthere
tows
sling
slider
laptoptwo
intert
##illi
##illy
windowsthe
yellowish
scub
handra
handstwo
trestle
deco
death
##orts
rafting
swi
repla
reeds
lotthe
dive
click
appe
shirted
skistwo
countertwo
counterthe
racketstwo
mirrorthere
planean
cheeta
hillthree
saute
daypeople
daytimea
headlight
##part
resturant
cork
corpor
themthree
crossb
locks
broccolli
knoll
remark
##outside
bicyclesa
bagthe
walkie
dinette
buildingsome
jetty
sombr
meaty
rivertwo
riverthe
polish
ramen
rowers
runwaythe
abouta
mouthwash
seattle
ample
mating
photographers
zoothe
##izer
pills
saluting
salami
busesa
hued
hugged
obel
obese
cleared
hover
shaw
countrya
shota
crepe
notice
afro
afghan
tiethe
readinga
pedals
peddling
graffitti
wheelsa
graffitied
pedestals
schoola
spoonful
foota
artfully
fanc
objecta
quote
foyer
tomatoesa
takena
##tiea
smoggy
roots
flagsa
hamper
gamesome
crafted
kickstand
framea
extend
cardigan
crude
weigh
roofs
disco
springs
pastriesa
doorways
drag
selfiea
stunta
paddlea
cubby
##plu
puppet
terminals
##crafts
consist
ducky
awesome
bucketa
removes
transports
observation
laughinga
fountains
trolleys
bookshelfa
stirs
systems
gaze
##wheel
mansion
warmer
bakerya
casesa
duska
momma
bikethe
unusually
##unda
readying
toothpick
guardrail
backyarda
pianoa
operates
grip
blinders
junglea
playeda
actually
danish
listens
rafters
stride
daughters
factorya
windsurfers
cleaneda
hangara
providing
robotic
anchov
scratch
scratches
demonic
plugs
parasails
panties
surprise
vicinity
ultra
sprout
tugboat
wallpapered
flashes
197
crumbling
rapidly
signthere
graduates
wavetwo
icons
contrails
madea
cruises
labelled
purchased
finds
search
sparkler
yawn
handlebar
zooms
##bicycle
grasps
properly
specific
wakeboard
ashore
exchange
bracelets
riverside
seperated
involving
ankles
cylinder
griddle
mmm
volkswagen
sunbathing
origami
necessary
composite
##commuter
dreadlocks
hoof
bumping
boxtwo
fetch
mamma
emptied
monoch
investigates
duty
fridges
parakeets
pomegranate
vespa
blindfolded
fisherman
chugs
mulch
wrinkled
shrine
plywood
arcade
pinstripe
traversing
purpose
calzone
##vehicles
engraved
lettucea
koala
flooding
adjoining
harnesses
bulldozer
cricket
scantily
exploring
expansive
unbuttoned
cuddle
isolated
crucifix
arugula
trouble
##military
deflated
##uplicate
processing
wheelbarrow
artifact
parliament
vinyl
##pitcher
atmosp
scuba
cheetah
remarkable
anchovies
14
22
54
5th
aver
bina
bomb
die
dine
dedic
falla
footh
fowl
gal
ly
lee
lily
mack
praying
rent
ranger
tp
ww
wast
##sethe
##lery
##pee
##past
##nched
##cass
##cam
##cross
##cats
##cyclist
##hirt
##mies
##au
##aled
##aiss
##iut
##iques
##gul
##giving
##zu
##uled
##bug
##bunches
##kina
##fort
##0th
##eran
##erie
##leg
##arf
init
inlet
##ences
staged
##chick
##oup
##ouched
mandar
##lac
##ooted
##otwo
wheela
##oline
areathree
pecks
peper
##ffiti
plump
streaks
dodge
streetred
streetblack
streetcars
lac
lapt
frosty
fiving
bovine
##antas
##antique
##ado
cater
piping
flas
carp
carcass
outward
nearing
snowf
snowthree
snowseveral
tended
traintwo
trainpeople
parkthere
parkpeople
parkthree
blacka
blackberries
baseline
roomthis
##still
##stuffed
##inds
grassthis
byan
waterfour
##entic
bathrobe
bedthere
buildingseveral
##airplane
bathroomthis
susten
fort
foodan
woodland
woodstwo
greenhouse
lik
lived
limo
##irty
##imeter
clockthe
pics
cause
ballman
ballwoman
roadseveral
##rely
waxing
gameseveral
umbre
alga
slate
laptopstwo
truly
zebr
asking
##ume
frisbie
##unge
lightning
lightening
scouts
handan
tapes
taxing
tress
underway
ravi
##estreet
trucktwo
swat
review
lotan
lotthere
bowing
dials
offer
courtthis
cuta
cutlery
##eadult
##quee
##quely
plating
prec
hyrd
hydr
wiped
wiener
wizard
sidewalkan
##ously
saila
imag
mock
snowboardsa
stationpeople
enclose
prosc
hatsa
corks
lod
locking
kne
knelt
kidsa
donation
telephonea
pastram
##tening
tracktwo
keyboardan
cornerthe
curio
mary
marquee
barstool
tricky
catchera
mein
linole
##acle
orphan
runwaythere
mules
respon
runninga
purs
silk
baltim
grease
amish
booster
lookers
sleepinga
vehicular
silverwarea
enclosures
postal
##pper
foresttwo
exits
exception
statu
attachments
attacheda
femin
catsup
##died
crepes
creates
urinating
turna
rollers
vancou
##ista
lefta
arranges
tranqu
earl
winetwo
##pole
fana
soul
profession
suitcasesa
##landa
stains
bakers
cementa
designa
designer
designsa
sunglassesa
funky
mache
clam
bakes
napkina
twins
struggles
shipa
pawsa
scootera
sprinkling
islanda
spotlight
deploy
semin
mustarda
individually
painta
delivers
sticksa
firs
cyclea
cropped
crotch
fingera
coolers
tucks
tugging
housetwo
houseboat
corners
blanketsa
navel
report
repaired
winga
jobs
prince
lightinga
downtwo
dumplings
secured
sprayer
multicolor
onlooking
uniquely
films
services
audiencea
warms
elk
eliz
elsea
ownera
protein
onlookersa
descent
scarfs
illuminates
recycling
learns
slam
actors
arrival
colleag
rules
closest
diamonda
possession
texts
depota
briefcases
renaiss
departure
happening
kettles
careful
wheelchairs
expressing
gallon
gallop
sixt
##building
grinder
ferret
trots
cockat
tilts
bulletin
carnations
ascends
similarly
oversize
consuming
consumed
latt
nutella
released
shavings
myster
nibbles
fixturesa
necklaces
dolla
scoops
graduate
abov
mechanic
website
graphics
flannel
participate
cruiser
estate
stake
general
purchasing
diagonally
barbwire
patrolling
dalmation
whisk
whiskey
enthusiast
vivid
vineyard
wilting
drizzle
affectionately
rumm
sleeveless
bustling
artsy
encased
bracelet
charming
condimentsa
sittin
task
choosing
documents
miles
weaving
##ourish
##passenger
proceeding
kilt
beetle
unidentified
adobe
##rosse
investigate
zoomed
parakeet
stranded
successful
executing
envelope
michigan
plastered
fascinating
louis
smirk
advantage
exactly
inserted
suckling
advanced
crossroads
##ydrant
##assembled
scanner
lollipop
##break
highlighted
scarecrow
splayed
firehydrant
birdcage
scottish
quesadilla
brook
authentic
tapestry
essential
associ
taxidermy
thanksgiving
adolescent
drenched
mlb
convoy
obelisk
average
sustenance
ravioli
pastrami
linoleum
orphanage
baltimore
vancouver
renaissance
1st
34th
45
53
ax
bard
bellow
cir
cors
cilant
dc
dull
data
duplicate
fant
final
felt
gator
icon
ja
jous
juts
jones
lur
mr
mets
nach
nath
nesting
pf
raring
sips
tacks
vod
vcr
wound
##eers
##sion
##sidea
##wy
##wine
##oting
##lie
##pd
##pear
##pill
##ridge
##cd
##cent
##cissors
##hea
##hell
##more
##ael
##irely
##gas
##uv
##ule
##ueling
##bra
##bages
##vag
##vestwo
##kid
##fam
##foot
##60
##init
##into
##itution
##eral
tham
thous
##rom
##althy
toiler
stead
stenc
##omic
##cka
##orama
##chop
##chief
manue
manhole
sites
##ilver
##ilation
##otes
wharf
##oly
##abeth
tramp
##urally
shabby
itmany
tablets
tablefour
chem
chari
launches
fier
fives
smash
##antled
##amous
cath
uptwo
pike
groupa
##ional
ricks
carves
outthe
outlined
fielder
fieldman
nearest
##nister
##ulate
parkseveral
grates
grater
signan
##eller
##straffic
airy
watercraft
##enta
bathe
##boarda
comically
##mbo
bathroomthere
coop
skateboarded
skateboardtwo
backg
motea
woody
lilac
otheran
##imposed
overla
overcoat
overripe
toiletsa
caut
caked
##thouse
disks
disabled
disassembled
motorcy
slid
sandal
sinkthis
gamean
chairthere
tailed
deskthere
opener
spell
trucked
phoneman
divers
umbrellaman
treesseveral
treesthis
##ichen
suites
clinging
itsomeone
skypeople
apric
##quito
sandwichthe
##ager
##agonal
mirroran
platethree
prepping
lev
counteran
counterthere
##angles
hydrantthe
rackettwo
racketta
animation
sidewalkthere
standng
standstill
save
modeled
stationthere
advis
bananasthe
uns
unm
unz
unlit
unplu
camps
corded
theman
varied
##ultaneous
skateparka
pastor
cameraan
polean
polethe
perimeter
cabbages
curling
marmal
controlsa
kitesurfing
dinera
tvtwo
ladybug
bodya
applic
bookbag
himthe
playersa
##akea
##ials
housean
storesa
helped
##graffiti
intersections
noon
nosea
darkly
##teen
zooan
enclosurean
enclosurethe
cookbook
drinkinga
basketballa
flaps
##bye
assists
penns
pendant
belta
entirely
shoretwo
director
applying
dinnerware
vasesa
concession
ninet
sailboard
eggsa
racksa
flyer
pasturetwo
frisbeethree
concret
matchtwo
cabinetsthe
southern
##lands
##sethere
smoked
trasha
##ughter
funa
##bbly
##bridge
bagg
crusted
twp
twist
dollars
constructiona
decorationsa
horsethe
bottoms
mixes
mustang
gliders
glares
pride
goodbye
posting
stillness
casing
casethe
casino
pastrya
powerful
selfa
writings
##rays
remotesa
courthouse
##plants
simultaneous
locomotives
formationa
rosesa
awful
tailgate
collide
colliding
collars
##athis
cros
flowna
cupcakesa
usually
headphonesa
magnific
auction
shadowed
confer
crut
enjoyed
bootha
crusta
accessory
largely
largest
countertopa
backsides
scared
chesta
throwna
accessoriesa
sunlighta
idea
dispen
embell
brave
braves
baya
eveninga
sideline
operator
relatively
stripa
grim
circlea
musicians
geor
thinga
regal
institution
closeta
##eboy
speakersa
lobsters
gooey
googly
convex
excellent
listed
pensive
monumenta
ruined
portraits
overpassa
facet
decre
phonethere
happen
extravag
piggy
pigtails
germany
payphone
superimposed
shouldersa
scratched
torto
edited
hutch
realistic
renov
rabbits
merging
pantsa
barefooted
rimmed
huddling
sledding
assembling
memory
theres
crowns
italy
crumbled
browse
##pieces
detailing
wrestler
tickets
anno
ripening
screw
screentwo
welcoming
barbie
sparklers
clipboard
burritos
whiskers
sundown
recreation
venice
clutches
rooftops
chilly
chillin
wakeboarder
unbaked
mailboxes
squeezing
lanyard
scallions
experien
nerd
malays
llamas
original
announcing
installing
2012
splits
organization
admires
pomegranates
grumpy
fluid
judges
diffrent
uncommon
foodstuff
correct
atlantic
footprints
coordinating
trumpet
dividing
nypd
wardrobe
irish
lensa
sheriff
sweeper
simulator
longhorn
politician
##interior
brochures
determined
aggressively
yankees
whirl
moustache
dismantled
telescope
peson
tigers
redheaded
collaps
avoiding
unfurnished
thermos
innocent
egyptian
stunning
whimsical
atrium
corporate
crossbones
sombrero
shawl
##iutto
##chicken
peperoni
likely
algae
prosciutto
feminine
tranquil
deployed
seminar
elizabeth
mysterious
cilantro
jousting
unplugged
marmalade
magnificent
42
astr
bones
cri
crt
cinder
dw
dood
dice
etched
fathers
ging
gain
han
hurt
il
ion
ironic
kl
kart
mort
nad
nourish
oy
oth
preen
rumb
rental
ranges
sar
sched
sinking
sending
ted
tangle
vista
wad
wond
wiring
wishes
xbox
yells
##even
##dom
##die
##dder
##dark
##driver
##sy
##oa
##okes
##low
##late
##nk
##nets
##numerous
##hs
##ht
##hi
##mus
##mings
##gated
##gling
##zona
##you
##ygen
##uge
##uct
##bet
##baked
##vari
##kk
##farm
##france
##5th
##atar
##array
inc
inthe
##real
##rets
##eddar
toa
stoned
##essing
##ason
##asket
##etland
iss
##irates
##iser
manmade
##ilt
whats
whether
##roup
##ardi
buzz
bugs
buckled
skilled
pew
peg
peal
##itement
##urst
shetland
whiteboard
tablemany
tableta
challe
cheap
cheddar
streetmany
pared
parading
toped
topsome
smack
##ada
downed
downwards
flutes
sna
snail
cartoons
outline
##vela
tender
clover
trainan
##ulating
basina
surge
##stat
##stown
blt
aircrafts
airfrance
grassing
sideway
buildinglarge
buildingsthere
sevent
sewer
pizzathree
skateboardthere
backthe
beaked
##affes
element
elements
cakethere
girlfriend
balltennis
wagging
compared
citypeople
disca
diska
slowing
motorcyclethe
intended
windowstwo
glassestwo
grade
graham
areapeople
boaters
browned
lightan
decl
raise
frisbeean
##ccer
colts
surfboarders
##ggle
reached
reacting
treessome
##ationa
clicking
##playing
cutouts
bowltwo
contending
abs
flows
fender
togeth
couchan
##quis
dribbles
soar
soiled
dougn
platethis
prepped
hybr
lei
hydranttwo
##dogs
displayan
floorthere
floorseveral
wipe
mountainthree
towerthe
flowersthe
chevy
hillseveral
imm
immed
brilli
guinea
headphone
fading
failing
zebrasa
ada
una
cupola
ending
proble
provid
prone
crowed
boxer
boxers
boxcar
drivinga
suns
loses
longing
kneep
refrigerated
emirates
hanginga
colora
remn
trackst
##outdoor
highest
curves
marath
barsa
kitesseveral
buildingsan
meant
meand
homeplate
itemsthe
himtwo
riverthere
restaurantthe
waitinga
dishing
runwaytwo
resp
raintwo
mouthtwo
screensa
intersectionthe
tuban
lookout
wayan
matter
photographa
##izes
armored
pickled
teaa
engages
feeders
crossinga
##oons
hosea
birthdaya
flakes
workbench
trailtwo
creatively
creatures
bushestwo
urine
partaking
carriaget
skateboardinga
tiers
##chester
chickena
centre
geared
graffit
saucepan
tarmacan
glob
##heard
##healthy
spooning
footlong
cattlea
bleak
woodsan
quad
soups
messenger
##scope
##yclers
clothesline
former
smok
turnt
##racted
urinala
loader
overlooked
kickflip
icecream
bail
bagged
touched
dollop
struck
picnica
transformed
mixers
washbas
skatinga
strain
netbook
plainsa
##soft
smartphones
modeling
mushroomsa
waring
propellors
classy
selfies
medit
openeda
presid
jeff
vesta
bacona
sculpted
logsa
frostinga
streamlined
blocka
paintbrush
charity
completed
suppliesa
shoela
croutons
motiona
dimension
wagona
troll
garbagea
##comes
##burg
strawberriesa
chinat
studies
stickersa
joker
##vania
crink
weathera
crusts
tirea
picklea
leagu
folders
everyw
##nected
chested
chestnut
meadowa
billows
morea
peeler
##groups
elvis
interacts
duster
timey
protects
toothpast
besidesa
pleased
canopya
grima
##ordic
fabrica
talkie
drawersa
hippo
infamous
regarding
cellphonesa
soaps
trimmings
wrappera
dances
##clothes
excitement
collected
fauceta
trougha
fencethere
bridled
bridgethe
eager
##bags
rotating
logos
robin
attracts
stomachs
gerb
newlywed
dressinga
foga
gallops
bordering
maps
oxygen
shrubberya
kingdom
fern
outsidethere
protestors
scrubs
definit
afternoona
pirates
breasts
breasted
jammed
conventional
ascent
smoothies
spaniel
undone
20th
kitchenthis
##ylvania
hornsa
brownish
##skateboarder
rodeoa
finding
wrestle
hundred
awnings
beaten
wonderland
anni
floret
screaming
drainage
daisy
booties
persian
untouched
##elect
functional
gowns
clippers
lampposts
rushes
amazed
hashbrown
choice
##players
##beach
protrudes
skewered
swirl
brussels
puddles
succulent
wreaths
charms
riversome
prominently
execut
shoveling
representing
lavishly
popsicle
efficient
##commercial
bumps
boxthe
sundaes
spears
zooming
mingling
looming
stovethe
executes
uncomfort
envelopes
stabbed
foodstuffs
##doorway
teachers
pomeran
footpath
culinary
journey
developed
unwrapped
artichoke
ingredientsa
cosmetics
siblings
##juana
##iseshell
require
quantity
arizona
fulled
vietn
gamebaseball
motorcylce
swords
improve
violet
wispy
mosquito
settee
triumph
twirling
recessed
dandelion
williams
borders
##lephants
sturdy
handrails
replaced
monochrome
atmosphere
dedicated
leeks
lacrosse
carpets
earlier
professionally
essentials
vodka
##family
##intosh
thousands
rickshaw
campsite
pennsylvania
simultaneously
crutches
decrepit
extravagant
tortoiseshell
renovations
annoyed
whirlpool
astride
klm
##variety
challeng
hybrid
dimensional
grimaces
definitely
pomeranian
29
arial
doo
dent
dap
dub
dumb
densely
fear
gh
hull
harm
idi
icea
jama
kris
kong
ling
les
later
lunches
lorry
lcd
mt
mol
mig
mun
mold
nip
nordic
oin
ora
prow
pure
pun
pak
pines
puffs
ree
swo
send
sens
tid
vying
wile
wren
weap
##dis
##dney
##tall
##lt
##lis
##nies
##cute
##how
##hilla
##mera
##iestwo
##bull
##bows
##vice
##ford
##jacket
##erub
##ancy
thi
ontop
##atta
inh
incor
inde
##reau
##roc
##roit
toga
##onni
##etic
isra
##orant
##choc
##outing
##oura
##oured
##eli
##elding
##idng
negle
whizz
wholly
sittinga
areal
areaseveral
##uted
bureau
pebbles
trapped
##ebook
peoplean
peoplethere
peopleseveral
shing
plaques
##lock
tablevarious
streaking
chart
chance
chilling
chuck
cherub
doves
lacy
beware
fron
boars
topseveral
someon
##atever
##addled
upclose
upturned
##iona
rick
dogthere
fieldblack
snowone
snowpeople
snowsome
snowskiers
tented
closes
trainsa
##ulf
##ulting
parkan
parkman
roomman
roomthree
##sts
##stalled
##indi
##indrical
##plete
blues
blizz
grasssome
grassfour
phys
bypeople
##ueled
##entric
##phia
bedsa
buildingpeople
buildingmany
playroom
playstation
##pted
##pthree
skateba
susan
suzu
##zzy
foodthere
core
cove
cobb
skateboardan
beaded
beacon
greensa
poke
posh
pizzapeople
otherfour
beachfront
toiletan
toilettwo
ballpeople
menacing
##rella
##rellas
waxed
##thest
compass
complic
picturean
citythere
moutain
benchpeople
slick
slug
##orescent
sandtwo
grav
aroundan
scones
handsthe
tavern
treethree
computertwo
wallthree
wallsthe
delect
ragged
vegan
spind
trucking
swarm
frisbeeyoung
reason
bannister
outsideman
##gger
diverse
diorama
bananathe
##single
courtseveral
skyseveral
##ctioned
sandwiched
##lyn
##lya
sole
viewpoint
##agers
plats
hyr
hyde
hydran
passa
rackett
racketan
racketman
refueling
##iesa
chewed
saver
brothers
headtwo
##parents
hangers
feeling
uneven
readya
cupc
encom
drill
boxcars
bespect
acou
known
knack
##pecially
##corting
##corated
televis
clea
pasted
pinkish
##tened
ovenan
umbrellasan
curt
barges
stovean
airporttwo
airportthere
patting
mont
throwa
papered
somet
somber
railways
riverboat
canning
##acled
sleeved
##ashes
drinksthe
runways
lightsan
storetwo
balck
greets
nozzle
nobody
hauled
lookign
##cling
waythe
matress
photographic
zoothree
zookeeper
salvation
multist
##rone
hush
expect
triangles
freest
included
shelfs
hosing
hoisted
cooktop
shaves
countrysidea
flap
windowsilla
layout
##dib
movinga
crescent
pathtwo
toppinga
paired
cartons
singer
carriers
styling
tiki
##istan
eyeball
necked
tarmact
gloss
winner
winethe
footstool
surfacean
electronicsa
souven
goldfish
juices
##screen
steambo
##dela
##linea
forms
breakfasta
trashcans
pools
retaining
controllerstwo
framing
signala
clams
jumpsuit
shoving
baord
propane
modem
twink
circuit
intercept
electricity
mustach
glis
sweatera
walkways
missh
toasta
toasters
warped
sydney
bullpen
classical
headscar
bouquets
medley
medals
mitten
candlelight
hoods
condom
grooms
metersa
patioa
personalized
cubical
cubicles
eyeing
pinto
mitta
simps
simulated
passesa
microsoft
caravan
peter
hearth
snacking
firm
croquet
alsoa
rubb
icinga
housethere
usea
usual
cornbread
balloonsa
reporter
tastefully
londona
napkinsa
olivesa
insides
confin
fountaina
##carrots
safely
cranberries
magazinea
frisbeesa
ceramics
calfs
servicing
grandma
grandmother
prim
poppy
bootsa
stepa
illuminating
thank
antlers
hometwo
ribbona
detroit
valleya
bedspreads
dancer
example
examined
strate
movable
owls
splashed
unfolded
stablea
limba
fenceseveral
textbook
consolea
britain
criba
##mont
beansa
beanbag
##maid
##trucks
lieing
shapped
checkout
gourds
umbrellathere
snuggle
expressions
mapa
informational
edged
##buses
jeeps
inflated
scraps
handbags
##office
dunking
flex
crests
##fruits
drooping
mexico
latte
instructional
releases
##ettea
occupants
cemetary
oakland
signthree
webcam
flushed
sandwhiches
##workers
knickkn
swimsuits
jewish
technique
untied
effort
wristband
stays
accentsa
scrubby
atvs
dumped
dummies
pearls
ratchet
aero
buddy
specially
shrubsa
astro
criss
congratulating
frisbya
burgera
lockers
tackling
swirly
minimalist
pugs
unatt
southwestern
lanea
pipeline
abundant
livingrooma
motocycle
experiment
exhausted
cylindrical
scoreboard
unpainted
strokes
especially
escorting
valve
cheerful
cashe
erase
oventhe
##ourists
fifty
fifties
fifteen
altern
surgery
supreme
peripheral
installation
2013
emptying
turbines
dutch
answ
kennel
since
fluorescent
blindfold
citizen
dolphins
successfully
buddha
insidethe
pamphlet
boutonni
negot
negative
lakeside
suggest
fascinated
atlanta
cellphonethe
runaway
uninstalled
thirteen
segments
disembark
mimicking
development
artichokes
paragliding
worms
clippings
appreciating
dwarfed
hopping
valentine
refreshments
promotional
depiction
caddy
pumping
rye
slushy
##pedestrians
bleeding
vitamin
gnawing
pylons
wrangling
wintry
##doughnuts
intertwined
appealing
sauteed
fancily
yawns
foothills
mandarin
caterpill
flask
precarious
hyrdrant
barstools
lattice
##breakfast
gatorade
thames
fierce
cautiously
unzipped
crosstown
george
dwelling
illeg
otherseveral
dougnuts
kneepads
remnants
washbasin
chinatown
uncomfortable
vietnamese
wrenches
##chocolate
blizzard
suzuki
complicated
delectable
encompass
bespectacled
steamboat
boutonniere
caterpillar
23
31
33
32
51
70
az
ack
avid
ct
cp
ecc
flee
faster
gin
gong
hp
hong
hub
hops
ign
jutting
jello
kar
mills
nw
niche
oe
oh
om
opt
pran
pint
poun
pago
qantas
rind
sut
sown
sul
soph
ting
tink
trel
tummy
tipping
vice
wides
yes
zipping
##eveled
##ders
##sandwich
##tes
##oor
##ogs
##osed
##lice
##lif
##lorn
##page
##pery
##pip
##pants
##nc
##rase
##rated
##cas
##hist
##mill
##mering
##maker
##ias
##iors
##gar
##gic
##glaz
##zar
##uar
##bour
##bby
##vin
##vable
##vane
##vases
##kat
##fc
##fy
##ji
##inis
thor
thri
onetwo
##atw
##atives
##aran
##arking
##arita
inning
inset
inquis
##redo
##enas
##aly
toting
stting
steth
stitch
stern
##onnected
##ording
##ounding
##ising
mand
manger
manhat
##laim
##idding
##otation
##otive
whatever
staning
##icy
##icemen
##aber
skyc
twoa
trams
##ebasket
##urple
shave
shuff
roaring
plying
tablegroup
tablepizza
cham
chipping
cough
streetman
laced
beast
becoming
boeing
smith
smal
##sem
personthe
batsa
##ador
##rible
gira
downstairs
downhilla
catam
catsa
cathol
pian
riv
##ruck
carsthe
outan
fronttwo
##ulas
##ulation
blackened
busthere
surv
##ellas
roomseveral
##stain
##stery
ridinga
grassseveral
grasscows
redone
phrase
##ights
buildingstreet
baseballtwo
##airport
comics
##pthis
forage
forlorn
foodpeople
hertwo
cocker
coating
code
coals
horsed
skateboardman
backlit
poem
giraffetwo
motors
motorhome
##imp
##gethere
eatting
clocktwo
benz
benef
toiletry
toiletthere
bearan
elephanttwo
desp
ballon
ballthree
ballthis
roadpeople
condo
compound
comparing
disap
alon
laptopthere
trud
##ongated
##shore
##shire
windowthree
windowthis
glassthe
grainy
througha
chairstwo
chairsthe
lighttwo
scatter
handwoman
taila
treks
photosa
decks
deca
deod
spig
spouting
spicy
swaddled
rev
reind
bang
colour
collabor
division
umbrellawoman
clings
clumps
clinton
##grounda
##apor
bowler
mak
maca
couchthere
togetherfour
bizar
backgroundpeople
drier
drifts
drifting
dribbling
tees
kitepeople
##tsa
##ublic
hyenas
oceanan
oceanman
goa
##angers
vegetated
passer
##ormany
airplanean
mirrorthis
refere
animalstwo
mountainthere
cheet
hillthere
said
impo
daybed
groundthere
headan
headthe
mooring
##veland
waveman
restra
restric
slopethree
addition
##ipp
themseveral
boxan
variations
loit
logging
knows
emot
emph
doorste
slopean
glassesthree
pastea
talbe
polethere
trackthere
trackthis
tracksthere
emptya
highlights
walkan
barrow
soccor
aging
agree
posinga
chairsan
remotetwo
ladya
patrick
monte
nightan
meets
paperthe
homey
booklet
linetwo
cano
canon
canister
traythree
disheveled
clouded
plantain
##ollia
muss
brushtwo
showerthe
slicea
storethe
rainthe
mouththere
rocksthe
##athered
handset
booty
tye
##ertime
zooseveral
enclosurethere
forestan
pillara
startled
skiersa
enginea
commuting
frees
hos
##space
flair
windowsome
wallsome
platformthe
workinga
shortsa
steet
yardtwo
pawn
paused
distrib
newest
doughnutstwo
milks
lampan
applied
tietwo
eyea
conco
modernized
heaped
centers
duo
boardsome
curbtwo
flattened
##versary
staircasea
earsa
earbu
frit
artful
souffle
creams
serveda
##dees
staringa
formed
devoid
smoky
ledges
harper
farming
farmhouse
##banana
cracks
shoved
according
bails
baza
approached
twists
advertise
advertised
sprig
sprint
##vidual
magic
glim
riderless
sweaty
##daughter
sporty
##kerchief
pawa
positiona
draught
supported
headsa
growling
useful
indifferent
##gonomic
climber
##mod
noodlesa
masked
maska
freezera
chargers
laminate
spreada
patterna
snacka
stooping
separates
cyclesa
hummus
spectatorsa
fingert
delicacy
##bury
patchy
housed
tabl
tabler
labor
tastes
wingsa
observers
shadowa
jara
planet
planetwo
liquida
joe
aheada
printing
dessertsa
weathervane
crusty
tiresa
sadly
##wasaki
comfortera
customized
avi
avatar
illusion
bandages
##sthese
granddaughter
jumble
elbows
elongated
primar
surfacethe
attempted
mommy
brah
braids
progressa
instructs
ringed
fabulous
scarfa
operate
relief
##isticated
slabs
comforters
storma
parachuting
homer
recept
receives
picklesa
plazaa
camerathere
europ
bedspreada
materiala
materialsa
anytime
anywhere
minute
ruck
rafta
badges
attendees
canala
windsurfs
companions
garnishes
facebook
bridles
floaters
sharpener
sharpening
headboarda
rotunda
##truck
bluebird
pressure
exposing
gyma
checkers
checkpoint
suburb
suburbs
boardwalka
emerges
umbrellathree
arrayed
tortoise
spatulas
huta
menua
fingersa
routes
foaming
sleds
##pancakes
plentiful
waterfalla
wallpapera
queue
torches
##semble
panthe
admired
squared
jams
carnation
ascend
pouches
consume
193
escort
fieldsmall
demonstrate
demonstrates
200
rancher
businessa
latin
watermelons
mission
finch
occupying
oceanthere
machinesa
bronco
fueling
victoria
wavestwo
wondering
lessons
wigs
icicles
contrail
##guys
fencesome
techniques
until
fireplac
gingerbread
barbersh
calculators
luggag
applesauce
refridgeratora
vender
thinks
##grammed
vegas
cheeks
budding
obscene
astounding
safeway
cannon
horizontally
continues
muscle
receiver
title
skewer
swirled
preserver
50th
partitions
encount
feathered
pleasure
lapsed
scallop
battleship
nerf
sittign
contemplates
occur
##crowd
stroke
addresses
mallet
rays
sippy
recognizable
hatchback
impression
disgust
cheerle
guestsa
ergonomic
oventwo
vasetwo
vasethe
##iction
acrobat
utilizing
##entedly
monogrammed
turbine
organizer
spools
judged
buddhist
gladi
michael
mangos
martini
explore
oreo
passageway
rolex
girraff
girrafe
segment
moderate
journal
gracefully
spokes
broccolithere
cosmetic
sibling
tartar
manipulated
manipulating
chaps
furnishingsa
stamps
predators
believing
harbour
loosened
volunteer
##lamps
cocoa
intriguing
technician
##watch
##iliar
togethersome
unicorn
distinct
ripeness
gatetwo
kawasaki
kabob
nudging
stitched
grille
wastebasket
reporters
cockatoo
nachos
trampoline
apricots
application
grimacing
institutional
screwdriver
nourishment
unaware
problem
provided
marathon
presidents
anniversary
##electronic
executive
moldy
migr
incorpor
neglected
##individual
cobbler
acoustic
multistory
rubbish
knickknacks
cashews
pagoda
sophisticated
trellis
##glazed
catholic
decaying
bizarre
earbuds
bazaar
primarily
barbershop
16
17
2nd
99
ak
avea
awards
achie
bach
cy
ced
ces
dur
dran
ease
eps
ferries
fett
gle
glas
glee
gond
gump
gaining
hone
hurry
ipo
jay
jord
ls
lind
list
leathers
lunge
ms
mull
mement
mower
masts
nigh
nation
nib
oj
pilled
pist
puffed
roping
sisters
sorry
tam
teat
um
vapor
ye
##ever
##ecting
##sign
##tw
##tak
##tling
##tray
##wide
##word
##loo
##lue
##lim
##look
##llic
##looks
##no
##nip
##rint
##count
##had
##high
##hum
##hey
##mel
##mic
##ii
##ifferent
##ieth
##iently
##zens
##yons
##uk
##uch
##uve
##bar
##bon
##fried
##inet
##iners
##inetwo
##inness
##itage
##itory
##erving
onboard
onpeople
##lest
##atters
##arison
themb
ing
invis
incom
##rey
anx
##roof
##eners
tolit
##omething
##onds
##owera
##ories
##orda
##irst
##cho
##chy
##chef
##isome
##ision
mantwo
manager
##lakes
##opoly
sitea
##rains
##alling
##elict
##eluggage
##idas
##iddle
##ilia
##otor
whi
whack
##olis
##olds
##iculous
##arda
##abatta
buiding
peope
pecans
##eber
##urb
##ablea
sham
shish
itvarious
itstreet
roles
holste
##locked
stree
chir
changes
dole
doortwo
cousc
streetgroup
streetcity
lack
laun
##herita
holdinga
topthis
smalla
smells
##cepting
batan
batches
##adent
##riage
flurry
fluffed
flotation
rib
ripp
sno
##run
outwards
fieldthis
fieldyoung
fieldcows
fieldzebras
snowball
##ignment
grat
busan
busily
buspeople
basking
surreal
signstwo
##stage
##stud
##aya
##plets
bluff
airthis
grassmany
grasszebras
sidecars
waterbirds
##enthree
##enthus
bathes
##vings
bedthis
buildingthis
buildingssome
baseballbaseball
skatboard
seab
seea
combed
##mbers
suds
##zzled
##ycler
foodman
foodseveral
foodgroup
heritage
horsethere
horrible
beaver
woodpe
licked
pods
skiiing
skimpy
motorist
overtop
overex
overheard
overtak
beachfour
bearstwo
ballroom
ballyoung
ballpark
##emor
roadsa
roadman
constru
comparison
mousethe
disarray
allo
benchman
townthe
slou
slips
slathered
motorcycleman
childrent
sinkthere
glassan
gamepeople
openthe
boatpeople
aroundthe
##una
lightstwo
handy
handkerchief
taill
taker
taught
taht
horsean
treading
computeran
computerthere
birch
wallseveral
lita
deskthis
deformed
coveralls
racc
rags
cakeman
openan
spans
spend
##estically
truckpeople
swishing
firepl
reen
columb
surfboardan
bunnies
treeseveral
bananass
clin
courtman
courtthree
treefour
skysome
skyfour
skymany
##apore
cutters
ability
appla
##vesting
maze
mauve
showed
couchthree
togethermany
bible
biplanes
shirtsa
solem
skisthere
biggest
standsa
platestwo
##lesa
hotplate
lever
levela
pieced
luke
vegetablea
vegetablestwo
anotherthree
dirtthe
dirtthere
##ilingual
towertwo
##ourse
flowersan
cheers
hillfour
sac
sav
hitching
brides
guinness
groundthree
mogul
hangera
adn
adidas
tieman
tieyoung
unhealthy
cupping
enh
ensemble
prom
promo
themself
themfour
signsan
signsseveral
crossword
sunb
sunroof
loved
lovers
arct
arching
abovepeople
knea
##peas
refrigeration
email
kiddie
keypad
dont
donations
dooran
slopepeople
clever
tallest
ridera
decoratively
bagan
highland
cabana
walkthe
curvea
baron
barny
barns
bareback
brew
breeds
again
tvan
bodyboarding
cabins
pained
pattered
monst
monopoly
forehea
coffeep
meaning
meander
papertwo
somersa
itemstwo
booktwo
himan
riveran
poly
cansa
rame
ramptwo
##iance
traythe
sleeper
restauranttwo
drinkthe
plantsthe
##akis
##closed
resident
pilea
houseplants
facean
##gray
silos
##ocular
seatb
amph
amusing
showna
haze
darker
suitcasean
sheers
postage
##alet
mealtwo
saloon
multit
candid
trib
trial
engulf
commemor
monitorthe
makings
obstructed
shelfthe
hobby
##spass
cookout
cookbooks
marketpeople
worka
assisted
blanketthe
##diac
wallsan
squints
crews
urin
##lessly
freshener
subs
##ddler
stepped
paving
afar
afield
mountainsome
singapore
shores
shorethe
directed
lampsh
necktiea
othersome
##itively
heap
pedaling
duvet
curbthe
##tube
flya
pastures
fishnet
fring
friday
fritter
frilly
spoonsa
matchthe
arta
sandwichesa
objectsa
churchthe
planesa
stylea
##scious
steaks
devour
reflectiona
smokey
foodsome
rugthe
flagpole
turret
strawa
umpires
gardens
funnel
funeral
weddinga
burns
##few
cradle
craggy
crayons
kicked
##apeople
approval
baggy
extensive
##idently
propel
carda
##goers
eventtwo
cloudsan
twine
disconnected
outsides
costumea
figs
sprints
decorationa
glances
antiqu
stray
straining
network
##dales
steams
##soccer
goodsa
peep
peeing
##ibility
pealed
grills
bakeda
drape
draining
dragged
pierced
sprinkler
flippers
##cover
##coach
sheeted
sheetstwo
furthest
sorta
sorted
presidential
vanitya
hooda
rearing
cubed
semis
glazing
waiters
freezers
beveragea
lama
lifejacket
porridge
stoic
stoops
motions
celebrity
sculpturea
toothbrushesa
focuses
horsebacka
author
removable
tucking
farther
coaching
coached
chilies
##iladel
planner
joining
tuned
insign
cratea
archways
thinly
indicated
goata
bitty
herselfa
foldable
radish
frisbeesome
stagecoach
drivera
connects
suspicious
bandaged
servethe
aprona
digs
abandon
prizes
interaction
bracket
braided
devicesa
witches
porcha
roams
sidwalk
sidethere
operation
recycle
awake
fingerna
cuptwo
fairground
needing
hipp
sneak
sneaks
granny
goala
quilta
bluish
processed
vegetationa
camerathree
projects
trima
meetinga
binding
binocular
majestically
crosseda
googles
folds
mints
desksa
warehousea
helicopters
struts
freewaya
consoles
fencethis
garnisha
garnishment
decided
macintosh
sharply
tarts
tarps
festivala
chinaa
##hands
enterpris
sneakersa
printera
pays
payer
stripesa
skillets
superman
opponenta
nesta
guna
informing
sanctioned
##loyees
yorkie
ottomans
meme
murals
outsidethree
scrunched
merge
companya
moneya
situation
james
tempting
grizzle
brunch
domino
conventiona
adjustable
dugouta
watermark
cluba
##ultiple
poult
unde
broadly
broadcast
escorted
bleacher
droplets
hunches
tulip
celebrationa
branded
miller
hurdles
wrestles
blends
tarpa
ambulances
##crew
##residential
wavethere
mechanics
mechanism
webpage
equestrians
flank
blazing
crawls
##cision
madison
scream
puppets
##working
##worth
staples
stylus
grapefruits
cacti
spirit
diagram
rigged
chiqu
snaps
venturing
##cycles
sunday
littering
dangled
frank
zodiac
scrubber
##business
architecturally
columned
pearl
plume
amazon
vegit
crook
choir
lawntwo
continue
markera
certainly
##cupcakes
##ielding
programming
squeeze
universal
technological
30th
bonds
bonnet
convenient
gauze
effects
incredib
chocolatea
foilage
seashells
hosts
stroking
##photograph
maln
valves
buoys
weedy
wildernesstwo
impressed
autographed
gnarly
component
suitcasethe
suitcasethere
announcer
ditcha
##ourished
dreads
hooves
khakis
shields
collectib
ecla
energet
fetching
overhanging
splattered
turbans
marijuana
jalapeno
chimneys
derelict
foul
fishermen
chugging
dramatically
corrected
reserved
exercises
philly
disembarking
wiht
pinstriped
microwavethere
civilians
honk
jointly
brimmed
odds
chapel
skimming
sweeps
clasping
luggagetwo
zippered
gelato
sheepthe
sponsored
sworda
valentines
shuttered
severely
treetops
literature
bannanas
hitchhi
clementine
clementines
margherita
manufactur
manufacturing
july
sterile
traffice
ciabatta
##towels
inscribed
inscription
scribbled
cultural
manikin
alfredo
swivel
initials
lodged
colleagues
circling
corsage
chariot
motorcyles
nineteen
dispensing
malaysia
doodling
mortar
sidewaysa
togetherseveral
longingly
turntable
shoelace
crinkle
leaguer
toothpastea
gerbil
hashbrowns
succulents
dentist
idiot
reef
swooping
sensor
##display
physical
hyrdant
glossy
misshapen
simpsons
precariously
eccentric
fleece
pounce
widescreen
thorny
##atwurst
manhattan
catamaran
deodorant
reindeer
teeshirt
concoction
brahma
drank
jordan
mementos
invisible
shamro
holstein
couscous
launched
overexposed
overtaken
raccoon
fireplug
solemn
promoting
barnyard
foreheads
##iladelphia
poultry
incredibly
21
38
46
48
76
80
89
ae
ay
aids
billed
bras
bour
betting
bist
bern
binders
cert
cron
culture
ds
dera
dinging
dented
eof
filet
fool
fists
faint
fueled
gut
grop
gains
gala
hd
hight
hila
idy
ide
jou
kt
kle
kings
kerry
kara
kfc
lg
lut
lent
listing
mind
mph
mcc
mime
mentwo
mardi
nd
naz
osc
outing
pru
poth
pinking
pray
punching
penthe
psy
rump
ronal
ranging
sage
sap
saber
tiew
vat
vet
vign
vie
void
vote
wils
wella
yams
zer
##ean
##eople
##every
##down
##dirty
##sie
##sive
##town
##with
##oom
##oilet
##olet
##oscope
##li
##lighting
##lied
##pre
##pas
##purple
##nat
##nels
##namic
##cla
##cade
##cyclists
##colored
##hip
##hns
##mir
##mate
##mart
##mount
##away
##aven
##iels
##gue
##gent
##gun
##gular
##geseveral
##zo
##uding
##under
##bone
##burn
##vase
##vous
##xy
##kis
##fig
##fic
##flection
##fied
##ference
##inner
##itng
##itated
##itive
##erous
thr
ont
onthere
onthree
##aries
##rela
##reco
##regular
withered
##roe
##romat
##enced
##enex
##alp
##alking
##alty
##edog
##edict
tog
tomb
tough
toront
ston
stna
##omin
##omebody
##esy
##asant
##ckers
##ords
##chen
##chal
##outh
##ouac
##isc
manage
manchester
##laf
##lamp
##ladies
##opa
##opy
##opot
##raid
##raige
##raham
##elong
##ilities
whle
##ersome
##olk
##oling
##olas
##olorful
##gee
areab
##icirc
##eak
##eagull
buis
bucks
buries
bubbly
ska
sket
skidding
peple
##ebear
shi
shes
shall
shove
shielding
ros
womantwo
hollow
holidng
tablewoman
tableblack
streaked
chats
chars
chives
doge
counting
streetdouble
streetlamp
lacking
beck
becomes
fied
bog
boad
thatch
smalle
##sey
##sepia
##cehn
batthere
batbaseball
battling
##ria
##rior
catalog
catnip
upd
pix
snar
##ruction
carve
carport
carseat
carraige
dogman
outlets
##ngy
fieldone
fieldlarge
neara
snowmen
clogged
closea
trainseveral
traintra
frontal
frontier
parkthis
blackboard
##rowth
signsthere
roomsmall
##star
##ayoung
kitethere
kitcehn
blast
grassed
grassgroup
reduce
sideboard
sideburn
phil
pharm
philadelphia
byseveral
waterone
waterblack
bedseveral
basebal
buildingman
hasn
playin
sewn
seuss
select
##mble
playingtwo
##pter
skatebo
sucks
suffer
sunthe
forces
foodthis
cocking
pizzathere
skateboardstwo
backh
backup
beaming
moter
motiv
woodwork
poked
poached
pizzaan
pizzawoman
otherone
otherthere
skiff
motoring
overcooked
beachthis
benedict
beartwo
bearthere
picn
elephantthe
ballbaseball
ballplayer
roadblack
const
compos
picturethere
pictureseveral
##ledging
citythis
gamer
motorcyclers
alight
alive
boardthree
boardsthree
benched
benchthree
slit
slum
motorcyclestwo
windup
laptopman
true
trund
trust
##ores
sandan
##umes
glassy
glasstwo
grad
graces
grained
##tery
opentwo
boatan
boatstwo
frisbea
aroundthree
lighthousea
handman
taping
taps
tapping
horsepeople
tread
treest
treeline
trespass
underhand
rapped
railed
spill
spelling
spouts
spoke
trucker
truckthere
swab
frisbeeman
reverse
##ccia
surfboardman
surfboardsthree
##ggings
readied
bowel
bowels
bowtiea
treesome
treespeople
suittwo
bananastwo
orang
courtroom
courtwoman
##aps
bowlthere
contentedly
abraham
togetherpeople
bibs
biath
backgroundthis
drivea
teet
viewers
prevent
studs
birdbath
leggings
piecea
oceansome
hydra
##dozens
passers
passangers
racketthere
##dley
displaythe
vegetablesthe
refuse
refigerator
refurb
wiffle
wieners
anotherthe
dirtthree
womens
sidewalkthree
animalthe
mountainan
mountainstwo
mountainsthe
standin
##ethese
##sai
##sail
jumpthe
##ousine
hillpeople
hillthis
sax
parkinga
fruitthe
giraffesa
imitating
bratwurst
fencecows
wavean
carsan
stuffs
feels
restuar
adop
##icked
dressage
unle
unap
unenthus
unreco
imagea
##theast
enclo
envelop
camcor
camof
proced
##ipea
hatman
corgi
themea
thempeople
themmany
variation
crossa
sunning
sunscreen
accepting
##ultural
lose
wording
broccolit
brocclie
skiingtwo
preparations
emu
kida
##corner
##corative
glassesthe
remolded
talbot
leak
leavea
polesthere
ridiculous
keyboardsa
keyboardtwo
passengera
##cesa
cornertwo
bicycletwo
##vised
bagtwo
bagthere
servers
perman
perked
permit
umbrellasthe
umbrellasthere
marl
marily
barack
barry
barley
barrack
kitesmany
televisionthe
televisionthere
bred
bottletwo
pitts
pitbull
agric
soccertwo
soccerball
airports
allot
bodyboard
platesthere
month
monroe
coffees
bricka
meowing
jeta
homework
itema
himman
liners
ramping
##acles
traythere
hex
drinktwo
pitchera
dishthe
plantera
##alfa
showerhead
houseplant
##ishly
pursuit
rained
mouthful
rockan
rocktwo
rockthe
nosing
nostal
handsan
handsman
panes
tubtwo
haunches
##weiser
grayish
waytwo
zoothere
enclosurefour
##izers
posture
hairst
hairtwo
hairthe
forests
knifean
uniformsa
adulta
furnace
started
stature
statutes
dockthe
branchtwo
tried
trike
pillowcases
commer
commute
forked
monitoring
cleana
##ingsome
performancea
hogs
flowerpot
painteda
marketthere
workout
windowsan
##intment
settingan
##uttered
blankettwo
##jockey
penalty
squirt
squished
bushtwo
partners
stacking
workings
##dden
shortly
pavers
pails
afraid
singular
familiar
entwined
newsc
doughnutthe
garaget
vehiclethe
tiethere
eyel
eyeb
familya
landmark
ninj
chickpeas
heaping
duel
duke
ducking
dudes
sailer
curban
egga
bathtubs
wheelers
phonesomeone
passengersan
swimwear
earring
frisbeethere
rights
oniona
schoolbus
##inium
backpacking
fanning
southeast
##scross
steady
rounda
butto
fogged
bushesthe
haytwo
##tiing
devic
deviled
plateau
spaceous
designating
rugsa
harvesting
turk
appearance
hamp
poolside
hardly
burn
frag
restrooms
##brightly
desktops
shoest
shoestwo
eventually
ween
circled
racehorses
interface
##desk
pondtwo
transl
transfer
gateway
##keyboard
pastaa
cakesome
magenta
##azard
glory
glitter
strains
strapping
nettwo
sweating
chaina
chainsa
capa
capable
speedometer
storks
mischie
actions
bearda
palms
peela
warth
doorwayan
tomatos
peaked
##new
outfita
drainer
sync
furred
watersomeone
mittens
candlesticks
leafed
indians
hoody
climbers
ketchu
semicirc
buttery
##actors
owla
pinning
pinwheel
charlot
tankless
basketsa
fastball
##fluffy
##bike
roadwaya
snacksa
solders
motionless
duckling
collision
##bowls
pedestriansa
delicately
toastera
ruby
##burgh
slopesome
autum
tuss
housethis
usage
visiblea
labeling
naan
organizing
expire
habitattwo
observ
johns
archa
enjoyable
bunkbed
dena
bitea
volvo
cartsa
hospitala
forwarda
lifea
bands
bandage
##while
servicea
nativity
digit
combat
combines
lemona
converses
begun
cigarettea
idling
populate
moma
timethe
braid
brakes
production
sonic
##chairs
witch
golfa
golfer
raiseda
sidethree
sayings
grime
griaffe
slap
##ordinary
blinder
blindsa
faira
hikes
homethe
uncon
protester
skinning
shorelinea
cereala
soapy
camerab
cameram
projecta
obstaclea
tatoo
berriesa
shelters
examples
collector
folk
minnie
numbersa
villagea
##personal
knivesa
mallard
closets
blurs
greenerya
recorded
cartoonish
halo
buggya
facetwo
boring
bridgetwo
decadent
identically
savannaha
happens
beginner
messagea
rotini
extraordinary
kneesa
stomacha
threat
threes
campfire
campbell
expose
inspection
inspected
gyro
satis
easier
measured
loafs
indiana
informal
remodeleda
##ornate
avenuea
routine
##boxes
##nesota
cuttera
junky
slew
slept
upwarda
hawks
scrubbing
cotta
mermaid
rhode
flesh
flexing
champion
retrieves
cityc
cautionary
sheda
kayaker
adjusted
sprouting
drunk
pillarsa
marshm
oversee
tripa
slaba
statement
corrala
pondering
cagesa
bouncy
brocoli
brocollia
studioa
nutsa
accommod
browses
hoursa
nonchal
router
##skier
installeda
missiles
##eboarders
finan
omelets
occupies
rockaway
myspace
octag
sighta
slipper
slippery
hookah
signthis
accompany
palet
##namite
wavethree
airplanethe
woolen
westmin
participants
skyscrapersa
blaze
blazera
##nowledging
alertly
yourself
screwed
screenthe
fireplaces
functions
pumpkinsa
contestant
barricaded
ventilation
whisper
##motorcyclist
productsa
murdered
injury
concerta
tournamenta
plumes
gravela
graveled
clutched
goofing
laser
virg
terrible
budweiser
obscures
astron
crisscross
drizzling
attacked
received
preforms
##team
kiteboards
panelinga
knotted
dynamite
tackle
stealth
preserves
indiaa
merchants
minimalistic
arab
comboa
forresta
bonsai
tonight
feathery
ipads
tshirta
altar
bounds
bounded
boundary
experience
cylinders
dinosaurs
shakespear
##crowded
armchairs
dangerously
chooses
recovery
recogn
romantic
manicure
photothe
spiked
straddles
illustrated
beret
berlin
puzzled
composed
scotland
explains
kiln
kilts
dodging
supple
interviewing
collectible
receipts
disposal
insects
driftwood
agoa
grungy
vespas
eva
chunky
lovingly
antennae
bolt
bolts
bolted
tears
tearing
limited
limousine
martin
wrinkles
distancetwo
distancethe
##delicious
assistance
powdera
bassinet
thirty
surveying
surveys
scrolling
moderately
13th
slogan
snowsuits
graceful
wiithe
wiithree
advancing
purposes
sanitizer
broccolithe
frumpled
chowder
clasped
torsos
politicians
lollipops
irregular
##grilled
stamped
sponsor
differnt
brochure
prohibiting
believe
representation
loosely
platebroccoli
margarita
triumphant
volunteers
okay
zeal
zeeb
##clean
harvested
technicians
lakethe
script
unclear
barbecued
buidlinga
hilton
kerouac
thighs
umbrellasseveral
alfalfa
weighed
##bicycles
artifacts
snowfall
umbrealla
corkscrew
response
exceptionally
firsbee
possessions
##buildings
abovethe
rummaging
brooklyn
fantasy
nathans
chemical
cathay
lilacs
levitating
uncommonly
foodstuffsa
gingham
##statues
immac
immediate
brilliant
smokest
everywherea
requires
challenging
municip
pakistan
whizzes
pokemon
menacingly
raggedy
cupcakea
curtainst
eyeballs
souvenirs
headscarf
confinement
unattached
alternative
answering
illegally
acknowledging
oeuv
prancing
stethoscope
##sempty
girafe
despite
spigot
revol
cheetos
restricted
loitering
emphas
glimpse
receptacle
cheerleader
girraffe
fettucc
gleaming
nibble
umping
incomplete
##chefs
rippling
clinic
savory
arctic
lampshade
insignia
recycled
hippopot
binoculars
chiquita
malnourished
collectibles
bourbon
bistro
idyllic
ktichen
kleenex
karaoke
ronald
wilson
toronto
stnading
smallest
sideburns
pharmacy
refurbished
unrecognizable
enclosing
camcorder
procedure
broccolitwo
marilyn
nostalgic
westminster
shakespeare
hippopotam
28
360
47
75
78
aro
ace
actor
avery
bp
bolog
bilingual
cue
cess
cuff
cots
dor
dign
dain
dill
dunk
daring
dicing
dhl
ee
ew
ep
eying
ecl
econ
echo
fow
fang
fus
fare
fiction
gan
gag
gren
gonea
gord
gutting
ht
hooking
hunk
hopes
ib
ikea
iphones
jon
jell
ky
kith
kkk
ll
lf
ler
lor
lving
moo
mellow
mna
molding
none
nyc
niss
nug
nuc
nacks
oas
oils
oara
omin
pt
pp
piling
pda
puss
rut
rainst
sas
sic
sant
sent
sacks
tass
till
tidea
tamp
tests
tested
tweed
uha
vo
vag
wink
wish
winking
wise
yello
zig
zips
##eple
##eight
##eous
##sity
##sbee
##snow
##tic
##tign
##tily
##wind
##ost
##odes
##lan
##lunch
##lifts
##pin
##ployees
##nea
##nice
##rs
##rer
##rice
##cand
##cust
##cons
##cano
##hel
##hem
##hese
##middle
##aa
##ax
##aurant
##iy
##ik
##iar
##iera
##iated
##iary
##got
##gus
##gold
##gically
##zers
##ym
##yan
##uel
##ules
##uilding
##bard
##bert
##bare
##bush
##bunch
##beds
##bald
##vage
##xual
##kate
##kach
##fes
##fall
##fry
##furn
##fans
##french
##fisher
##11
##20
##itor
##itty
##itarian
##erer
##erting
thro
thail
thunder
online
onstage
##lear
##atetwo
##atables
##aru
##aras
inan
inbet
anoth
##roop
##root
##rose
##rosted
##rota
##rodu
##ender
##alized
##eder
tole
tore
toot
toba
stoo
stap
stup
stading
staked
stowed
stumps
stabil
stalking
##omping
##asm
##owa
##cken
##etrain
isa
##order
##orkers
##chers
##chool
manning
managing
sittiing
##allion
##oosh
##idating
##ilized
##ilical
whil
whtie
##roung
##gear
##icature
##icolored
##eam
##ealed
bubbling
skit
pees
pecan
pecul
peopl
standingtwo
trap
##ebrown
##ebirds
##urban
##xtap
shy
shock
sheds
shacks
whitecap
itch
itone
itfour
itgroup
itperson
itwhite
itcloseup
##nthree
rover
rocker
roger
roaster
##assy
##nds
##ffee
plows
##ilent
##log
tabled
tablefood
tablefresh
streng
chro
chilled
chose
chief
chomping
streetd
streetlarge
streetperson
streetstreet
streettraffic
laure
lacks
##hera
begs
beasts
bewild
frost
fie
fiber
boa
boasts
parfa
parcel
parrota
topthree
toppled
smilet
##see
##section
##adena
cattwo
##andex
upgra
pimp
pikach
flus
flier
carting
carring
carsthere
carsthree
caricature
dogstwo
outboard
outthere
fielded
fieldwoman
fieldfive
fieldsomeone
fieldhorses
fieldsheep
snowed
snowthis
snowpl
snowgroup
snowperson
snowcap
walsk
wallets
cloves
trainthere
trainyard
hissing
frontan
tennisan
tennisthere
tennisthree
grasp
bask
##eezers
signsthe
signifying
##aine
roomy
roomful
roommany
roomwoman
##stera
kitties
blust
blower
airthree
grasssheep
grasshop
youtube
platecloseup
reds
phras
bye
bythere
watered
waterwoman
watergroup
waterlarge
waterhole
##enthis
loosing
bathr
bathro
bathmat
##ssh
##phen
##phab
##phazard
bedman
bedpeople
bedthree
bedlarge
bedshe
##dsome
severed
##mbone
##ptile
bathroomsome
bathroombathroom
sucker
suntwo
##zzles
##zzling
forb
forgot
herthere
herons
herring
coil
coors
cokea
cocked
coasting
pizzal
pizzaman
##eart
kitchenpeople
kitchenware
backround
backboard
backsa
backback
mottled
motesa
greenwich
lives
lively
poeple
giraffethe
otherpeople
skiboard
skiera
##iece
##iegated
motorboats
##imes
##imple
##imidating
##gethree
##gethis
overnight
beachside
beachwoman
beachgoers
eatables
eatentwo
clocked
toiletbathroom
pict
elephantsthe
desper
caus
ballgirls
##employees
roadsome
congress
waiving
wafer
##thre
##though
compris
compare
compiled
computing
cityseveral
mous
mousetwo
umbella
umbilical
disgu
motorcross
motorcade
alla
alphab
although
boardera
boardpeople
boardsthe
benchsome
towl
slows
motorcyclean
windsail
laptopsthree
intel
intwo
intact
intimidating
childthe
##shad
##uma
windowpeople
grabb
opport
boater
chaircat
browning
brownstone
aroundseveral
##une
##unity
##unction
lighthouses
stopan
stopthe
scow
scoo
scree
handc
handsh
handthree
handthis
handsthree
taup
treel
trend
littel
dela
deers
rapt
raven
ravine
vege
cakefour
spur
spick
spitting
spandex
truckthree
swining
swerving
##rteen
frisbeepeople
reub
reptile
colog
outsidepeople
##ggan
bowed
dick
covereda
counterseveral
cowstwo
##eater
celloph
suitea
suitthe
banans
banannas
cler
offshore
courtfour
courtesy
skydi
skyward
skyteam
##apple
contorted
contorts
##ups
max
togethergroup
##orsa
##quer
##quila
##quently
sandwichtwo
biketwo
buncha
shirtthe
backgroundone
backgroundmany
backgroundview
soy
soggy
teething
tequila
viewtwo
kitean
skisthe
skisthree
prepack
##etsa
studded
birdtwo
leveled
oceanseveral
gos
lust
##angled
traffictwo
trafficthere
trafficsome
midway
midday
passion
rackettennis
displaytwo
displaythere
floorthree
floorthis
reference
wielding
dirtan
animalan
mountainthe
mountainpeople
standtwo
standthe
standthere
toweran
flowersthis
flowersflowers
babe
hillsome
saab
bros
broiled
broiler
imposed
fencefour
fencemany
headless
headgear
mob
moor
mode
grazed
##pared
hangeda
snowboardstwo
fail
fez
feces
stationthis
bananasan
bananaspeople
##vens
dressy
dressings
unst
unman
drilling
##ipse
hating
hatan
corna
corpse
themes
themsome
signsstreet
crosswalks
sunk
sunbea
sunhat
bikean
loan
arbor
argu
worshi
knelling
luggagean
broccolibroccoli
refrigerat
winepeople
emits
emper
telegraph
refrigeratorthe
bicycler
wiian
pasty
pasties
reminis
leaks
polestreet
trackan
trackthree
keyboardthere
bagpip
serrated
perple
perusing
highlighting
watchingthe
whoa
wholes
cursive
marriage
barnthere
barrela
kitesthere
trickthe
jumpinga
televisiontwo
smilingtwo
bottlethe
talkingtwo
buildingspeople
buildingsseveral
buildingsmany
airportpeople
tvthere
boatspeople
settwo
settled
attired
applean
pats
platesthe
platesthree
plateslice
monsters
monica
nights
variously
foreclosure
##psy
meatsa
watchtwo
watchestwo
bookstwo
railyard
riverpeople
riverthree
coffeemaker
canals
##acia
##acado
pullman
traysa
bedroomthe
somethingtwo
somethingthe
pitchthe
dished
dishestwo
rowed
rowsa
##ersection
runwayplane
tilesthe
showering
results
respect
purposed
rainfore
mouthan
mouthed
rampan
screenan
screenshot
dresseda
##arman
##oco
seater
rockets
rockef
balled
nois
noise
panc
panned
amd
aman
amused
amoco
tubing
tubea
haight
haphazard
##weet
##cluttered
wayland
jacketsa
clothe
enclosureseveral
postsa
postera
posttwo
postthe
hairdo
##toddler
mealsa
decorateda
##ected
salutes
microwavean
multile
scenea
furniturean
furniturethe
dockboats
branchthe
shopthe
shopthere
shopper
mousean
displayeda
command
commodes
fremont
obstruction
hoisting
cookers
shaven
marketthe
seena
rocksan
windowspeople
##intersection
publica
metered
metertwo
fruitsome
assignment
tablesmall
tablesomeone
tablesandwich
blanketed
penseveral
leavesan
squating
trailthe
crested
creations
crevice
pathan
pathpeople
stacka
smilea
subt
shortcake
steve
stealing
stevens
notices
yardthe
yardthere
distressed
distracted
frizz
mountainsan
##ugly
wildflower
wetland
computerstwo
entre
enticing
entoura
entangled
doughnutsthe
garban
gargo
applies
tiestwo
concealed
seagul
townhouses
engineers
heaven
beerthe
pedd
pedist
ducat
boardspeople
tanding
tanning
equal
equally
tarmack
rackthe
tarmacs
seeking
cec
plantsan
pasadena
feedinga
fishbowl
earing
frig
frisbeeseveral
footboard
footbridge
distancean
centeran
concretean
pulp
backpacksa
writting
woodsy
nearbytwo
fanned
quizz
planesan
juggles
juxtap
offices
##decorative
speck
surfersa
airplanesa
smoker
ledgethe
ledgetwo
farmtwo
roosts
flagstone
turrets
urinalsa
gardenthe
dockeda
##ensity
##ensation
teresa
ceilingthe
clamp
clawing
##ios
skiesthe
propelled
toddlera
##goats
crunch
eventan
modular
roofing
roofan
tweezers
racehorse
attemping
arrangeda
figuring
transform
floorsmall
portray
portraying
portrays
mustached
deckthe
washers
glued
netted
plaintwo
sweatpants
practical
speedboats
sunsettwo
posea
storing
storied
beards
shouting
peepee
warplane
cased
vision
visual
visited
tomatoa
##iseveral
sprinklers
supposed
supplied
useda
##lazoned
medallion
waterstwo
watersurfer
presum
presence
leafa
leafsa
streetsign
flights
depress
americans
condensation
happya
groomer
rears
climbed
paddleboard
paddleboarding
calla
ducksa
courses
courcha
semit
ridersa
termite
wetsuita
buttera
butternut
onlya
##moke
balancea
waited
charged
charlie
simmering
tongues
##omotive
carafe
petal
petite
petaled
##bikers
porcup
porcel
toolbox
stole
shoeless
bellied
humped
##athese
##athlete
delicous
##compet
parasurfer
parasurfing
muslim
##abited
autism
remodela
users
tabe
cornfield
labs
facesa
gatheringa
benta
coachtwo
rangea
evenly
bulla
bulging
bulky
shadowsa
steela
jarsa
planethere
cookiesa
joins
insert
confident
enjoyment
openinga
##cargo
bitch
##roturf
dotting
entertainer
craning
radar
dumpling
secure
seconds
stirrer
stirfry
brushesa
matters
taxiway
customera
##anoid
maine
fillet
owned
cliffsa
nicelya
neighboring
pancakesa
grandpa
warmed
canopied
cushiona
elphant
federer
idles
setsa
surfacethere
candya
moms
bikestwo
emblazoned
brackets
guarded
shouldn
savana
griff
fingerling
musica
cupthe
cupthere
sizesa
homose
kegs
festoon
villagers
courtyarda
barriera
##eboats
canoeing
detached
valleys
swept
demo
stemsa
conversations
minion
minced
kissa
coasters
spaced
marrieda
splitting
nightstanda
tablecloths
unfrosted
nowa
airborn
reclined
miami
facethe
facethere
languagea
kneeled
decid
decides
departs
sharpie
compartmentalized
cloudsthe
extendeda
keepers
babiesa
backdropa
phoneb
phonethree
rotted
asphal
logoa
knifethe
otter
solider
packagea
attractively
impending
majority
payment
forcefully
pocketa
emerald
umbrellal
cubiclea
messes
sleepa
sleepily
anglea
captioned
expressway
gallons
pajama
claima
summera
grasslanda
edin
editing
sanitary
sanwich
plugging
yorkshire
##marks
routea
treata
kingfisher
notesa
bannera
leader
trombone
cocktails
distances
queens
blocksa
flew
defense
playgrounda
areasa
juicing
juiced
bloomed
hummingbirds
coleslawa
temp
victim
shedding
domes
assembles
beddinga
bideta
underst
undressed
completes
overshad
196
194
19th
1900
dada
hunching
pontoons
smileya
dormitory
##color
takeoffa
buffalos
morgan
destinationa
latter
brands
missile
oceanthree
fillings
changea
gazinga
mystery
octagonal
randy
sights
moonlight
hooka
accompanying
accidenta
homesa
##potted
todaya
annual
conducting
escalators
flanking
participant
10th
treys
orchest
facilitya
foundation
buys
stapled
technical
generator
generations
functioning
instrumentsa
letteringa
##knife
docksa
archwaya
variegated
patrols
rigs
overgrowth
contestants
ornamentsa
jacked
ventil
searches
alpac
sparkly
cantwo
##ological
francea
##court
placetwo
plungers
spaceship
turtles
totes
knocking
hoopa
##pictures
broccolip
broccolisome
11th
crooks
astrona
astroturf
choking
##pairs
pantrya
drummer
congratulate
sighn
unbrellas
whippet
swirling
swirls
preserved
awarded
puree
zippers
ashtray
dream
##ucky
seperating
dealer
involves
junked
junka
salesman
scaffold
sittting
seniors
##crowds
grafiti
addressing
blossoming
esca
weedsa
romaine
photothere
phototwo
tapea
spikes
suitcasetwo
notepads
berth
brisk
error
oventhere
seduct
weaves
composting
mariners
explain
didn
hooding
sequential
unpacking
hounds
joyfully
utilities
utilitarian
2010
mamm
##rosity
herbsa
speared
crockery
##benches
rollerblades
alex
evidently
false
switches
insidethere
dominates
glad
glac
ruffle
stabbing
suggesting
suggests
limits
dawna
explores
oregon
ollies
reserve
reservo
bulbous
thoughtful
grafittia
snowshoe
phillies
phillips
scroll
scrolls
gushes
microwavethe
wreckage
australiaa
sickly
inserting
traverses
boombox
suckles
teacups
calzones
sanitizers
paraglider
fruity
frustr
irises
##vehicle
beachsurfers
scanning
lettuces
luggagethe
appreciation
dwarfs
nectarine
nectarines
gamebatter
motorcylces
predomin
prohibited
breathing
expertly
belongingsa
masted
violent
yankee
sparrows
refreshment
dandelions
oozing
hunter
entrancing
entrancea
paddington
priority
william
cieling
henry
##cheese
##pedestrian
unicycle
accepts
distinctive
scramble
scrambles
communicate
communicating
vitamins
cultiv
fiddling
geek
kabobs
tumble
weeken
swiping
1971
wwii
##pasta
umbreall
zebratwo
offerings
curiosity
firsbe
colleague
sixteen
firehydranta
associated
bellowing
mrs
nathan
##chopped
manuever
overlaid
embellish
embellished
collapsed
oyster
oysters
preening
snakes
trackstrain
meanders
meandering
krisp
weapon
israeli
shingled
rickety
skatebaord
gravelly
hydrange
cleaver
sometimes
expectantly
freestanding
tarmacthe
twinkies
glistening
primary
strategically
negoti
encompassing
azure
cpu
thrift
inquisitively
chamber
riverseveral
condos
colourful
makera
passerby
restraunt
doorstep
mussels
distributing
fingertips
gladiator
incorporated
bachel
cedar
gleefully
ipoda
##country
anxiously
whiile
##students
constructing
taillights
applauding
kneading
cleverly
monstrosity
somersault
fringe
bindings
enterprise
shamrock
luther
lentils
nazi
##mounted
buisness
shallows
pixel
snarling
backhoe
motivational
picnicking
trundle
treadmill
trespassing
biathlon
camofla
agricultural
hexagonal
newscast
eyebrows
ninja
buttocks
shoestring
weenies
autumna
digitally
marshmallow
nonchalantly
financial
virgini
triumphantly
municipal
oeuvres
fettuccine
hippopotamus
787
bologna
cessna
dainty
ibm
leroy
nissan
nugget
nuclear
oasis
tampa
uhaul
thailand
inbetween
stooges
stupid
peculiar
strength
bewildered
parfait
snowcapped
blustery
grasshopper
phrases
opportunity
taupe
spicket
reuben
cologne
cellophane
unmanned
arguing
worshiping
rainforest
rockefeller
haphazardly
entourage
garbanzo
ducati
porcupine
homosexual
understand
seductively
